{
  "version": "1.0",
  "truncation": null,
  "padding": null,
  "added_tokens": [
    {
      "id": 0,
      "content": "<PAD>",
      "single_word": false,
      "lstrip": false,
      "rstrip": false,
      "normalized": false,
      "special": true
    },
    {
      "id": 1,
      "content": "<UNK>",
      "single_word": false,
      "lstrip": false,
      "rstrip": false,
      "normalized": false,
      "special": true
    },
    {
      "id": 2,
      "content": "<BOS>",
      "single_word": false,
      "lstrip": false,
      "rstrip": false,
      "normalized": false,
      "special": true
    },
    {
      "id": 3,
      "content": "<EOS>",
      "single_word": false,
      "lstrip": false,
      "rstrip": false,
      "normalized": false,
      "special": true
    },
    {
      "id": 4,
      "content": "<USER>",
      "single_word": false,
      "lstrip": false,
      "rstrip": false,
      "normalized": false,
      "special": true
    },
    {
      "id": 5,
      "content": "<ASSISTANT>",
      "single_word": false,
      "lstrip": false,
      "rstrip": false,
      "normalized": false,
      "special": true
    }
  ],
  "normalizer": null,
  "pre_tokenizer": {
    "type": "Split",
    "pattern": {
      "Regex": "[。、\\n]"
    },
    "behavior": "MergedWithPrevious",
    "invert": false
  },
  "post_processor": null,
  "decoder": null,
  "model": {
    "type": "BPE",
    "dropout": null,
    "unk_token": "<UNK>",
    "continuing_subword_prefix": null,
    "end_of_word_suffix": null,
    "fuse_unk": false,
    "byte_fallback": false,
    "ignore_merges": false,
    "vocab": {
      "<PAD>": 0,
      "<UNK>": 1,
      "<BOS>": 2,
      "<EOS>": 3,
      "<USER>": 4,
      "<ASSISTANT>": 5,
      "\n": 6,
      " ": 7,
      "!": 8,
      "\"": 9,
      "#": 10,
      "$": 11,
      "%": 12,
      "&": 13,
      "'": 14,
      "(": 15,
      ")": 16,
      "*": 17,
      "+": 18,
      ",": 19,
      "-": 20,
      ".": 21,
      "/": 22,
      "0": 23,
      "1": 24,
      "2": 25,
      "3": 26,
      "4": 27,
      "5": 28,
      "6": 29,
      "7": 30,
      "8": 31,
      "9": 32,
      ":": 33,
      ";": 34,
      "<": 35,
      "=": 36,
      ">": 37,
      "?": 38,
      "@": 39,
      "A": 40,
      "B": 41,
      "C": 42,
      "D": 43,
      "E": 44,
      "F": 45,
      "G": 46,
      "H": 47,
      "I": 48,
      "J": 49,
      "K": 50,
      "L": 51,
      "M": 52,
      "N": 53,
      "O": 54,
      "P": 55,
      "Q": 56,
      "R": 57,
      "S": 58,
      "T": 59,
      "U": 60,
      "V": 61,
      "W": 62,
      "X": 63,
      "Y": 64,
      "Z": 65,
      "[": 66,
      "\\": 67,
      "]": 68,
      "^": 69,
      "_": 70,
      "`": 71,
      "a": 72,
      "b": 73,
      "c": 74,
      "d": 75,
      "e": 76,
      "f": 77,
      "g": 78,
      "h": 79,
      "i": 80,
      "j": 81,
      "k": 82,
      "l": 83,
      "m": 84,
      "n": 85,
      "o": 86,
      "p": 87,
      "q": 88,
      "r": 89,
      "s": 90,
      "t": 91,
      "u": 92,
      "v": 93,
      "w": 94,
      "x": 95,
      "y": 96,
      "z": 97,
      "{": 98,
      "|": 99,
      "}": 100,
      "~": 101,
      " ": 102,
      "¡": 103,
      "£": 104,
      "¥": 105,
      "¦": 106,
      "§": 107,
      "¨": 108,
      "©": 109,
      "«": 110,
      "¬": 111,
      "®": 112,
      "°": 113,
      "±": 114,
      "²": 115,
      "³": 116,
      "´": 117,
      "µ": 118,
      "·": 119,
      "¸": 120,
      "¹": 121,
      "º": 122,
      "»": 123,
      "Á": 124,
      "Ä": 125,
      "Å": 126,
      "Ç": 127,
      "È": 128,
      "É": 129,
      "Ñ": 130,
      "Ö": 131,
      "×": 132,
      "Ø": 133,
      "Ü": 134,
      "ß": 135,
      "à": 136,
      "á": 137,
      "â": 138,
      "ã": 139,
      "ä": 140,
      "å": 141,
      "æ": 142,
      "ç": 143,
      "è": 144,
      "é": 145,
      "ê": 146,
      "ë": 147,
      "ì": 148,
      "í": 149,
      "î": 150,
      "ï": 151,
      "ñ": 152,
      "ò": 153,
      "ó": 154,
      "ô": 155,
      "ö": 156,
      "÷": 157,
      "ø": 158,
      "ù": 159,
      "ú": 160,
      "û": 161,
      "ü": 162,
      "ý": 163,
      "ā": 164,
      "ă": 165,
      "ą": 166,
      "ć": 167,
      "Č": 168,
      "č": 169,
      "Đ": 170,
      "đ": 171,
      "ē": 172,
      "ĕ": 173,
      "ę": 174,
      "ě": 175,
      "ğ": 176,
      "ī": 177,
      "İ": 178,
      "ı": 179,
      "ľ": 180,
      "Ł": 181,
      "ł": 182,
      "ń": 183,
      "ō": 184,
      "ő": 185,
      "Œ": 186,
      "œ": 187,
      "Ŕ": 188,
      "ř": 189,
      "ś": 190,
      "ş": 191,
      "Š": 192,
      "š": 193,
      "ū": 194,
      "ŭ": 195,
      "ź": 196,
      "Ż": 197,
      "Ž": 198,
      "ž": 199,
      "ƒ": 200,
      "ư": 201,
      "ǎ": 202,
      "ǐ": 203,
      "ǒ": 204,
      "ǔ": 205,
      "ǘ": 206,
      "ǝ": 207,
      "ș": 208,
      "ț": 209,
      "ȝ": 210,
      "ɐ": 211,
      "ɑ": 212,
      "ɕ": 213,
      "ɘ": 214,
      "ə": 215,
      "ɜ": 216,
      "ɥ": 217,
      "ɯ": 218,
      "ɸ": 219,
      "ʁ": 220,
      "ʃ": 221,
      "ʎ": 222,
      "ʒ": 223,
      "ʷ": 224,
      "ʿ": 225,
      "˂": 226,
      "˃": 227,
      "ˇ": 228,
      "ˈ": 229,
      "ˊ": 230,
      "ˋ": 231,
      "ː": 232,
      "˚": 233,
      "˝": 234,
      "́": 235,
      "̃": 236,
      "̣": 237,
      "̥": 238,
      "͈": 239,
      "Α": 240,
      "Β": 241,
      "Γ": 242,
      "Δ": 243,
      "Ε": 244,
      "Θ": 245,
      "Ι": 246,
      "Κ": 247,
      "Λ": 248,
      "Μ": 249,
      "Ν": 250,
      "Ο": 251,
      "Π": 252,
      "Σ": 253,
      "Φ": 254,
      "Ψ": 255,
      "Ω": 256,
      "ά": 257,
      "έ": 258,
      "ή": 259,
      "ί": 260,
      "α": 261,
      "β": 262,
      "γ": 263,
      "δ": 264,
      "ε": 265,
      "ζ": 266,
      "η": 267,
      "θ": 268,
      "ι": 269,
      "κ": 270,
      "λ": 271,
      "μ": 272,
      "ν": 273,
      "ξ": 274,
      "ο": 275,
      "π": 276,
      "ρ": 277,
      "ς": 278,
      "σ": 279,
      "τ": 280,
      "υ": 281,
      "φ": 282,
      "χ": 283,
      "ψ": 284,
      "ω": 285,
      "ό": 286,
      "ύ": 287,
      "ϑ": 288,
      "Є": 289,
      "І": 290,
      "А": 291,
      "Б": 292,
      "В": 293,
      "Г": 294,
      "Д": 295,
      "Е": 296,
      "З": 297,
      "И": 298,
      "К": 299,
      "Л": 300,
      "М": 301,
      "Н": 302,
      "О": 303,
      "П": 304,
      "Р": 305,
      "С": 306,
      "Т": 307,
      "У": 308,
      "Ф": 309,
      "Х": 310,
      "Ч": 311,
      "Ш": 312,
      "Э": 313,
      "Ю": 314,
      "Я": 315,
      "а": 316,
      "б": 317,
      "в": 318,
      "г": 319,
      "д": 320,
      "е": 321,
      "ж": 322,
      "з": 323,
      "и": 324,
      "й": 325,
      "к": 326,
      "л": 327,
      "м": 328,
      "н": 329,
      "о": 330,
      "п": 331,
      "р": 332,
      "с": 333,
      "т": 334,
      "у": 335,
      "ф": 336,
      "х": 337,
      "ц": 338,
      "ч": 339,
      "ш": 340,
      "щ": 341,
      "ъ": 342,
      "ы": 343,
      "ь": 344,
      "э": 345,
      "ю": 346,
      "я": 347,
      "ё": 348,
      "і": 349,
      "ї": 350,
      "њ": 351,
      "ћ": 352,
      "ְ": 353,
      "ִ": 354,
      "ֶ": 355,
      "ַ": 356,
      "ָ": 357,
      "ֹ": 358,
      "ּ": 359,
      "ׁ": 360,
      "א": 361,
      "ב": 362,
      "ג": 363,
      "ה": 364,
      "ו": 365,
      "י": 366,
      "כ": 367,
      "ל": 368,
      "ם": 369,
      "מ": 370,
      "ן": 371,
      "נ": 372,
      "ע": 373,
      "ר": 374,
      "ש": 375,
      "ת": 376,
      "آ": 377,
      "أ": 378,
      "ا": 379,
      "ب": 380,
      "ة": 381,
      "ت": 382,
      "ج": 383,
      "ح": 384,
      "خ": 385,
      "د": 386,
      "ذ": 387,
      "ر": 388,
      "ز": 389,
      "س": 390,
      "ش": 391,
      "ص": 392,
      "ط": 393,
      "ع": 394,
      "ف": 395,
      "ق": 396,
      "ك": 397,
      "ل": 398,
      "م": 399,
      "ن": 400,
      "ه": 401,
      "و": 402,
      "ي": 403,
      "َ": 404,
      "ُ": 405,
      "ّ": 406,
      "٩": 407,
      "پ": 408,
      "چ": 409,
      "ڡ": 410,
      "ک": 411,
      "گ": 412,
      "ھ": 413,
      "ی": 414,
      "۶": 415,
      "܂": 416,
      "ं": 417,
      "इ": 418,
      "क": 419,
      "ग": 420,
      "च": 421,
      "ज": 422,
      "ठ": 423,
      "त": 424,
      "थ": 425,
      "द": 426,
      "ध": 427,
      "न": 428,
      "प": 429,
      "ब": 430,
      "भ": 431,
      "म": 432,
      "य": 433,
      "र": 434,
      "ल": 435,
      "व": 436,
      "श": 437,
      "स": 438,
      "ह": 439,
      "़": 440,
      "ा": 441,
      "ि": 442,
      "ी": 443,
      "ु": 444,
      "ू": 445,
      "े": 446,
      "्": 447,
      "்": 448,
      "௰": 449,
      "క": 450,
      "న": 451,
      "ర": 452,
      "ల": 453,
      "ు": 454,
      "ూ": 455,
      "్": 456,
      "౪": 457,
      "ก": 458,
      "ข": 459,
      "ค": 460,
      "ง": 461,
      "จ": 462,
      "ช": 463,
      "ญ": 464,
      "ฏ": 465,
      "ณ": 466,
      "ด": 467,
      "ต": 468,
      "ถ": 469,
      "ท": 470,
      "ธ": 471,
      "น": 472,
      "บ": 473,
      "ป": 474,
      "ผ": 475,
      "พ": 476,
      "ฟ": 477,
      "ม": 478,
      "ย": 479,
      "ร": 480,
      "ล": 481,
      "ว": 482,
      "ศ": 483,
      "ส": 484,
      "ห": 485,
      "อ": 486,
      "ะ": 487,
      "ั": 488,
      "า": 489,
      "ำ": 490,
      "ิ": 491,
      "ี": 492,
      "ื": 493,
      "ุ": 494,
      "ู": 495,
      "เ": 496,
      "แ": 497,
      "โ": 498,
      "ใ": 499,
      "ไ": 500,
      "ๆ": 501,
      "็": 502,
      "่": 503,
      "้": 504,
      "๊": 505,
      "์": 506,
      "๑": 507,
      "๖": 508,
      "་": 509,
      "ཁ": 510,
      "ན": 511,
      "ས": 512,
      "ུ": 513,
      "ྤ": 514,
      "ა": 515,
      "ბ": 516,
      "ვ": 517,
      "ზ": 518,
      "ი": 519,
      "ნ": 520,
      "ჟ": 521,
      "რ": 522,
      "უ": 523,
      "᷄": 524,
      "᷅": 525,
      "ḥ": 526,
      "ḫ": 527,
      "ṣ": 528,
      "ế": 529,
      "ệ": 530,
      "ồ": 531,
      "ἕ": 532,
      "ἰ": 533,
      "ὁ": 534,
      "ὐ": 535,
      "Ὑ": 536,
      "ῆ": 537,
      "‐": 538,
      "–": 539,
      "—": 540,
      "―": 541,
      "‖": 542,
      "‘": 543,
      "’": 544,
      "“": 545,
      "”": 546,
      "†": 547,
      "‡": 548,
      "•": 549,
      "‥": 550,
      "…": 551,
      "‧": 552,
      "′": 553,
      "″": 554,
      "‵": 555,
      "›": 556,
      "※": 557,
      "‼": 558,
      "⁄": 559,
      "⁈": 560,
      "⁉": 561,
      "₀": 562,
      "€": 563,
      "℃": 564,
      "℉": 565,
      "ℓ": 566,
      "№": 567,
      "℡": 568,
      "™": 569,
      "ℵ": 570,
      "Ⅰ": 571,
      "Ⅱ": 572,
      "Ⅲ": 573,
      "Ⅳ": 574,
      "Ⅴ": 575,
      "Ⅵ": 576,
      "Ⅶ": 577,
      "Ⅷ": 578,
      "Ⅸ": 579,
      "Ⅹ": 580,
      "ⅴ": 581,
      "←": 582,
      "↑": 583,
      "→": 584,
      "↓": 585,
      "↘": 586,
      "↦": 587,
      "⇒": 588,
      "⇔": 589,
      "⇦": 590,
      "∀": 591,
      "∂": 592,
      "∃": 593,
      "∇": 594,
      "∈": 595,
      "∉": 596,
      "∑": 597,
      "−": 598,
      "∙": 599,
      "√": 600,
      "∞": 601,
      "∟": 602,
      "∠": 603,
      "∥": 604,
      "∧": 605,
      "∨": 606,
      "∩": 607,
      "∪": 608,
      "∴": 609,
      "∵": 610,
      "∼": 611,
      "∽": 612,
      "≈": 613,
      "≒": 614,
      "≠": 615,
      "≡": 616,
      "≤": 617,
      "≥": 618,
      "≦": 619,
      "≧": 620,
      "≪": 621,
      "≫": 622,
      "⊂": 623,
      "⊃": 624,
      "⊆": 625,
      "⊇": 626,
      "⊥": 627,
      "⊨": 628,
      "⊿": 629,
      "⋃": 630,
      "⋰": 631,
      "⋱": 632,
      "⌒": 633,
      "⌓": 634,
      "①": 635,
      "②": 636,
      "③": 637,
      "④": 638,
      "⑤": 639,
      "⑥": 640,
      "⑦": 641,
      "⑧": 642,
      "⑨": 643,
      "⑩": 644,
      "⑪": 645,
      "⑫": 646,
      "⑬": 647,
      "⑭": 648,
      "⑮": 649,
      "⑯": 650,
      "⑰": 651,
      "⑱": 652,
      "⑲": 653,
      "⑳": 654,
      "⑴": 655,
      "⑵": 656,
      "⑷": 657,
      "ⓒ": 658,
      "─": 659,
      "━": 660,
      "│": 661,
      "┃": 662,
      "┌": 663,
      "┏": 664,
      "┐": 665,
      "└": 666,
      "┗": 667,
      "┘": 668,
      "├": 669,
      "┝": 670,
      "┣": 671,
      "┫": 672,
      "┳": 673,
      "┻": 674,
      "┼": 675,
      "╹": 676,
      "▂": 677,
      "▅": 678,
      "▇": 679,
      "█": 680,
      "░": 681,
      "▒": 682,
      "▓": 683,
      "■": 684,
      "□": 685,
      "▣": 686,
      "▪": 687,
      "▲": 688,
      "△": 689,
      "►": 690,
      "▼": 691,
      "▽": 692,
      "▿": 693,
      "◀": 694,
      "◆": 695,
      "◇": 696,
      "◉": 697,
      "◊": 698,
      "○": 699,
      "◎": 700,
      "●": 701,
      "◞": 702,
      "◟": 703,
      "◯": 704,
      "◼": 705,
      "★": 706,
      "☆": 707,
      "☎": 708,
      "☜": 709,
      "☢": 710,
      "♀": 711,
      "♂": 712,
      "♡": 713,
      "♢": 714,
      "♥": 715,
      "♦": 716,
      "♪": 717,
      "♫": 718,
      "♬": 719,
      "♭": 720,
      "♯": 721,
      "⚬": 722,
      "✌": 723,
      "✓": 724,
      "✔": 725,
      "✝": 726,
      "✡": 727,
      "✨": 728,
      "✩": 729,
      "✯": 730,
      "✶": 731,
      "✿": 732,
      "❄": 733,
      "❤": 734,
      "❶": 735,
      "❷": 736,
      "❸": 737,
      "❹": 738,
      "❺": 739,
      "❻": 740,
      "❼": 741,
      "❽": 742,
      "❾": 743,
      "➡": 744,
      "⺬": 745,
      "⻌": 746,
      "⻍": 747,
      "、": 748,
      "。": 749,
      "〃": 750,
      "々": 751,
      "〆": 752,
      "〇": 753,
      "〈": 754,
      "〉": 755,
      "《": 756,
      "》": 757,
      "「": 758,
      "」": 759,
      "『": 760,
      "』": 761,
      "【": 762,
      "】": 763,
      "〒": 764,
      "〓": 765,
      "〔": 766,
      "〕": 767,
      "〜": 768,
      "〝": 769,
      "〟": 770,
      "ぁ": 771,
      "あ": 772,
      "ぃ": 773,
      "い": 774,
      "ぅ": 775,
      "う": 776,
      "ぇ": 777,
      "え": 778,
      "ぉ": 779,
      "お": 780,
      "か": 781,
      "が": 782,
      "き": 783,
      "ぎ": 784,
      "く": 785,
      "ぐ": 786,
      "け": 787,
      "げ": 788,
      "こ": 789,
      "ご": 790,
      "さ": 791,
      "ざ": 792,
      "し": 793,
      "じ": 794,
      "す": 795,
      "ず": 796,
      "せ": 797,
      "ぜ": 798,
      "そ": 799,
      "ぞ": 800,
      "た": 801,
      "だ": 802,
      "ち": 803,
      "ぢ": 804,
      "っ": 805,
      "つ": 806,
      "づ": 807,
      "て": 808,
      "で": 809,
      "と": 810,
      "ど": 811,
      "な": 812,
      "に": 813,
      "ぬ": 814,
      "ね": 815,
      "の": 816,
      "は": 817,
      "ば": 818,
      "ぱ": 819,
      "ひ": 820,
      "び": 821,
      "ぴ": 822,
      "ふ": 823,
      "ぶ": 824,
      "ぷ": 825,
      "へ": 826,
      "べ": 827,
      "ぺ": 828,
      "ほ": 829,
      "ぼ": 830,
      "ぽ": 831,
      "ま": 832,
      "み": 833,
      "む": 834,
      "め": 835,
      "も": 836,
      "ゃ": 837,
      "や": 838,
      "ゅ": 839,
      "ゆ": 840,
      "ょ": 841,
      "よ": 842,
      "ら": 843,
      "り": 844,
      "る": 845,
      "れ": 846,
      "ろ": 847,
      "ゎ": 848,
      "わ": 849,
      "ゐ": 850,
      "ゑ": 851,
      "を": 852,
      "ん": 853,
      "゛": 854,
      "゜": 855,
      "ゝ": 856,
      "ゞ": 857,
      "゠": 858,
      "ァ": 859,
      "ア": 860,
      "ィ": 861,
      "イ": 862,
      "ゥ": 863,
      "ウ": 864,
      "ェ": 865,
      "エ": 866,
      "ォ": 867,
      "オ": 868,
      "カ": 869,
      "ガ": 870,
      "キ": 871,
      "ギ": 872,
      "ク": 873,
      "グ": 874,
      "ケ": 875,
      "ゲ": 876,
      "コ": 877,
      "ゴ": 878,
      "サ": 879,
      "ザ": 880,
      "シ": 881,
      "ジ": 882,
      "ス": 883,
      "ズ": 884,
      "セ": 885,
      "ゼ": 886,
      "ソ": 887,
      "ゾ": 888,
      "タ": 889,
      "ダ": 890,
      "チ": 891,
      "ヂ": 892,
      "ッ": 893,
      "ツ": 894,
      "ヅ": 895,
      "テ": 896,
      "デ": 897,
      "ト": 898,
      "ド": 899,
      "ナ": 900,
      "ニ": 901,
      "ヌ": 902,
      "ネ": 903,
      "ノ": 904,
      "ハ": 905,
      "バ": 906,
      "パ": 907,
      "ヒ": 908,
      "ビ": 909,
      "ピ": 910,
      "フ": 911,
      "ブ": 912,
      "プ": 913,
      "ヘ": 914,
      "ベ": 915,
      "ペ": 916,
      "ホ": 917,
      "ボ": 918,
      "ポ": 919,
      "マ": 920,
      "ミ": 921,
      "ム": 922,
      "メ": 923,
      "モ": 924,
      "ャ": 925,
      "ヤ": 926,
      "ュ": 927,
      "ユ": 928,
      "ョ": 929,
      "ヨ": 930,
      "ラ": 931,
      "リ": 932,
      "ル": 933,
      "レ": 934,
      "ロ": 935,
      "ヮ": 936,
      "ワ": 937,
      "ヰ": 938,
      "ヱ": 939,
      "ヲ": 940,
      "ン": 941,
      "ヴ": 942,
      "ヵ": 943,
      "ヶ": 944,
      "・": 945,
      "ー": 946,
      "ヽ": 947,
      "ヾ": 948,
      "ㄇ": 949,
      "ㄊ": 950,
      "ㄋ": 951,
      "ㄐ": 952,
      "ㄒ": 953,
      "ㄓ": 954,
      "ㄠ": 955,
      "ㄢ": 956,
      "ㄤ": 957,
      "ㄧ": 958,
      "ㄨ": 959,
      "ㅋ": 960,
      "㈱": 961,
      "㈲": 962,
      "㌔": 963,
      "㌧": 964,
      "㍉": 965,
      "㍗": 966,
      "㎏": 967,
      "㎜": 968,
      "㎝": 969,
      "㎞": 970,
      "㎡": 971,
      "㎢": 972,
      "㏄": 973,
      "一": 974,
      "丁": 975,
      "七": 976,
      "万": 977,
      "丈": 978,
      "三": 979,
      "上": 980,
      "下": 981,
      "不": 982,
      "与": 983,
      "丑": 984,
      "且": 985,
      "世": 986,
      "丘": 987,
      "丙": 988,
      "东": 989,
      "丞": 990,
      "丟": 991,
      "両": 992,
      "並": 993,
      "个": 994,
      "中": 995,
      "丰": 996,
      "串": 997,
      "丸": 998,
      "丹": 999,
      "主": 1000,
      "丼": 1001,
      "丿": 1002,
      "乃": 1003,
      "久": 1004,
      "乇": 1005,
      "么": 1006,
      "之": 1007,
      "乍": 1008,
      "乎": 1009,
      "乏": 1010,
      "乔": 1011,
      "乖": 1012,
      "乗": 1013,
      "乘": 1014,
      "乙": 1015,
      "九": 1016,
      "乞": 1017,
      "也": 1018,
      "乱": 1019,
      "乳": 1020,
      "乾": 1021,
      "亀": 1022,
      "亂": 1023,
      "了": 1024,
      "予": 1025,
      "争": 1026,
      "事": 1027,
      "二": 1028,
      "于": 1029,
      "云": 1030,
      "互": 1031,
      "五": 1032,
      "井": 1033,
      "亘": 1034,
      "亙": 1035,
      "些": 1036,
      "亜": 1037,
      "亞": 1038,
      "亡": 1039,
      "亢": 1040,
      "交": 1041,
      "亥": 1042,
      "亦": 1043,
      "亨": 1044,
      "享": 1045,
      "京": 1046,
      "亭": 1047,
      "亮": 1048,
      "人": 1049,
      "什": 1050,
      "仁": 1051,
      "仄": 1052,
      "仅": 1053,
      "仇": 1054,
      "今": 1055,
      "介": 1056,
      "仏": 1057,
      "仔": 1058,
      "仕": 1059,
      "他": 1060,
      "仗": 1061,
      "付": 1062,
      "仙": 1063,
      "代": 1064,
      "令": 1065,
      "以": 1066,
      "们": 1067,
      "仮": 1068,
      "仰": 1069,
      "仲": 1070,
      "件": 1071,
      "任": 1072,
      "份": 1073,
      "企": 1074,
      "伊": 1075,
      "伍": 1076,
      "伎": 1077,
      "伏": 1078,
      "伐": 1079,
      "休": 1080,
      "优": 1081,
      "会": 1082,
      "伝": 1083,
      "传": 1084,
      "伯": 1085,
      "伴": 1086,
      "伶": 1087,
      "伸": 1088,
      "伺": 1089,
      "似": 1090,
      "伽": 1091,
      "伾": 1092,
      "佃": 1093,
      "但": 1094,
      "佇": 1095,
      "位": 1096,
      "低": 1097,
      "住": 1098,
      "佐": 1099,
      "佑": 1100,
      "体": 1101,
      "何": 1102,
      "佗": 1103,
      "余": 1104,
      "佛": 1105,
      "作": 1106,
      "佞": 1107,
      "你": 1108,
      "佩": 1109,
      "佰": 1110,
      "佳": 1111,
      "併": 1112,
      "佻": 1113,
      "佼": 1114,
      "使": 1115,
      "侃": 1116,
      "來": 1117,
      "侈": 1118,
      "例": 1119,
      "侍": 1120,
      "侑": 1121,
      "侘": 1122,
      "供": 1123,
      "依": 1124,
      "侠": 1125,
      "価": 1126,
      "侧": 1127,
      "侨": 1128,
      "侭": 1129,
      "侮": 1130,
      "侯": 1131,
      "侵": 1132,
      "侶": 1133,
      "便": 1134,
      "係": 1135,
      "促": 1136,
      "俄": 1137,
      "俊": 1138,
      "俎": 1139,
      "俗": 1140,
      "俘": 1141,
      "保": 1142,
      "俟": 1143,
      "俠": 1144,
      "信": 1145,
      "俣": 1146,
      "修": 1147,
      "俯": 1148,
      "俱": 1149,
      "俳": 1150,
      "俵": 1151,
      "俸": 1152,
      "俺": 1153,
      "倉": 1154,
      "個": 1155,
      "倍": 1156,
      "倒": 1157,
      "倖": 1158,
      "候": 1159,
      "借": 1160,
      "倡": 1161,
      "倣": 1162,
      "値": 1163,
      "倦": 1164,
      "倫": 1165,
      "倭": 1166,
      "倶": 1167,
      "倹": 1168,
      "假": 1169,
      "偈": 1170,
      "偉": 1171,
      "偏": 1172,
      "偕": 1173,
      "做": 1174,
      "停": 1175,
      "健": 1176,
      "偲": 1177,
      "側": 1178,
      "偵": 1179,
      "偶": 1180,
      "偸": 1181,
      "偽": 1182,
      "傀": 1183,
      "傅": 1184,
      "傍": 1185,
      "傑": 1186,
      "傘": 1187,
      "備": 1188,
      "傪": 1189,
      "催": 1190,
      "傭": 1191,
      "傲": 1192,
      "傳": 1193,
      "債": 1194,
      "傷": 1195,
      "傾": 1196,
      "僅": 1197,
      "働": 1198,
      "像": 1199,
      "僑": 1200,
      "僕": 1201,
      "僚": 1202,
      "僥": 1203,
      "僧": 1204,
      "僭": 1205,
      "價": 1206,
      "僻": 1207,
      "儀": 1208,
      "儁": 1209,
      "儂": 1210,
      "億": 1211,
      "儒": 1212,
      "儘": 1213,
      "儚": 1214,
      "償": 1215,
      "儡": 1216,
      "優": 1217,
      "儲": 1218,
      "儿": 1219,
      "允": 1220,
      "元": 1221,
      "兄": 1222,
      "充": 1223,
      "兆": 1224,
      "先": 1225,
      "光": 1226,
      "克": 1227,
      "兌": 1228,
      "免": 1229,
      "兎": 1230,
      "児": 1231,
      "兒": 1232,
      "党": 1233,
      "兜": 1234,
      "兢": 1235,
      "入": 1236,
      "內": 1237,
      "全": 1238,
      "兩": 1239,
      "兪": 1240,
      "八": 1241,
      "公": 1242,
      "六": 1243,
      "兰": 1244,
      "共": 1245,
      "关": 1246,
      "兵": 1247,
      "其": 1248,
      "具": 1249,
      "典": 1250,
      "兼": 1251,
      "内": 1252,
      "円": 1253,
      "冊": 1254,
      "再": 1255,
      "冑": 1256,
      "冒": 1257,
      "冗": 1258,
      "写": 1259,
      "冠": 1260,
      "冤": 1261,
      "冥": 1262,
      "冨": 1263,
      "冪": 1264,
      "冬": 1265,
      "冰": 1266,
      "冲": 1267,
      "冴": 1268,
      "冶": 1269,
      "冷": 1270,
      "凄": 1271,
      "准": 1272,
      "凉": 1273,
      "凋": 1274,
      "凌": 1275,
      "凍": 1276,
      "凛": 1277,
      "凜": 1278,
      "凝": 1279,
      "几": 1280,
      "凡": 1281,
      "処": 1282,
      "凧": 1283,
      "凪": 1284,
      "凰": 1285,
      "凱": 1286,
      "凶": 1287,
      "凸": 1288,
      "凹": 1289,
      "出": 1290,
      "函": 1291,
      "刀": 1292,
      "刃": 1293,
      "分": 1294,
      "切": 1295,
      "刈": 1296,
      "刊": 1297,
      "刑": 1298,
      "列": 1299,
      "初": 1300,
      "判": 1301,
      "別": 1302,
      "利": 1303,
      "刮": 1304,
      "到": 1305,
      "刳": 1306,
      "制": 1307,
      "刷": 1308,
      "券": 1309,
      "刹": 1310,
      "刺": 1311,
      "刻": 1312,
      "剃": 1313,
      "則": 1314,
      "削": 1315,
      "剋": 1316,
      "剌": 1317,
      "前": 1318,
      "剎": 1319,
      "剖": 1320,
      "剛": 1321,
      "剝": 1322,
      "剣": 1323,
      "剤": 1324,
      "剥": 1325,
      "剪": 1326,
      "副": 1327,
      "剰": 1328,
      "剱": 1329,
      "割": 1330,
      "創": 1331,
      "剽": 1332,
      "劃": 1333,
      "劇": 1334,
      "劉": 1335,
      "劍": 1336,
      "劒": 1337,
      "劔": 1338,
      "力": 1339,
      "功": 1340,
      "加": 1341,
      "劣": 1342,
      "助": 1343,
      "努": 1344,
      "劫": 1345,
      "励": 1346,
      "劲": 1347,
      "労": 1348,
      "効": 1349,
      "劾": 1350,
      "勁": 1351,
      "勃": 1352,
      "勅": 1353,
      "勇": 1354,
      "勉": 1355,
      "勒": 1356,
      "動": 1357,
      "勘": 1358,
      "務": 1359,
      "勝": 1360,
      "勞": 1361,
      "募": 1362,
      "勢": 1363,
      "勤": 1364,
      "勧": 1365,
      "勲": 1366,
      "勸": 1367,
      "勾": 1368,
      "勿": 1369,
      "匂": 1370,
      "包": 1371,
      "匈": 1372,
      "匍": 1373,
      "匐": 1374,
      "匕": 1375,
      "化": 1376,
      "北": 1377,
      "匙": 1378,
      "匝": 1379,
      "匠": 1380,
      "匡": 1381,
      "匣": 1382,
      "匱": 1383,
      "匹": 1384,
      "区": 1385,
      "医": 1386,
      "匿": 1387,
      "十": 1388,
      "千": 1389,
      "升": 1390,
      "午": 1391,
      "卉": 1392,
      "半": 1393,
      "卍": 1394,
      "华": 1395,
      "协": 1396,
      "卑": 1397,
      "卒": 1398,
      "卓": 1399,
      "協": 1400,
      "南": 1401,
      "単": 1402,
      "博": 1403,
      "卜": 1404,
      "卞": 1405,
      "占": 1406,
      "卡": 1407,
      "卢": 1408,
      "卦": 1409,
      "卯": 1410,
      "印": 1411,
      "危": 1412,
      "即": 1413,
      "却": 1414,
      "卵": 1415,
      "卷": 1416,
      "卸": 1417,
      "卽": 1418,
      "卿": 1419,
      "厂": 1420,
      "厄": 1421,
      "厘": 1422,
      "厚": 1423,
      "厝": 1424,
      "原": 1425,
      "厠": 1426,
      "厥": 1427,
      "厦": 1428,
      "厨": 1429,
      "厩": 1430,
      "厭": 1431,
      "厳": 1432,
      "去": 1433,
      "参": 1434,
      "參": 1435,
      "又": 1436,
      "叉": 1437,
      "及": 1438,
      "友": 1439,
      "双": 1440,
      "反": 1441,
      "収": 1442,
      "发": 1443,
      "叔": 1444,
      "取": 1445,
      "受": 1446,
      "叙": 1447,
      "叛": 1448,
      "叡": 1449,
      "叢": 1450,
      "口": 1451,
      "古": 1452,
      "句": 1453,
      "叩": 1454,
      "只": 1455,
      "叫": 1456,
      "召": 1457,
      "叭": 1458,
      "可": 1459,
      "台": 1460,
      "叱": 1461,
      "史": 1462,
      "右": 1463,
      "叶": 1464,
      "号": 1465,
      "司": 1466,
      "吃": 1467,
      "各": 1468,
      "合": 1469,
      "吉": 1470,
      "吊": 1471,
      "同": 1472,
      "名": 1473,
      "后": 1474,
      "吏": 1475,
      "吐": 1476,
      "向": 1477,
      "吗": 1478,
      "君": 1479,
      "吞": 1480,
      "吟": 1481,
      "吠": 1482,
      "否": 1483,
      "吧": 1484,
      "含": 1485,
      "吸": 1486,
      "吹": 1487,
      "吻": 1488,
      "吼": 1489,
      "吽": 1490,
      "吾": 1491,
      "呂": 1492,
      "呆": 1493,
      "呈": 1494,
      "呉": 1495,
      "告": 1496,
      "呎": 1497,
      "呑": 1498,
      "员": 1499,
      "呟": 1500,
      "呢": 1501,
      "周": 1502,
      "呪": 1503,
      "味": 1504,
      "呵": 1505,
      "呷": 1506,
      "呻": 1507,
      "呼": 1508,
      "命": 1509,
      "咀": 1510,
      "咄": 1511,
      "咆": 1512,
      "和": 1513,
      "咎": 1514,
      "咒": 1515,
      "咤": 1516,
      "咥": 1517,
      "咨": 1518,
      "咬": 1519,
      "咲": 1520,
      "咳": 1521,
      "咸": 1522,
      "咽": 1523,
      "哀": 1524,
      "品": 1525,
      "哄": 1526,
      "哈": 1527,
      "哉": 1528,
      "員": 1529,
      "哨": 1530,
      "哭": 1531,
      "哮": 1532,
      "哲": 1533,
      "哺": 1534,
      "唄": 1535,
      "唆": 1536,
      "唇": 1537,
      "唐": 1538,
      "唖": 1539,
      "售": 1540,
      "唯": 1541,
      "唱": 1542,
      "唸": 1543,
      "唾": 1544,
      "啄": 1545,
      "商": 1546,
      "問": 1547,
      "啓": 1548,
      "啖": 1549,
      "啜": 1550,
      "啤": 1551,
      "啦": 1552,
      "喀": 1553,
      "喃": 1554,
      "善": 1555,
      "喇": 1556,
      "喉": 1557,
      "喋": 1558,
      "喏": 1559,
      "喔": 1560,
      "喘": 1561,
      "喚": 1562,
      "喜": 1563,
      "喝": 1564,
      "喧": 1565,
      "喩": 1566,
      "喪": 1567,
      "喫": 1568,
      "喬": 1569,
      "單": 1570,
      "喰": 1571,
      "営": 1572,
      "嗅": 1573,
      "嗎": 1574,
      "嗚": 1575,
      "嗜": 1576,
      "嗟": 1577,
      "嗣": 1578,
      "嗽": 1579,
      "嗾": 1580,
      "嘆": 1581,
      "嘉": 1582,
      "嘔": 1583,
      "嘗": 1584,
      "嘘": 1585,
      "嘩": 1586,
      "嘯": 1587,
      "嘱": 1588,
      "嘲": 1589,
      "嘴": 1590,
      "噂": 1591,
      "噌": 1592,
      "噎": 1593,
      "噗": 1594,
      "噛": 1595,
      "噠": 1596,
      "器": 1597,
      "噪": 1598,
      "噴": 1599,
      "噺": 1600,
      "嚆": 1601,
      "嚇": 1602,
      "嚙": 1603,
      "嚢": 1604,
      "嚥": 1605,
      "嚴": 1606,
      "嚼": 1607,
      "囀": 1608,
      "囁": 1609,
      "囃": 1610,
      "囐": 1611,
      "囓": 1612,
      "囚": 1613,
      "四": 1614,
      "回": 1615,
      "因": 1616,
      "団": 1617,
      "囧": 1618,
      "园": 1619,
      "囮": 1620,
      "困": 1621,
      "囲": 1622,
      "図": 1623,
      "围": 1624,
      "固": 1625,
      "国": 1626,
      "图": 1627,
      "囿": 1628,
      "圃": 1629,
      "國": 1630,
      "圍": 1631,
      "圏": 1632,
      "園": 1633,
      "圓": 1634,
      "圖": 1635,
      "團": 1636,
      "土": 1637,
      "圣": 1638,
      "圦": 1639,
      "圧": 1640,
      "在": 1641,
      "圭": 1642,
      "地": 1643,
      "圳": 1644,
      "场": 1645,
      "址": 1646,
      "坂": 1647,
      "均": 1648,
      "坊": 1649,
      "坐": 1650,
      "坑": 1651,
      "坡": 1652,
      "坤": 1653,
      "坦": 1654,
      "坪": 1655,
      "垂": 1656,
      "型": 1657,
      "垢": 1658,
      "垣": 1659,
      "垪": 1660,
      "埃": 1661,
      "埈": 1662,
      "埋": 1663,
      "城": 1664,
      "埒": 1665,
      "埜": 1666,
      "域": 1667,
      "埠": 1668,
      "埴": 1669,
      "執": 1670,
      "培": 1671,
      "基": 1672,
      "埼": 1673,
      "堀": 1674,
      "堂": 1675,
      "堅": 1676,
      "堆": 1677,
      "堕": 1678,
      "堡": 1679,
      "堤": 1680,
      "堪": 1681,
      "堰": 1682,
      "報": 1683,
      "場": 1684,
      "堵": 1685,
      "堺": 1686,
      "塀": 1687,
      "塁": 1688,
      "塊": 1689,
      "塑": 1690,
      "塔": 1691,
      "塗": 1692,
      "塘": 1693,
      "塙": 1694,
      "塚": 1695,
      "塞": 1696,
      "塩": 1697,
      "填": 1698,
      "塵": 1699,
      "塹": 1700,
      "塾": 1701,
      "境": 1702,
      "墓": 1703,
      "増": 1704,
      "墜": 1705,
      "增": 1706,
      "墟": 1707,
      "墨": 1708,
      "墮": 1709,
      "墳": 1710,
      "墺": 1711,
      "墾": 1712,
      "壁": 1713,
      "壇": 1714,
      "壊": 1715,
      "壌": 1716,
      "壕": 1717,
      "士": 1718,
      "壬": 1719,
      "壮": 1720,
      "壯": 1721,
      "声": 1722,
      "壱": 1723,
      "売": 1724,
      "壷": 1725,
      "壺": 1726,
      "壽": 1727,
      "変": 1728,
      "夏": 1729,
      "夕": 1730,
      "外": 1731,
      "多": 1732,
      "夜": 1733,
      "夠": 1734,
      "夢": 1735,
      "夥": 1736,
      "大": 1737,
      "天": 1738,
      "太": 1739,
      "夫": 1740,
      "夭": 1741,
      "央": 1742,
      "失": 1743,
      "头": 1744,
      "夷": 1745,
      "奄": 1746,
      "奇": 1747,
      "奈": 1748,
      "奉": 1749,
      "奎": 1750,
      "奏": 1751,
      "契": 1752,
      "奔": 1753,
      "套": 1754,
      "奘": 1755,
      "奢": 1756,
      "奥": 1757,
      "奧": 1758,
      "奨": 1759,
      "奪": 1760,
      "奮": 1761,
      "女": 1762,
      "奴": 1763,
      "奶": 1764,
      "奸": 1765,
      "她": 1766,
      "好": 1767,
      "如": 1768,
      "妃": 1769,
      "妄": 1770,
      "妊": 1771,
      "妓": 1772,
      "妖": 1773,
      "妙": 1774,
      "妝": 1775,
      "妤": 1776,
      "妥": 1777,
      "妨": 1778,
      "妬": 1779,
      "妹": 1780,
      "妻": 1781,
      "妾": 1782,
      "姉": 1783,
      "始": 1784,
      "姐": 1785,
      "姑": 1786,
      "姓": 1787,
      "委": 1788,
      "姚": 1789,
      "姜": 1790,
      "姥": 1791,
      "姦": 1792,
      "姪": 1793,
      "姫": 1794,
      "姶": 1795,
      "姻": 1796,
      "姿": 1797,
      "威": 1798,
      "娑": 1799,
      "娘": 1800,
      "娚": 1801,
      "娜": 1802,
      "娟": 1803,
      "娠": 1804,
      "娩": 1805,
      "娯": 1806,
      "娶": 1807,
      "娼": 1808,
      "婁": 1809,
      "婆": 1810,
      "婉": 1811,
      "婚": 1812,
      "婢": 1813,
      "婦": 1814,
      "婬": 1815,
      "婿": 1816,
      "媒": 1817,
      "媚": 1818,
      "媛": 1819,
      "媽": 1820,
      "嫁": 1821,
      "嫉": 1822,
      "嫌": 1823,
      "嫡": 1824,
      "嬉": 1825,
      "嬋": 1826,
      "嬌": 1827,
      "嬢": 1828,
      "嬰": 1829,
      "嬲": 1830,
      "孃": 1831,
      "子": 1832,
      "孔": 1833,
      "孕": 1834,
      "字": 1835,
      "存": 1836,
      "孝": 1837,
      "孟": 1838,
      "季": 1839,
      "孤": 1840,
      "学": 1841,
      "孫": 1842,
      "孰": 1843,
      "孵": 1844,
      "學": 1845,
      "宁": 1846,
      "它": 1847,
      "宅": 1848,
      "宇": 1849,
      "守": 1850,
      "安": 1851,
      "宋": 1852,
      "完": 1853,
      "宍": 1854,
      "宏": 1855,
      "宕": 1856,
      "宗": 1857,
      "官": 1858,
      "宙": 1859,
      "定": 1860,
      "宛": 1861,
      "宜": 1862,
      "宝": 1863,
      "実": 1864,
      "客": 1865,
      "宣": 1866,
      "室": 1867,
      "宥": 1868,
      "宦": 1869,
      "宫": 1870,
      "宮": 1871,
      "宰": 1872,
      "害": 1873,
      "宴": 1874,
      "宵": 1875,
      "家": 1876,
      "宸": 1877,
      "容": 1878,
      "宿": 1879,
      "寂": 1880,
      "寄": 1881,
      "寅": 1882,
      "密": 1883,
      "寇": 1884,
      "富": 1885,
      "寒": 1886,
      "寓": 1887,
      "寛": 1888,
      "寝": 1889,
      "察": 1890,
      "寡": 1891,
      "實": 1892,
      "寧": 1893,
      "寨": 1894,
      "審": 1895,
      "寫": 1896,
      "寬": 1897,
      "寮": 1898,
      "寵": 1899,
      "寶": 1900,
      "寸": 1901,
      "对": 1902,
      "寺": 1903,
      "导": 1904,
      "対": 1905,
      "寿": 1906,
      "封": 1907,
      "専": 1908,
      "射": 1909,
      "尅": 1910,
      "将": 1911,
      "將": 1912,
      "專": 1913,
      "尉": 1914,
      "尊": 1915,
      "尋": 1916,
      "對": 1917,
      "導": 1918,
      "小": 1919,
      "少": 1920,
      "尓": 1921,
      "尖": 1922,
      "尙": 1923,
      "尚": 1924,
      "尤": 1925,
      "尭": 1926,
      "就": 1927,
      "尹": 1928,
      "尺": 1929,
      "尻": 1930,
      "尼": 1931,
      "尽": 1932,
      "尾": 1933,
      "尿": 1934,
      "局": 1935,
      "屁": 1936,
      "层": 1937,
      "居": 1938,
      "屈": 1939,
      "届": 1940,
      "屋": 1941,
      "屍": 1942,
      "屎": 1943,
      "屏": 1944,
      "屑": 1945,
      "屓": 1946,
      "展": 1947,
      "属": 1948,
      "屠": 1949,
      "屡": 1950,
      "層": 1951,
      "履": 1952,
      "屯": 1953,
      "山": 1954,
      "屹": 1955,
      "岐": 1956,
      "岑": 1957,
      "岛": 1958,
      "岡": 1959,
      "岨": 1960,
      "岩": 1961,
      "岫": 1962,
      "岬": 1963,
      "岱": 1964,
      "岳": 1965,
      "岸": 1966,
      "峒": 1967,
      "峙": 1968,
      "峠": 1969,
      "峡": 1970,
      "峨": 1971,
      "峯": 1972,
      "峰": 1973,
      "峴": 1974,
      "島": 1975,
      "峻": 1976,
      "崇": 1977,
      "崋": 1978,
      "崎": 1979,
      "崔": 1980,
      "崖": 1981,
      "崗": 1982,
      "崙": 1983,
      "崩": 1984,
      "嵌": 1985,
      "嵐": 1986,
      "嵜": 1987,
      "嵩": 1988,
      "嵯": 1989,
      "嶋": 1990,
      "嶌": 1991,
      "嶮": 1992,
      "嶺": 1993,
      "嶼": 1994,
      "嶽": 1995,
      "巌": 1996,
      "巒": 1997,
      "巖": 1998,
      "川": 1999,
      "州": 2000,
      "巡": 2001,
      "巣": 2002,
      "工": 2003,
      "左": 2004,
      "巧": 2005,
      "巨": 2006,
      "巫": 2007,
      "差": 2008,
      "己": 2009,
      "已": 2010,
      "巳": 2011,
      "巴": 2012,
      "巷": 2013,
      "巻": 2014,
      "巽": 2015,
      "巾": 2016,
      "市": 2017,
      "布": 2018,
      "帆": 2019,
      "希": 2020,
      "帖": 2021,
      "帚": 2022,
      "帝": 2023,
      "帥": 2024,
      "師": 2025,
      "席": 2026,
      "帯": 2027,
      "帰": 2028,
      "帳": 2029,
      "帶": 2030,
      "帷": 2031,
      "常": 2032,
      "帽": 2033,
      "幀": 2034,
      "幅": 2035,
      "幇": 2036,
      "幌": 2037,
      "幕": 2038,
      "幡": 2039,
      "幣": 2040,
      "干": 2041,
      "平": 2042,
      "年": 2043,
      "幸": 2044,
      "幹": 2045,
      "幻": 2046,
      "幼": 2047,
      "幽": 2048,
      "幾": 2049,
      "广": 2050,
      "庁": 2051,
      "広": 2052,
      "庄": 2053,
      "庇": 2054,
      "床": 2055,
      "序": 2056,
      "底": 2057,
      "店": 2058,
      "府": 2059,
      "度": 2060,
      "座": 2061,
      "庫": 2062,
      "庭": 2063,
      "庵": 2064,
      "庶": 2065,
      "康": 2066,
      "庸": 2067,
      "廃": 2068,
      "廈": 2069,
      "廉": 2070,
      "廊": 2071,
      "廟": 2072,
      "廠": 2073,
      "廢": 2074,
      "廣": 2075,
      "廬": 2076,
      "延": 2077,
      "廷": 2078,
      "建": 2079,
      "廻": 2080,
      "廿": 2081,
      "开": 2082,
      "弁": 2083,
      "弄": 2084,
      "弊": 2085,
      "式": 2086,
      "弐": 2087,
      "弓": 2088,
      "弔": 2089,
      "引": 2090,
      "弗": 2091,
      "弘": 2092,
      "弛": 2093,
      "弟": 2094,
      "弥": 2095,
      "弦": 2096,
      "弧": 2097,
      "弩": 2098,
      "弱": 2099,
      "張": 2100,
      "強": 2101,
      "强": 2102,
      "弼": 2103,
      "弾": 2104,
      "彌": 2105,
      "当": 2106,
      "彗": 2107,
      "彙": 2108,
      "彡": 2109,
      "形": 2110,
      "彦": 2111,
      "彩": 2112,
      "彫": 2113,
      "彬": 2114,
      "彭": 2115,
      "彰": 2116,
      "影": 2117,
      "彷": 2118,
      "役": 2119,
      "彼": 2120,
      "彿": 2121,
      "往": 2122,
      "征": 2123,
      "徂": 2124,
      "径": 2125,
      "待": 2126,
      "很": 2127,
      "徊": 2128,
      "律": 2129,
      "後": 2130,
      "徐": 2131,
      "徒": 2132,
      "従": 2133,
      "得": 2134,
      "徘": 2135,
      "從": 2136,
      "徠": 2137,
      "御": 2138,
      "徨": 2139,
      "復": 2140,
      "循": 2141,
      "微": 2142,
      "徳": 2143,
      "徴": 2144,
      "德": 2145,
      "徹": 2146,
      "徽": 2147,
      "心": 2148,
      "必": 2149,
      "忉": 2150,
      "忌": 2151,
      "忍": 2152,
      "志": 2153,
      "忘": 2154,
      "忙": 2155,
      "応": 2156,
      "忠": 2157,
      "快": 2158,
      "念": 2159,
      "忽": 2160,
      "怒": 2161,
      "怖": 2162,
      "怙": 2163,
      "怛": 2164,
      "怜": 2165,
      "思": 2166,
      "怠": 2167,
      "怡": 2168,
      "急": 2169,
      "性": 2170,
      "怨": 2171,
      "怪": 2172,
      "怯": 2173,
      "恃": 2174,
      "恋": 2175,
      "恍": 2176,
      "恐": 2177,
      "恒": 2178,
      "恕": 2179,
      "恙": 2180,
      "恚": 2181,
      "恣": 2182,
      "恤": 2183,
      "恥": 2184,
      "恨": 2185,
      "恩": 2186,
      "恪": 2187,
      "恫": 2188,
      "恭": 2189,
      "息": 2190,
      "恰": 2191,
      "恵": 2192,
      "悉": 2193,
      "悌": 2194,
      "悍": 2195,
      "悔": 2196,
      "悖": 2197,
      "悛": 2198,
      "悟": 2199,
      "悠": 2200,
      "患": 2201,
      "悦": 2202,
      "悧": 2203,
      "您": 2204,
      "悩": 2205,
      "悪": 2206,
      "悲": 2207,
      "悴": 2208,
      "悶": 2209,
      "悸": 2210,
      "悼": 2211,
      "情": 2212,
      "惇": 2213,
      "惑": 2214,
      "惕": 2215,
      "惚": 2216,
      "惜": 2217,
      "惟": 2218,
      "惠": 2219,
      "惡": 2220,
      "惣": 2221,
      "惧": 2222,
      "惨": 2223,
      "惰": 2224,
      "惱": 2225,
      "想": 2226,
      "惶": 2227,
      "惹": 2228,
      "惺": 2229,
      "愁": 2230,
      "愈": 2231,
      "愉": 2232,
      "愍": 2233,
      "意": 2234,
      "愕": 2235,
      "愚": 2236,
      "愛": 2237,
      "感": 2238,
      "愴": 2239,
      "愼": 2240,
      "慂": 2241,
      "慄": 2242,
      "慇": 2243,
      "慈": 2244,
      "態": 2245,
      "慌": 2246,
      "慎": 2247,
      "慕": 2248,
      "慘": 2249,
      "慟": 2250,
      "慢": 2251,
      "慣": 2252,
      "慥": 2253,
      "慧": 2254,
      "慨": 2255,
      "慫": 2256,
      "慮": 2257,
      "慰": 2258,
      "慳": 2259,
      "慶": 2260,
      "慾": 2261,
      "憂": 2262,
      "憊": 2263,
      "憎": 2264,
      "憐": 2265,
      "憑": 2266,
      "憔": 2267,
      "憚": 2268,
      "憤": 2269,
      "憧": 2270,
      "憩": 2271,
      "憫": 2272,
      "憬": 2273,
      "憲": 2274,
      "憶": 2275,
      "憺": 2276,
      "憾": 2277,
      "懃": 2278,
      "懅": 2279,
      "懇": 2280,
      "應": 2281,
      "懐": 2282,
      "懣": 2283,
      "懲": 2284,
      "懷": 2285,
      "懸": 2286,
      "懺": 2287,
      "戀": 2288,
      "戈": 2289,
      "戊": 2290,
      "戌": 2291,
      "戎": 2292,
      "成": 2293,
      "我": 2294,
      "戒": 2295,
      "戔": 2296,
      "或": 2297,
      "戚": 2298,
      "戟": 2299,
      "戦": 2300,
      "截": 2301,
      "戮": 2302,
      "戯": 2303,
      "戰": 2304,
      "戲": 2305,
      "戴": 2306,
      "戶": 2307,
      "戸": 2308,
      "戻": 2309,
      "房": 2310,
      "所": 2311,
      "扁": 2312,
      "扇": 2313,
      "扈": 2314,
      "扉": 2315,
      "手": 2316,
      "才": 2317,
      "打": 2318,
      "払": 2319,
      "托": 2320,
      "扮": 2321,
      "扱": 2322,
      "扶": 2323,
      "批": 2324,
      "找": 2325,
      "承": 2326,
      "技": 2327,
      "抄": 2328,
      "抉": 2329,
      "把": 2330,
      "抑": 2331,
      "抒": 2332,
      "抓": 2333,
      "投": 2334,
      "抗": 2335,
      "折": 2336,
      "抜": 2337,
      "択": 2338,
      "披": 2339,
      "抱": 2340,
      "抵": 2341,
      "抹": 2342,
      "押": 2343,
      "抽": 2344,
      "担": 2345,
      "拇": 2346,
      "拉": 2347,
      "拌": 2348,
      "拍": 2349,
      "拐": 2350,
      "拒": 2351,
      "拓": 2352,
      "拗": 2353,
      "拘": 2354,
      "拙": 2355,
      "招": 2356,
      "拝": 2357,
      "拠": 2358,
      "拡": 2359,
      "拥": 2360,
      "括": 2361,
      "拭": 2362,
      "拮": 2363,
      "拱": 2364,
      "拳": 2365,
      "拶": 2366,
      "拷": 2367,
      "拼": 2368,
      "拾": 2369,
      "拿": 2370,
      "持": 2371,
      "指": 2372,
      "按": 2373,
      "挑": 2374,
      "挙": 2375,
      "挟": 2376,
      "挨": 2377,
      "挫": 2378,
      "振": 2379,
      "挹": 2380,
      "挺": 2381,
      "挽": 2382,
      "挿": 2383,
      "捉": 2384,
      "捌": 2385,
      "捏": 2386,
      "捕": 2387,
      "捗": 2388,
      "捜": 2389,
      "捧": 2390,
      "捨": 2391,
      "捩": 2392,
      "据": 2393,
      "捲": 2394,
      "捷": 2395,
      "捺": 2396,
      "捻": 2397,
      "掃": 2398,
      "授": 2399,
      "掉": 2400,
      "掌": 2401,
      "排": 2402,
      "掘": 2403,
      "掛": 2404,
      "掟": 2405,
      "掠": 2406,
      "採": 2407,
      "探": 2408,
      "掣": 2409,
      "接": 2410,
      "控": 2411,
      "推": 2412,
      "掩": 2413,
      "措": 2414,
      "掬": 2415,
      "掲": 2416,
      "掴": 2417,
      "掻": 2418,
      "掾": 2419,
      "揃": 2420,
      "揄": 2421,
      "揆": 2422,
      "揉": 2423,
      "描": 2424,
      "提": 2425,
      "插": 2426,
      "揖": 2427,
      "揚": 2428,
      "換": 2429,
      "握": 2430,
      "揮": 2431,
      "援": 2432,
      "揶": 2433,
      "揺": 2434,
      "損": 2435,
      "搏": 2436,
      "搖": 2437,
      "搗": 2438,
      "搜": 2439,
      "搦": 2440,
      "搬": 2441,
      "搭": 2442,
      "携": 2443,
      "搾": 2444,
      "摂": 2445,
      "摋": 2446,
      "摑": 2447,
      "摘": 2448,
      "摩": 2449,
      "摯": 2450,
      "摸": 2451,
      "摺": 2452,
      "撃": 2453,
      "撒": 2454,
      "撓": 2455,
      "撚": 2456,
      "撞": 2457,
      "撤": 2458,
      "撥": 2459,
      "撫": 2460,
      "播": 2461,
      "撮": 2462,
      "撰": 2463,
      "撲": 2464,
      "撹": 2465,
      "撻": 2466,
      "撼": 2467,
      "擁": 2468,
      "操": 2469,
      "擔": 2470,
      "擘": 2471,
      "據": 2472,
      "擢": 2473,
      "擣": 2474,
      "擦": 2475,
      "擧": 2476,
      "擬": 2477,
      "擱": 2478,
      "擲": 2479,
      "擽": 2480,
      "擾": 2481,
      "攘": 2482,
      "攝": 2483,
      "攣": 2484,
      "攪": 2485,
      "攫": 2486,
      "支": 2487,
      "收": 2488,
      "攷": 2489,
      "改": 2490,
      "攻": 2491,
      "放": 2492,
      "政": 2493,
      "故": 2494,
      "敏": 2495,
      "救": 2496,
      "敗": 2497,
      "教": 2498,
      "敢": 2499,
      "散": 2500,
      "敦": 2501,
      "敬": 2502,
      "数": 2503,
      "敲": 2504,
      "整": 2505,
      "敵": 2506,
      "敷": 2507,
      "數": 2508,
      "敾": 2509,
      "斂": 2510,
      "斃": 2511,
      "斅": 2512,
      "文": 2513,
      "斉": 2514,
      "斌": 2515,
      "斎": 2516,
      "斐": 2517,
      "斑": 2518,
      "斗": 2519,
      "料": 2520,
      "斜": 2521,
      "斟": 2522,
      "斡": 2523,
      "斤": 2524,
      "斥": 2525,
      "斧": 2526,
      "斫": 2527,
      "斬": 2528,
      "断": 2529,
      "斯": 2530,
      "新": 2531,
      "斷": 2532,
      "方": 2533,
      "於": 2534,
      "施": 2535,
      "旅": 2536,
      "旋": 2537,
      "族": 2538,
      "旗": 2539,
      "无": 2540,
      "既": 2541,
      "日": 2542,
      "旦": 2543,
      "旧": 2544,
      "旨": 2545,
      "早": 2546,
      "旬": 2547,
      "旭": 2548,
      "旱": 2549,
      "时": 2550,
      "旺": 2551,
      "昂": 2552,
      "昆": 2553,
      "昇": 2554,
      "昉": 2555,
      "昊": 2556,
      "昌": 2557,
      "明": 2558,
      "昏": 2559,
      "易": 2560,
      "昔": 2561,
      "星": 2562,
      "映": 2563,
      "春": 2564,
      "昧": 2565,
      "昨": 2566,
      "昭": 2567,
      "是": 2568,
      "昴": 2569,
      "昵": 2570,
      "昼": 2571,
      "晁": 2572,
      "時": 2573,
      "晃": 2574,
      "晄": 2575,
      "晉": 2576,
      "晋": 2577,
      "晒": 2578,
      "晚": 2579,
      "晟": 2580,
      "晤": 2581,
      "晦": 2582,
      "晧": 2583,
      "晩": 2584,
      "普": 2585,
      "景": 2586,
      "晰": 2587,
      "晴": 2588,
      "晶": 2589,
      "智": 2590,
      "暁": 2591,
      "暇": 2592,
      "暈": 2593,
      "暉": 2594,
      "暎": 2595,
      "暑": 2596,
      "暖": 2597,
      "暗": 2598,
      "暢": 2599,
      "暦": 2600,
      "暫": 2601,
      "暮": 2602,
      "暴": 2603,
      "暹": 2604,
      "曇": 2605,
      "曉": 2606,
      "曖": 2607,
      "曙": 2608,
      "曜": 2609,
      "曝": 2610,
      "曰": 2611,
      "曲": 2612,
      "曳": 2613,
      "更": 2614,
      "書": 2615,
      "曹": 2616,
      "曼": 2617,
      "曽": 2618,
      "曾": 2619,
      "替": 2620,
      "最": 2621,
      "會": 2622,
      "月": 2623,
      "有": 2624,
      "朋": 2625,
      "服": 2626,
      "朔": 2627,
      "朗": 2628,
      "望": 2629,
      "朝": 2630,
      "期": 2631,
      "朦": 2632,
      "朧": 2633,
      "木": 2634,
      "未": 2635,
      "末": 2636,
      "本": 2637,
      "札": 2638,
      "朮": 2639,
      "朱": 2640,
      "朴": 2641,
      "朶": 2642,
      "机": 2643,
      "朽": 2644,
      "权": 2645,
      "杆": 2646,
      "杉": 2647,
      "李": 2648,
      "杏": 2649,
      "材": 2650,
      "村": 2651,
      "杓": 2652,
      "杖": 2653,
      "杜": 2654,
      "杞": 2655,
      "束": 2656,
      "条": 2657,
      "杢": 2658,
      "杣": 2659,
      "来": 2660,
      "杭": 2661,
      "杯": 2662,
      "東": 2663,
      "杵": 2664,
      "杷": 2665,
      "松": 2666,
      "板": 2667,
      "枇": 2668,
      "析": 2669,
      "枕": 2670,
      "林": 2671,
      "枚": 2672,
      "果": 2673,
      "枝": 2674,
      "枠": 2675,
      "枡": 2676,
      "枢": 2677,
      "枯": 2678,
      "架": 2679,
      "枷": 2680,
      "枸": 2681,
      "枻": 2682,
      "柄": 2683,
      "柊": 2684,
      "柏": 2685,
      "某": 2686,
      "柑": 2687,
      "染": 2688,
      "柔": 2689,
      "柘": 2690,
      "柚": 2691,
      "查": 2692,
      "柯": 2693,
      "柱": 2694,
      "柳": 2695,
      "柴": 2696,
      "柵": 2697,
      "査": 2698,
      "柾": 2699,
      "柿": 2700,
      "栂": 2701,
      "栃": 2702,
      "栄": 2703,
      "树": 2704,
      "栓": 2705,
      "栖": 2706,
      "栗": 2707,
      "栞": 2708,
      "校": 2709,
      "株": 2710,
      "核": 2711,
      "根": 2712,
      "格": 2713,
      "栽": 2714,
      "桁": 2715,
      "桂": 2716,
      "桃": 2717,
      "案": 2718,
      "桐": 2719,
      "桑": 2720,
      "桓": 2721,
      "桔": 2722,
      "桜": 2723,
      "桝": 2724,
      "桟": 2725,
      "档": 2726,
      "桧": 2727,
      "桶": 2728,
      "桿": 2729,
      "梁": 2730,
      "梅": 2731,
      "梓": 2732,
      "梗": 2733,
      "條": 2734,
      "梟": 2735,
      "梢": 2736,
      "梣": 2737,
      "梧": 2738,
      "梨": 2739,
      "梯": 2740,
      "械": 2741,
      "梱": 2742,
      "梳": 2743,
      "梵": 2744,
      "梶": 2745,
      "棄": 2746,
      "棉": 2747,
      "棊": 2748,
      "棋": 2749,
      "棍": 2750,
      "棒": 2751,
      "棕": 2752,
      "棗": 2753,
      "棘": 2754,
      "棚": 2755,
      "棟": 2756,
      "棣": 2757,
      "棧": 2758,
      "森": 2759,
      "棲": 2760,
      "棹": 2761,
      "棺": 2762,
      "椀": 2763,
      "椅": 2764,
      "椋": 2765,
      "植": 2766,
      "椎": 2767,
      "椒": 2768,
      "椙": 2769,
      "椚": 2770,
      "検": 2771,
      "椰": 2772,
      "椿": 2773,
      "楊": 2774,
      "楓": 2775,
      "楔": 2776,
      "楕": 2777,
      "楚": 2778,
      "楠": 2779,
      "楢": 2780,
      "楨": 2781,
      "業": 2782,
      "楯": 2783,
      "極": 2784,
      "楷": 2785,
      "楼": 2786,
      "楽": 2787,
      "概": 2788,
      "榊": 2789,
      "榎": 2790,
      "榛": 2791,
      "榜": 2792,
      "榮": 2793,
      "榴": 2794,
      "槃": 2795,
      "槇": 2796,
      "構": 2797,
      "槌": 2798,
      "槍": 2799,
      "槐": 2800,
      "槓": 2801,
      "様": 2802,
      "槙": 2803,
      "槻": 2804,
      "槽": 2805,
      "槿": 2806,
      "樂": 2807,
      "樅": 2808,
      "樋": 2809,
      "樓": 2810,
      "標": 2811,
      "樟": 2812,
      "模": 2813,
      "樣": 2814,
      "権": 2815,
      "横": 2816,
      "樫": 2817,
      "樹": 2818,
      "樺": 2819,
      "樽": 2820,
      "橇": 2821,
      "橈": 2822,
      "橋": 2823,
      "橘": 2824,
      "橙": 2825,
      "機": 2826,
      "橿": 2827,
      "檀": 2828,
      "檄": 2829,
      "檉": 2830,
      "檎": 2831,
      "檜": 2832,
      "檢": 2833,
      "檬": 2834,
      "檮": 2835,
      "檸": 2836,
      "檻": 2837,
      "櫂": 2838,
      "櫃": 2839,
      "櫓": 2840,
      "櫚": 2841,
      "櫛": 2842,
      "櫟": 2843,
      "櫻": 2844,
      "欄": 2845,
      "欅": 2846,
      "權": 2847,
      "欒": 2848,
      "欝": 2849,
      "欠": 2850,
      "次": 2851,
      "欣": 2852,
      "欧": 2853,
      "欲": 2854,
      "欺": 2855,
      "欽": 2856,
      "款": 2857,
      "歇": 2858,
      "歌": 2859,
      "歎": 2860,
      "歓": 2861,
      "歟": 2862,
      "歡": 2863,
      "止": 2864,
      "正": 2865,
      "此": 2866,
      "步": 2867,
      "武": 2868,
      "歩": 2869,
      "歪": 2870,
      "歯": 2871,
      "歳": 2872,
      "歴": 2873,
      "歷": 2874,
      "歸": 2875,
      "死": 2876,
      "殃": 2877,
      "殆": 2878,
      "殉": 2879,
      "殊": 2880,
      "残": 2881,
      "殖": 2882,
      "殘": 2883,
      "殯": 2884,
      "殲": 2885,
      "殴": 2886,
      "段": 2887,
      "殷": 2888,
      "殺": 2889,
      "殻": 2890,
      "殿": 2891,
      "毀": 2892,
      "毅": 2893,
      "母": 2894,
      "毎": 2895,
      "每": 2896,
      "毒": 2897,
      "比": 2898,
      "毘": 2899,
      "毛": 2900,
      "毟": 2901,
      "毡": 2902,
      "毫": 2903,
      "毯": 2904,
      "氏": 2905,
      "民": 2906,
      "气": 2907,
      "気": 2908,
      "氛": 2909,
      "氣": 2910,
      "水": 2911,
      "氷": 2912,
      "永": 2913,
      "氾": 2914,
      "汁": 2915,
      "求": 2916,
      "汉": 2917,
      "汎": 2918,
      "汐": 2919,
      "汗": 2920,
      "汚": 2921,
      "汝": 2922,
      "汞": 2923,
      "江": 2924,
      "池": 2925,
      "汭": 2926,
      "汰": 2927,
      "汲": 2928,
      "汶": 2929,
      "決": 2930,
      "汽": 2931,
      "汾": 2932,
      "沁": 2933,
      "沃": 2934,
      "沈": 2935,
      "沉": 2936,
      "沌": 2937,
      "沐": 2938,
      "沒": 2939,
      "沓": 2940,
      "沖": 2941,
      "沘": 2942,
      "沙": 2943,
      "没": 2944,
      "沢": 2945,
      "沪": 2946,
      "沫": 2947,
      "沱": 2948,
      "河": 2949,
      "沸": 2950,
      "油": 2951,
      "治": 2952,
      "沼": 2953,
      "沿": 2954,
      "況": 2955,
      "泄": 2956,
      "泉": 2957,
      "泊": 2958,
      "泌": 2959,
      "泔": 2960,
      "法": 2961,
      "泗": 2962,
      "泡": 2963,
      "波": 2964,
      "泣": 2965,
      "泥": 2966,
      "注": 2967,
      "泯": 2968,
      "泰": 2969,
      "泳": 2970,
      "洋": 2971,
      "洒": 2972,
      "洗": 2973,
      "洙": 2974,
      "洛": 2975,
      "洞": 2976,
      "津": 2977,
      "洩": 2978,
      "洪": 2979,
      "洲": 2980,
      "活": 2981,
      "派": 2982,
      "流": 2983,
      "浄": 2984,
      "浅": 2985,
      "浙": 2986,
      "浚": 2987,
      "浜": 2988,
      "浣": 2989,
      "浦": 2990,
      "浩": 2991,
      "浪": 2992,
      "浮": 2993,
      "浴": 2994,
      "海": 2995,
      "浸": 2996,
      "涅": 2997,
      "消": 2998,
      "涌": 2999,
      "涎": 3000,
      "涙": 3001,
      "涛": 3002,
      "涯": 3003,
      "液": 3004,
      "涵": 3005,
      "涸": 3006,
      "涼": 3007,
      "淀": 3008,
      "淄": 3009,
      "淆": 3010,
      "淋": 3011,
      "淑": 3012,
      "淘": 3013,
      "淞": 3014,
      "淡": 3015,
      "淨": 3016,
      "淫": 3017,
      "淮": 3018,
      "深": 3019,
      "淳": 3020,
      "淵": 3021,
      "混": 3022,
      "淹": 3023,
      "添": 3024,
      "清": 3025,
      "渇": 3026,
      "済": 3027,
      "渉": 3028,
      "渋": 3029,
      "渓": 3030,
      "渕": 3031,
      "渙": 3032,
      "渚": 3033,
      "減": 3034,
      "渠": 3035,
      "渡": 3036,
      "渣": 3037,
      "渤": 3038,
      "渦": 3039,
      "温": 3040,
      "渫": 3041,
      "測": 3042,
      "港": 3043,
      "游": 3044,
      "渺": 3045,
      "渾": 3046,
      "湊": 3047,
      "湖": 3048,
      "湘": 3049,
      "湛": 3050,
      "湧": 3051,
      "湯": 3052,
      "湾": 3053,
      "湿": 3054,
      "満": 3055,
      "溌": 3056,
      "源": 3057,
      "準": 3058,
      "溜": 3059,
      "溝": 3060,
      "溢": 3061,
      "溥": 3062,
      "溪": 3063,
      "溯": 3064,
      "溶": 3065,
      "溺": 3066,
      "滄": 3067,
      "滅": 3068,
      "滉": 3069,
      "滋": 3070,
      "滑": 3071,
      "滓": 3072,
      "滔": 3073,
      "滕": 3074,
      "滝": 3075,
      "滞": 3076,
      "滲": 3077,
      "滴": 3078,
      "滸": 3079,
      "滹": 3080,
      "滾": 3081,
      "滿": 3082,
      "漁": 3083,
      "漂": 3084,
      "漆": 3085,
      "漉": 3086,
      "漏": 3087,
      "漑": 3088,
      "漓": 3089,
      "演": 3090,
      "漕": 3091,
      "漠": 3092,
      "漢": 3093,
      "漣": 3094,
      "漫": 3095,
      "漬": 3096,
      "漱": 3097,
      "漸": 3098,
      "漿": 3099,
      "潁": 3100,
      "潅": 3101,
      "潉": 3102,
      "潔": 3103,
      "潘": 3104,
      "潜": 3105,
      "潟": 3106,
      "潤": 3107,
      "潭": 3108,
      "潮": 3109,
      "潰": 3110,
      "澁": 3111,
      "澄": 3112,
      "澗": 3113,
      "澤": 3114,
      "澪": 3115,
      "澱": 3116,
      "澳": 3117,
      "激": 3118,
      "濁": 3119,
      "濃": 3120,
      "濟": 3121,
      "濠": 3122,
      "濡": 3123,
      "濤": 3124,
      "濫": 3125,
      "濮": 3126,
      "濯": 3127,
      "濱": 3128,
      "濾": 3129,
      "瀉": 3130,
      "瀑": 3131,
      "瀕": 3132,
      "瀘": 3133,
      "瀟": 3134,
      "瀧": 3135,
      "瀨": 3136,
      "瀬": 3137,
      "瀾": 3138,
      "灌": 3139,
      "灘": 3140,
      "灣": 3141,
      "火": 3142,
      "灯": 3143,
      "灰": 3144,
      "灸": 3145,
      "灼": 3146,
      "災": 3147,
      "炉": 3148,
      "炊": 3149,
      "炎": 3150,
      "炒": 3151,
      "炘": 3152,
      "炙": 3153,
      "炬": 3154,
      "炭": 3155,
      "炮": 3156,
      "炳": 3157,
      "炸": 3158,
      "点": 3159,
      "為": 3160,
      "烈": 3161,
      "烏": 3162,
      "烙": 3163,
      "烹": 3164,
      "焉": 3165,
      "焔": 3166,
      "焙": 3167,
      "焚": 3168,
      "焠": 3169,
      "無": 3170,
      "焦": 3171,
      "然": 3172,
      "焼": 3173,
      "煅": 3174,
      "煉": 3175,
      "煌": 3176,
      "煎": 3177,
      "煕": 3178,
      "煙": 3179,
      "煞": 3180,
      "煤": 3181,
      "煥": 3182,
      "照": 3183,
      "煨": 3184,
      "煩": 3185,
      "煮": 3186,
      "煽": 3187,
      "熄": 3188,
      "熊": 3189,
      "熔": 3190,
      "熙": 3191,
      "熟": 3192,
      "熨": 3193,
      "熬": 3194,
      "熱": 3195,
      "熹": 3196,
      "熾": 3197,
      "燃": 3198,
      "燈": 3199,
      "燉": 3200,
      "燎": 3201,
      "燐": 3202,
      "燒": 3203,
      "燕": 3204,
      "燗": 3205,
      "燥": 3206,
      "燦": 3207,
      "燭": 3208,
      "燮": 3209,
      "燵": 3210,
      "燻": 3211,
      "爆": 3212,
      "爇": 3213,
      "爛": 3214,
      "爪": 3215,
      "爬": 3216,
      "爭": 3217,
      "爰": 3218,
      "爱": 3219,
      "爲": 3220,
      "爵": 3221,
      "父": 3222,
      "爺": 3223,
      "爻": 3224,
      "爽": 3225,
      "爾": 3226,
      "爿": 3227,
      "片": 3228,
      "版": 3229,
      "牌": 3230,
      "牒": 3231,
      "牙": 3232,
      "牛": 3233,
      "牝": 3234,
      "牟": 3235,
      "牡": 3236,
      "牢": 3237,
      "牧": 3238,
      "物": 3239,
      "牯": 3240,
      "牲": 3241,
      "特": 3242,
      "牽": 3243,
      "犀": 3244,
      "犛": 3245,
      "犠": 3246,
      "犧": 3247,
      "犬": 3248,
      "犯": 3249,
      "状": 3250,
      "狂": 3251,
      "狄": 3252,
      "狐": 3253,
      "狗": 3254,
      "狙": 3255,
      "狛": 3256,
      "狡": 3257,
      "狢": 3258,
      "狩": 3259,
      "独": 3260,
      "狭": 3261,
      "狸": 3262,
      "狼": 3263,
      "狽": 3264,
      "猛": 3265,
      "猜": 3266,
      "猟": 3267,
      "猡": 3268,
      "猥": 3269,
      "猩": 3270,
      "猪": 3271,
      "猫": 3272,
      "献": 3273,
      "猶": 3274,
      "猷": 3275,
      "猾": 3276,
      "猿": 3277,
      "獄": 3278,
      "獅": 3279,
      "獎": 3280,
      "獏": 3281,
      "獣": 3282,
      "獨": 3283,
      "獪": 3284,
      "獰": 3285,
      "獲": 3286,
      "獵": 3287,
      "獻": 3288,
      "玄": 3289,
      "率": 3290,
      "玉": 3291,
      "王": 3292,
      "玖": 3293,
      "玩": 3294,
      "玲": 3295,
      "珀": 3296,
      "珂": 3297,
      "珈": 3298,
      "珊": 3299,
      "珍": 3300,
      "珞": 3301,
      "珠": 3302,
      "珪": 3303,
      "班": 3304,
      "現": 3305,
      "球": 3306,
      "琅": 3307,
      "理": 3308,
      "琉": 3309,
      "琢": 3310,
      "琥": 3311,
      "琦": 3312,
      "琲": 3313,
      "琳": 3314,
      "琴": 3315,
      "琵": 3316,
      "琶": 3317,
      "瑕": 3318,
      "瑙": 3319,
      "瑚": 3320,
      "瑛": 3321,
      "瑜": 3322,
      "瑞": 3323,
      "瑠": 3324,
      "瑣": 3325,
      "瑩": 3326,
      "瑪": 3327,
      "瑳": 3328,
      "瑶": 3329,
      "瑾": 3330,
      "璃": 3331,
      "璋": 3332,
      "璐": 3333,
      "璧": 3334,
      "環": 3335,
      "璽": 3336,
      "瓊": 3337,
      "瓔": 3338,
      "瓜": 3339,
      "瓠": 3340,
      "瓢": 3341,
      "瓦": 3342,
      "瓶": 3343,
      "甑": 3344,
      "甕": 3345,
      "甘": 3346,
      "甚": 3347,
      "生": 3348,
      "產": 3349,
      "産": 3350,
      "甥": 3351,
      "甦": 3352,
      "用": 3353,
      "甫": 3354,
      "田": 3355,
      "由": 3356,
      "甲": 3357,
      "申": 3358,
      "电": 3359,
      "男": 3360,
      "町": 3361,
      "画": 3362,
      "界": 3363,
      "畏": 3364,
      "畑": 3365,
      "畔": 3366,
      "留": 3367,
      "畜": 3368,
      "畝": 3369,
      "畠": 3370,
      "畢": 3371,
      "略": 3372,
      "畦": 3373,
      "番": 3374,
      "畫": 3375,
      "畯": 3376,
      "異": 3377,
      "畳": 3378,
      "當": 3379,
      "畷": 3380,
      "畸": 3381,
      "畿": 3382,
      "疆": 3383,
      "疇": 3384,
      "疊": 3385,
      "疋": 3386,
      "疎": 3387,
      "疏": 3388,
      "疑": 3389,
      "疥": 3390,
      "疫": 3391,
      "疱": 3392,
      "疲": 3393,
      "疳": 3394,
      "疵": 3395,
      "疸": 3396,
      "疹": 3397,
      "疼": 3398,
      "疽": 3399,
      "疾": 3400,
      "痂": 3401,
      "病": 3402,
      "症": 3403,
      "痊": 3404,
      "痍": 3405,
      "痒": 3406,
      "痔": 3407,
      "痕": 3408,
      "痘": 3409,
      "痙": 3410,
      "痛": 3411,
      "痢": 3412,
      "痣": 3413,
      "痩": 3414,
      "痰": 3415,
      "痴": 3416,
      "痺": 3417,
      "瘋": 3418,
      "瘍": 3419,
      "瘡": 3420,
      "瘢": 3421,
      "瘤": 3422,
      "瘴": 3423,
      "瘻": 3424,
      "療": 3425,
      "癇": 3426,
      "癌": 3427,
      "癒": 3428,
      "癖": 3429,
      "癜": 3430,
      "癡": 3431,
      "癩": 3432,
      "癪": 3433,
      "癬": 3434,
      "癲": 3435,
      "発": 3436,
      "登": 3437,
      "發": 3438,
      "白": 3439,
      "百": 3440,
      "皀": 3441,
      "的": 3442,
      "皆": 3443,
      "皇": 3444,
      "皐": 3445,
      "皓": 3446,
      "皮": 3447,
      "皷": 3448,
      "皺": 3449,
      "皿": 3450,
      "盂": 3451,
      "盃": 3452,
      "盆": 3453,
      "益": 3454,
      "盒": 3455,
      "盔": 3456,
      "盗": 3457,
      "盛": 3458,
      "盟": 3459,
      "盡": 3460,
      "監": 3461,
      "盤": 3462,
      "盧": 3463,
      "目": 3464,
      "盲": 3465,
      "直": 3466,
      "相": 3467,
      "盾": 3468,
      "省": 3469,
      "眈": 3470,
      "眉": 3471,
      "看": 3472,
      "県": 3473,
      "眞": 3474,
      "真": 3475,
      "眠": 3476,
      "眩": 3477,
      "眷": 3478,
      "眺": 3479,
      "眼": 3480,
      "着": 3481,
      "睡": 3482,
      "督": 3483,
      "睦": 3484,
      "睨": 3485,
      "睫": 3486,
      "睾": 3487,
      "睿": 3488,
      "瞋": 3489,
      "瞑": 3490,
      "瞞": 3491,
      "瞥": 3492,
      "瞬": 3493,
      "瞭": 3494,
      "瞰": 3495,
      "瞳": 3496,
      "瞻": 3497,
      "瞼": 3498,
      "瞽": 3499,
      "矛": 3500,
      "矜": 3501,
      "矢": 3502,
      "矣": 3503,
      "知": 3504,
      "矩": 3505,
      "短": 3506,
      "矮": 3507,
      "矯": 3508,
      "石": 3509,
      "砂": 3510,
      "砒": 3511,
      "研": 3512,
      "砕": 3513,
      "砥": 3514,
      "砦": 3515,
      "砲": 3516,
      "破": 3517,
      "砺": 3518,
      "硝": 3519,
      "硫": 3520,
      "硬": 3521,
      "硯": 3522,
      "硲": 3523,
      "碁": 3524,
      "碇": 3525,
      "碍": 3526,
      "碎": 3527,
      "碑": 3528,
      "碓": 3529,
      "碗": 3530,
      "碧": 3531,
      "碩": 3532,
      "確": 3533,
      "碼": 3534,
      "磁": 3535,
      "磋": 3536,
      "磐": 3537,
      "磔": 3538,
      "磨": 3539,
      "磯": 3540,
      "礁": 3541,
      "礎": 3542,
      "礒": 3543,
      "礦": 3544,
      "礫": 3545,
      "示": 3546,
      "礻": 3547,
      "礼": 3548,
      "社": 3549,
      "祀": 3550,
      "祇": 3551,
      "祈": 3552,
      "祉": 3553,
      "祐": 3554,
      "祓": 3555,
      "祖": 3556,
      "祗": 3557,
      "祚": 3558,
      "祝": 3559,
      "神": 3560,
      "祟": 3561,
      "祠": 3562,
      "祢": 3563,
      "祥": 3564,
      "票": 3565,
      "祭": 3566,
      "祷": 3567,
      "禁": 3568,
      "禄": 3569,
      "禅": 3570,
      "禊": 3571,
      "禍": 3572,
      "禎": 3573,
      "福": 3574,
      "禦": 3575,
      "禧": 3576,
      "禪": 3577,
      "禮": 3578,
      "禰": 3579,
      "禹": 3580,
      "禽": 3581,
      "禾": 3582,
      "禿": 3583,
      "秀": 3584,
      "私": 3585,
      "秉": 3586,
      "秋": 3587,
      "科": 3588,
      "秒": 3589,
      "秘": 3590,
      "租": 3591,
      "秤": 3592,
      "秦": 3593,
      "秩": 3594,
      "称": 3595,
      "移": 3596,
      "稀": 3597,
      "程": 3598,
      "稍": 3599,
      "税": 3600,
      "稔": 3601,
      "稗": 3602,
      "稚": 3603,
      "稜": 3604,
      "稟": 3605,
      "稠": 3606,
      "種": 3607,
      "稱": 3608,
      "稲": 3609,
      "稷": 3610,
      "稼": 3611,
      "稽": 3612,
      "稿": 3613,
      "穀": 3614,
      "穂": 3615,
      "積": 3616,
      "穎": 3617,
      "穏": 3618,
      "穐": 3619,
      "穗": 3620,
      "穢": 3621,
      "穣": 3622,
      "穫": 3623,
      "穴": 3624,
      "究": 3625,
      "穹": 3626,
      "空": 3627,
      "穽": 3628,
      "穿": 3629,
      "突": 3630,
      "窃": 3631,
      "窄": 3632,
      "窒": 3633,
      "窓": 3634,
      "窘": 3635,
      "窟": 3636,
      "窩": 3637,
      "窪": 3638,
      "窮": 3639,
      "窯": 3640,
      "窺": 3641,
      "竃": 3642,
      "竄": 3643,
      "立": 3644,
      "站": 3645,
      "竜": 3646,
      "竟": 3647,
      "章": 3648,
      "竣": 3649,
      "童": 3650,
      "竪": 3651,
      "端": 3652,
      "競": 3653,
      "竹": 3654,
      "竺": 3655,
      "竿": 3656,
      "笈": 3657,
      "笏": 3658,
      "笑": 3659,
      "笙": 3660,
      "笛": 3661,
      "笠": 3662,
      "笥": 3663,
      "符": 3664,
      "第": 3665,
      "笹": 3666,
      "筆": 3667,
      "筈": 3668,
      "等": 3669,
      "筋": 3670,
      "筍": 3671,
      "筏": 3672,
      "筐": 3673,
      "筑": 3674,
      "筒": 3675,
      "答": 3676,
      "策": 3677,
      "筝": 3678,
      "筧": 3679,
      "筩": 3680,
      "筮": 3681,
      "筱": 3682,
      "筺": 3683,
      "简": 3684,
      "箆": 3685,
      "箇": 3686,
      "箋": 3687,
      "箏": 3688,
      "箒": 3689,
      "箔": 3690,
      "箕": 3691,
      "算": 3692,
      "管": 3693,
      "箪": 3694,
      "箭": 3695,
      "箱": 3696,
      "箴": 3697,
      "箸": 3698,
      "節": 3699,
      "篁": 3700,
      "範": 3701,
      "篆": 3702,
      "篇": 3703,
      "築": 3704,
      "篝": 3705,
      "篠": 3706,
      "篤": 3707,
      "篩": 3708,
      "篭": 3709,
      "簀": 3710,
      "簇": 3711,
      "簑": 3712,
      "簒": 3713,
      "簗": 3714,
      "簡": 3715,
      "簧": 3716,
      "簪": 3717,
      "簸": 3718,
      "簾": 3719,
      "簿": 3720,
      "籃": 3721,
      "籌": 3722,
      "籍": 3723,
      "籐": 3724,
      "籠": 3725,
      "籤": 3726,
      "米": 3727,
      "类": 3728,
      "籾": 3729,
      "粂": 3730,
      "粉": 3731,
      "粋": 3732,
      "粒": 3733,
      "粕": 3734,
      "粗": 3735,
      "粘": 3736,
      "粛": 3737,
      "粟": 3738,
      "粥": 3739,
      "粧": 3740,
      "粱": 3741,
      "粽": 3742,
      "精": 3743,
      "糊": 3744,
      "糒": 3745,
      "糖": 3746,
      "糞": 3747,
      "糟": 3748,
      "糠": 3749,
      "糧": 3750,
      "糸": 3751,
      "糺": 3752,
      "系": 3753,
      "糾": 3754,
      "紀": 3755,
      "約": 3756,
      "紅": 3757,
      "紆": 3758,
      "紊": 3759,
      "紋": 3760,
      "納": 3761,
      "紐": 3762,
      "純": 3763,
      "紗": 3764,
      "紘": 3765,
      "紙": 3766,
      "級": 3767,
      "紛": 3768,
      "素": 3769,
      "紡": 3770,
      "索": 3771,
      "紫": 3772,
      "紬": 3773,
      "累": 3774,
      "細": 3775,
      "紳": 3776,
      "紹": 3777,
      "紺": 3778,
      "終": 3779,
      "絃": 3780,
      "組": 3781,
      "絆": 3782,
      "経": 3783,
      "結": 3784,
      "絞": 3785,
      "絡": 3786,
      "絢": 3787,
      "絣": 3788,
      "給": 3789,
      "絨": 3790,
      "絮": 3791,
      "統": 3792,
      "絲": 3793,
      "絵": 3794,
      "絶": 3795,
      "絹": 3796,
      "經": 3797,
      "継": 3798,
      "続": 3799,
      "綜": 3800,
      "綬": 3801,
      "維": 3802,
      "綱": 3803,
      "網": 3804,
      "綴": 3805,
      "綸": 3806,
      "綺": 3807,
      "綻": 3808,
      "綽": 3809,
      "綾": 3810,
      "綿": 3811,
      "緇": 3812,
      "緊": 3813,
      "緋": 3814,
      "総": 3815,
      "緑": 3816,
      "緒": 3817,
      "緘": 3818,
      "線": 3819,
      "締": 3820,
      "編": 3821,
      "緩": 3822,
      "緬": 3823,
      "緯": 3824,
      "練": 3825,
      "緻": 3826,
      "縁": 3827,
      "縄": 3828,
      "縋": 3829,
      "縛": 3830,
      "縞": 3831,
      "縣": 3832,
      "縦": 3833,
      "縫": 3834,
      "縮": 3835,
      "縵": 3836,
      "縷": 3837,
      "總": 3838,
      "績": 3839,
      "繁": 3840,
      "繊": 3841,
      "繋": 3842,
      "繍": 3843,
      "織": 3844,
      "繕": 3845,
      "繚": 3846,
      "繞": 3847,
      "繪": 3848,
      "繫": 3849,
      "繭": 3850,
      "繰": 3851,
      "繳": 3852,
      "繹": 3853,
      "繼": 3854,
      "纂": 3855,
      "續": 3856,
      "纏": 3857,
      "纓": 3858,
      "级": 3859,
      "纪": 3860,
      "纳": 3861,
      "纷": 3862,
      "细": 3863,
      "经": 3864,
      "维": 3865,
      "缶": 3866,
      "缺": 3867,
      "罅": 3868,
      "网": 3869,
      "罕": 3870,
      "罠": 3871,
      "罡": 3872,
      "罨": 3873,
      "罩": 3874,
      "罪": 3875,
      "罫": 3876,
      "置": 3877,
      "罰": 3878,
      "署": 3879,
      "罵": 3880,
      "罷": 3881,
      "罸": 3882,
      "罹": 3883,
      "羅": 3884,
      "羊": 3885,
      "羌": 3886,
      "美": 3887,
      "羚": 3888,
      "羞": 3889,
      "群": 3890,
      "羨": 3891,
      "義": 3892,
      "羲": 3893,
      "羹": 3894,
      "羽": 3895,
      "翁": 3896,
      "翅": 3897,
      "翌": 3898,
      "習": 3899,
      "翔": 3900,
      "翠": 3901,
      "翡": 3902,
      "翦": 3903,
      "翫": 3904,
      "翰": 3905,
      "翳": 3906,
      "翻": 3907,
      "翼": 3908,
      "耀": 3909,
      "老": 3910,
      "考": 3911,
      "者": 3912,
      "而": 3913,
      "耐": 3914,
      "耕": 3915,
      "耗": 3916,
      "耨": 3917,
      "耳": 3918,
      "耶": 3919,
      "耽": 3920,
      "聖": 3921,
      "聘": 3922,
      "聚": 3923,
      "聞": 3924,
      "聟": 3925,
      "聡": 3926,
      "聨": 3927,
      "聯": 3928,
      "聰": 3929,
      "聲": 3930,
      "聳": 3931,
      "聴": 3932,
      "聶": 3933,
      "職": 3934,
      "聽": 3935,
      "聾": 3936,
      "肆": 3937,
      "肇": 3938,
      "肉": 3939,
      "肋": 3940,
      "肌": 3941,
      "肖": 3942,
      "肘": 3943,
      "肛": 3944,
      "肝": 3945,
      "股": 3946,
      "肢": 3947,
      "肥": 3948,
      "肩": 3949,
      "肪": 3950,
      "肯": 3951,
      "育": 3952,
      "肴": 3953,
      "肺": 3954,
      "胃": 3955,
      "胆": 3956,
      "背": 3957,
      "胎": 3958,
      "胖": 3959,
      "胚": 3960,
      "胜": 3961,
      "胝": 3962,
      "胞": 3963,
      "胡": 3964,
      "胤": 3965,
      "胱": 3966,
      "胴": 3967,
      "胸": 3968,
      "胼": 3969,
      "能": 3970,
      "脂": 3971,
      "脅": 3972,
      "脆": 3973,
      "脇": 3974,
      "脈": 3975,
      "脊": 3976,
      "脚": 3977,
      "脛": 3978,
      "脩": 3979,
      "脱": 3980,
      "脳": 3981,
      "脹": 3982,
      "脾": 3983,
      "腋": 3984,
      "腎": 3985,
      "腐": 3986,
      "腑": 3987,
      "腓": 3988,
      "腔": 3989,
      "腕": 3990,
      "腟": 3991,
      "腥": 3992,
      "腫": 3993,
      "腰": 3994,
      "腱": 3995,
      "腸": 3996,
      "腹": 3997,
      "腺": 3998,
      "腿": 3999,
      "膀": 4000,
      "膂": 4001,
      "膈": 4002,
      "膏": 4003,
      "膚": 4004,
      "膜": 4005,
      "膝": 4006,
      "膠": 4007,
      "膣": 4008,
      "膨": 4009,
      "膳": 4010,
      "膵": 4011,
      "膿": 4012,
      "臀": 4013,
      "臂": 4014,
      "臆": 4015,
      "臉": 4016,
      "臍": 4017,
      "臓": 4018,
      "臘": 4019,
      "臚": 4020,
      "臣": 4021,
      "臥": 4022,
      "臨": 4023,
      "自": 4024,
      "臭": 4025,
      "至": 4026,
      "致": 4027,
      "臼": 4028,
      "舅": 4029,
      "與": 4030,
      "興": 4031,
      "舉": 4032,
      "舌": 4033,
      "舍": 4034,
      "舎": 4035,
      "舐": 4036,
      "舒": 4037,
      "舗": 4038,
      "舘": 4039,
      "舛": 4040,
      "舞": 4041,
      "舟": 4042,
      "航": 4043,
      "舫": 4044,
      "般": 4045,
      "舵": 4046,
      "舶": 4047,
      "舷": 4048,
      "船": 4049,
      "舺": 4050,
      "艇": 4051,
      "艋": 4052,
      "艘": 4053,
      "艤": 4054,
      "艦": 4055,
      "良": 4056,
      "艱": 4057,
      "色": 4058,
      "艶": 4059,
      "艷": 4060,
      "艸": 4061,
      "节": 4062,
      "芋": 4063,
      "芒": 4064,
      "芙": 4065,
      "芝": 4066,
      "芥": 4067,
      "芦": 4068,
      "芭": 4069,
      "芯": 4070,
      "花": 4071,
      "芳": 4072,
      "芸": 4073,
      "芹": 4074,
      "芻": 4075,
      "芽": 4076,
      "苅": 4077,
      "苇": 4078,
      "苑": 4079,
      "苓": 4080,
      "苔": 4081,
      "苗": 4082,
      "苛": 4083,
      "苟": 4084,
      "苡": 4085,
      "若": 4086,
      "苦": 4087,
      "苧": 4088,
      "苫": 4089,
      "英": 4090,
      "苺": 4091,
      "茂": 4092,
      "范": 4093,
      "茄": 4094,
      "茅": 4095,
      "茉": 4096,
      "茎": 4097,
      "茗": 4098,
      "茜": 4099,
      "茨": 4100,
      "茫": 4101,
      "茯": 4102,
      "茲": 4103,
      "茵": 4104,
      "茶": 4105,
      "茸": 4106,
      "茹": 4107,
      "草": 4108,
      "荊": 4109,
      "荏": 4110,
      "荐": 4111,
      "荒": 4112,
      "荔": 4113,
      "荘": 4114,
      "荷": 4115,
      "荻": 4116,
      "荼": 4117,
      "莉": 4118,
      "莊": 4119,
      "莚": 4120,
      "莞": 4121,
      "莢": 4122,
      "莫": 4123,
      "莱": 4124,
      "菅": 4125,
      "菊": 4126,
      "菌": 4127,
      "菓": 4128,
      "菖": 4129,
      "菜": 4130,
      "菩": 4131,
      "華": 4132,
      "菰": 4133,
      "菱": 4134,
      "菲": 4135,
      "菴": 4136,
      "萄": 4137,
      "萌": 4138,
      "萍": 4139,
      "萎": 4140,
      "萠": 4141,
      "萩": 4142,
      "萬": 4143,
      "萱": 4144,
      "落": 4145,
      "葉": 4146,
      "著": 4147,
      "葛": 4148,
      "葡": 4149,
      "董": 4150,
      "葦": 4151,
      "葬": 4152,
      "葯": 4153,
      "葱": 4154,
      "葵": 4155,
      "葺": 4156,
      "蒋": 4157,
      "蒐": 4158,
      "蒔": 4159,
      "蒙": 4160,
      "蒜": 4161,
      "蒟": 4162,
      "蒡": 4163,
      "蒲": 4164,
      "蒸": 4165,
      "蒻": 4166,
      "蒼": 4167,
      "蓄": 4168,
      "蓉": 4169,
      "蓋": 4170,
      "蓐": 4171,
      "蓑": 4172,
      "蓚": 4173,
      "蓜": 4174,
      "蓬": 4175,
      "蓮": 4176,
      "蓼": 4177,
      "蔑": 4178,
      "蔓": 4179,
      "蔡": 4180,
      "蔦": 4181,
      "蔬": 4182,
      "蔭": 4183,
      "蔵": 4184,
      "蔽": 4185,
      "蕁": 4186,
      "蕃": 4187,
      "蕉": 4188,
      "蕎": 4189,
      "蕗": 4190,
      "蕙": 4191,
      "蕨": 4192,
      "蕩": 4193,
      "蕪": 4194,
      "蕾": 4195,
      "薄": 4196,
      "薇": 4197,
      "薈": 4198,
      "薑": 4199,
      "薔": 4200,
      "薗": 4201,
      "薙": 4202,
      "薛": 4203,
      "薦": 4204,
      "薨": 4205,
      "薩": 4206,
      "薪": 4207,
      "薫": 4208,
      "薬": 4209,
      "薮": 4210,
      "薯": 4211,
      "薹": 4212,
      "薺": 4213,
      "藁": 4214,
      "藉": 4215,
      "藍": 4216,
      "藏": 4217,
      "藐": 4218,
      "藝": 4219,
      "藤": 4220,
      "藥": 4221,
      "藩": 4222,
      "藪": 4223,
      "藹": 4224,
      "藻": 4225,
      "蘂": 4226,
      "蘆": 4227,
      "蘇": 4228,
      "蘋": 4229,
      "蘖": 4230,
      "蘚": 4231,
      "蘢": 4232,
      "蘭": 4233,
      "虎": 4234,
      "虐": 4235,
      "虔": 4236,
      "處": 4237,
      "虚": 4238,
      "虜": 4239,
      "虞": 4240,
      "號": 4241,
      "虫": 4242,
      "虱": 4243,
      "虹": 4244,
      "虻": 4245,
      "蚊": 4246,
      "蚕": 4247,
      "蚤": 4248,
      "蚵": 4249,
      "蛆": 4250,
      "蛇": 4251,
      "蛉": 4252,
      "蛋": 4253,
      "蛍": 4254,
      "蛙": 4255,
      "蛛": 4256,
      "蛤": 4257,
      "蛭": 4258,
      "蛮": 4259,
      "蛯": 4260,
      "蛸": 4261,
      "蛹": 4262,
      "蛾": 4263,
      "蜀": 4264,
      "蜂": 4265,
      "蜃": 4266,
      "蜆": 4267,
      "蜉": 4268,
      "蜊": 4269,
      "蜘": 4270,
      "蜜": 4271,
      "蜥": 4272,
      "蜩": 4273,
      "蜴": 4274,
      "蜻": 4275,
      "蝉": 4276,
      "蝋": 4277,
      "蝎": 4278,
      "蝕": 4279,
      "蝗": 4280,
      "蝙": 4281,
      "蝠": 4282,
      "蝣": 4283,
      "蝦": 4284,
      "蝮": 4285,
      "蝶": 4286,
      "蝸": 4287,
      "蝿": 4288,
      "螂": 4289,
      "螌": 4290,
      "融": 4291,
      "螞": 4292,
      "螭": 4293,
      "螺": 4294,
      "蟄": 4295,
      "蟇": 4296,
      "蟲": 4297,
      "蟷": 4298,
      "蟹": 4299,
      "蟻": 4300,
      "蠅": 4301,
      "蠍": 4302,
      "蠕": 4303,
      "蠟": 4304,
      "蠡": 4305,
      "蠢": 4306,
      "蠣": 4307,
      "蠱": 4308,
      "血": 4309,
      "衆": 4310,
      "行": 4311,
      "衍": 4312,
      "衒": 4313,
      "術": 4314,
      "街": 4315,
      "衙": 4316,
      "衛": 4317,
      "衝": 4318,
      "衡": 4319,
      "衣": 4320,
      "表": 4321,
      "衰": 4322,
      "衷": 4323,
      "衾": 4324,
      "衿": 4325,
      "袁": 4326,
      "袂": 4327,
      "袈": 4328,
      "袋": 4329,
      "袍": 4330,
      "袒": 4331,
      "袖": 4332,
      "袢": 4333,
      "被": 4334,
      "袴": 4335,
      "袷": 4336,
      "裁": 4337,
      "裂": 4338,
      "裄": 4339,
      "装": 4340,
      "裏": 4341,
      "裔": 4342,
      "裕": 4343,
      "補": 4344,
      "裝": 4345,
      "裟": 4346,
      "裡": 4347,
      "裨": 4348,
      "裱": 4349,
      "裲": 4350,
      "裳": 4351,
      "裴": 4352,
      "裸": 4353,
      "製": 4354,
      "裾": 4355,
      "褄": 4356,
      "複": 4357,
      "褌": 4358,
      "褐": 4359,
      "褒": 4360,
      "褥": 4361,
      "褪": 4362,
      "褶": 4363,
      "褸": 4364,
      "褻": 4365,
      "襄": 4366,
      "襖": 4367,
      "襞": 4368,
      "襟": 4369,
      "襠": 4370,
      "襤": 4371,
      "襦": 4372,
      "襪": 4373,
      "襲": 4374,
      "襷": 4375,
      "西": 4376,
      "要": 4377,
      "覆": 4378,
      "覇": 4379,
      "見": 4380,
      "規": 4381,
      "視": 4382,
      "覗": 4383,
      "覘": 4384,
      "覚": 4385,
      "覧": 4386,
      "親": 4387,
      "観": 4388,
      "覺": 4389,
      "觀": 4390,
      "角": 4391,
      "解": 4392,
      "触": 4393,
      "言": 4394,
      "訂": 4395,
      "訃": 4396,
      "計": 4397,
      "訊": 4398,
      "訌": 4399,
      "討": 4400,
      "訓": 4401,
      "託": 4402,
      "記": 4403,
      "訛": 4404,
      "訝": 4405,
      "訟": 4406,
      "訣": 4407,
      "訪": 4408,
      "設": 4409,
      "許": 4410,
      "訳": 4411,
      "訴": 4412,
      "訶": 4413,
      "診": 4414,
      "註": 4415,
      "証": 4416,
      "詈": 4417,
      "詐": 4418,
      "詔": 4419,
      "評": 4420,
      "詛": 4421,
      "詞": 4422,
      "詠": 4423,
      "詢": 4424,
      "詣": 4425,
      "試": 4426,
      "詩": 4427,
      "詫": 4428,
      "詭": 4429,
      "詮": 4430,
      "詰": 4431,
      "話": 4432,
      "該": 4433,
      "詳": 4434,
      "誂": 4435,
      "誄": 4436,
      "誅": 4437,
      "誇": 4438,
      "誉": 4439,
      "誌": 4440,
      "認": 4441,
      "誑": 4442,
      "誓": 4443,
      "誕": 4444,
      "誘": 4445,
      "語": 4446,
      "誠": 4447,
      "誤": 4448,
      "誦": 4449,
      "說": 4450,
      "説": 4451,
      "読": 4452,
      "誰": 4453,
      "課": 4454,
      "誹": 4455,
      "誼": 4456,
      "調": 4457,
      "諄": 4458,
      "談": 4459,
      "請": 4460,
      "諌": 4461,
      "諍": 4462,
      "諏": 4463,
      "諒": 4464,
      "論": 4465,
      "諛": 4466,
      "諜": 4467,
      "諡": 4468,
      "諤": 4469,
      "諦": 4470,
      "諧": 4471,
      "諫": 4472,
      "諭": 4473,
      "諮": 4474,
      "諱": 4475,
      "諳": 4476,
      "諶": 4477,
      "諷": 4478,
      "諸": 4479,
      "諺": 4480,
      "諾": 4481,
      "謀": 4482,
      "謁": 4483,
      "謂": 4484,
      "謄": 4485,
      "謎": 4486,
      "謔": 4487,
      "謗": 4488,
      "謙": 4489,
      "講": 4490,
      "謝": 4491,
      "謡": 4492,
      "謬": 4493,
      "謳": 4494,
      "謹": 4495,
      "證": 4496,
      "識": 4497,
      "譚": 4498,
      "譜": 4499,
      "警": 4500,
      "譬": 4501,
      "議": 4502,
      "譲": 4503,
      "護": 4504,
      "譽": 4505,
      "讀": 4506,
      "讃": 4507,
      "變": 4508,
      "讐": 4509,
      "讒": 4510,
      "讖": 4511,
      "讚": 4512,
      "计": 4513,
      "让": 4514,
      "议": 4515,
      "许": 4516,
      "设": 4517,
      "证": 4518,
      "译": 4519,
      "语": 4520,
      "误": 4521,
      "诱": 4522,
      "说": 4523,
      "请": 4524,
      "诺": 4525,
      "谷": 4526,
      "谿": 4527,
      "豆": 4528,
      "豈": 4529,
      "豊": 4530,
      "豌": 4531,
      "豚": 4532,
      "象": 4533,
      "豪": 4534,
      "豫": 4535,
      "豹": 4536,
      "貂": 4537,
      "貌": 4538,
      "貓": 4539,
      "貝": 4540,
      "貞": 4541,
      "負": 4542,
      "財": 4543,
      "貢": 4544,
      "貧": 4545,
      "貨": 4546,
      "販": 4547,
      "貪": 4548,
      "貫": 4549,
      "責": 4550,
      "貯": 4551,
      "貰": 4552,
      "貴": 4553,
      "貶": 4554,
      "買": 4555,
      "貸": 4556,
      "費": 4557,
      "貼": 4558,
      "貽": 4559,
      "貿": 4560,
      "賀": 4561,
      "賁": 4562,
      "賂": 4563,
      "賃": 4564,
      "賄": 4565,
      "資": 4566,
      "賊": 4567,
      "賎": 4568,
      "賑": 4569,
      "賓": 4570,
      "賛": 4571,
      "賜": 4572,
      "賞": 4573,
      "賠": 4574,
      "賢": 4575,
      "賣": 4576,
      "賤": 4577,
      "賦": 4578,
      "質": 4579,
      "賭": 4580,
      "賴": 4581,
      "購": 4582,
      "賽": 4583,
      "贄": 4584,
      "贅": 4585,
      "贇": 4586,
      "贈": 4587,
      "贊": 4588,
      "贋": 4589,
      "贔": 4590,
      "贖": 4591,
      "贝": 4592,
      "责": 4593,
      "贤": 4594,
      "购": 4595,
      "赛": 4596,
      "赤": 4597,
      "赦": 4598,
      "赫": 4599,
      "走": 4600,
      "赳": 4601,
      "赴": 4602,
      "赵": 4603,
      "起": 4604,
      "超": 4605,
      "越": 4606,
      "趕": 4607,
      "趙": 4608,
      "趣": 4609,
      "趨": 4610,
      "足": 4611,
      "趾": 4612,
      "跋": 4613,
      "跌": 4614,
      "跛": 4615,
      "距": 4616,
      "跡": 4617,
      "跨": 4618,
      "跪": 4619,
      "路": 4620,
      "跳": 4621,
      "践": 4622,
      "踉": 4623,
      "踊": 4624,
      "踏": 4625,
      "踝": 4626,
      "踪": 4627,
      "踵": 4628,
      "蹂": 4629,
      "蹄": 4630,
      "蹉": 4631,
      "蹊": 4632,
      "蹙": 4633,
      "蹟": 4634,
      "蹠": 4635,
      "蹲": 4636,
      "蹴": 4637,
      "躁": 4638,
      "躅": 4639,
      "躇": 4640,
      "躊": 4641,
      "躍": 4642,
      "躑": 4643,
      "躓": 4644,
      "躙": 4645,
      "身": 4646,
      "躯": 4647,
      "躰": 4648,
      "躲": 4649,
      "躾": 4650,
      "車": 4651,
      "軋": 4652,
      "軌": 4653,
      "軍": 4654,
      "軒": 4655,
      "軛": 4656,
      "軟": 4657,
      "転": 4658,
      "軫": 4659,
      "軸": 4660,
      "軽": 4661,
      "軾": 4662,
      "較": 4663,
      "載": 4664,
      "輌": 4665,
      "輓": 4666,
      "輔": 4667,
      "輕": 4668,
      "輛": 4669,
      "輜": 4670,
      "輝": 4671,
      "輟": 4672,
      "輩": 4673,
      "輪": 4674,
      "輳": 4675,
      "輸": 4676,
      "輻": 4677,
      "輿": 4678,
      "轄": 4679,
      "轆": 4680,
      "轉": 4681,
      "轍": 4682,
      "轟": 4683,
      "轢": 4684,
      "轤": 4685,
      "辛": 4686,
      "辜": 4687,
      "辞": 4688,
      "辟": 4689,
      "辣": 4690,
      "辭": 4691,
      "辰": 4692,
      "辱": 4693,
      "農": 4694,
      "辷": 4695,
      "辺": 4696,
      "辻": 4697,
      "込": 4698,
      "辽": 4699,
      "辿": 4700,
      "迂": 4701,
      "迄": 4702,
      "迅": 4703,
      "过": 4704,
      "迎": 4705,
      "近": 4706,
      "返": 4707,
      "这": 4708,
      "连": 4709,
      "迢": 4710,
      "迦": 4711,
      "迫": 4712,
      "迭": 4713,
      "述": 4714,
      "迷": 4715,
      "迸": 4716,
      "迹": 4717,
      "追": 4718,
      "退": 4719,
      "送": 4720,
      "逃": 4721,
      "逅": 4722,
      "逆": 4723,
      "选": 4724,
      "逍": 4725,
      "透": 4726,
      "逐": 4727,
      "逓": 4728,
      "途": 4729,
      "逗": 4730,
      "這": 4731,
      "通": 4732,
      "逝": 4733,
      "逞": 4734,
      "速": 4735,
      "造": 4736,
      "逡": 4737,
      "逢": 4738,
      "連": 4739,
      "逮": 4740,
      "週": 4741,
      "進": 4742,
      "逵": 4743,
      "逸": 4744,
      "逹": 4745,
      "逼": 4746,
      "遁": 4747,
      "遂": 4748,
      "遅": 4749,
      "遇": 4750,
      "遊": 4751,
      "運": 4752,
      "遍": 4753,
      "過": 4754,
      "道": 4755,
      "達": 4756,
      "違": 4757,
      "遙": 4758,
      "遜": 4759,
      "遠": 4760,
      "遡": 4761,
      "遣": 4762,
      "遥": 4763,
      "適": 4764,
      "遭": 4765,
      "遮": 4766,
      "遵": 4767,
      "遷": 4768,
      "選": 4769,
      "遺": 4770,
      "遼": 4771,
      "遽": 4772,
      "避": 4773,
      "邀": 4774,
      "邁": 4775,
      "邂": 4776,
      "還": 4777,
      "邇": 4778,
      "邉": 4779,
      "邊": 4780,
      "邏": 4781,
      "邑": 4782,
      "邕": 4783,
      "那": 4784,
      "邦": 4785,
      "邨": 4786,
      "邪": 4787,
      "邯": 4788,
      "邱": 4789,
      "邵": 4790,
      "邸": 4791,
      "郁": 4792,
      "郊": 4793,
      "郎": 4794,
      "郡": 4795,
      "部": 4796,
      "郭": 4797,
      "郵": 4798,
      "郷": 4799,
      "都": 4800,
      "鄉": 4801,
      "鄧": 4802,
      "鄭": 4803,
      "鄰": 4804,
      "鄱": 4805,
      "鄲": 4806,
      "鄴": 4807,
      "酉": 4808,
      "酊": 4809,
      "酋": 4810,
      "酌": 4811,
      "配": 4812,
      "酎": 4813,
      "酒": 4814,
      "酔": 4815,
      "酢": 4816,
      "酥": 4817,
      "酩": 4818,
      "酪": 4819,
      "酬": 4820,
      "酵": 4821,
      "酷": 4822,
      "酸": 4823,
      "酿": 4824,
      "醂": 4825,
      "醇": 4826,
      "醋": 4827,
      "醍": 4828,
      "醐": 4829,
      "醒": 4830,
      "醗": 4831,
      "醜": 4832,
      "醤": 4833,
      "醫": 4834,
      "醸": 4835,
      "采": 4836,
      "釈": 4837,
      "釉": 4838,
      "釋": 4839,
      "里": 4840,
      "重": 4841,
      "野": 4842,
      "量": 4843,
      "金": 4844,
      "釘": 4845,
      "釜": 4846,
      "針": 4847,
      "釣": 4848,
      "釦": 4849,
      "釧": 4850,
      "鈍": 4851,
      "鈎": 4852,
      "鈑": 4853,
      "鈔": 4854,
      "鈞": 4855,
      "鈴": 4856,
      "鈷": 4857,
      "鈿": 4858,
      "鉄": 4859,
      "鉈": 4860,
      "鉛": 4861,
      "鉢": 4862,
      "鉤": 4863,
      "鉱": 4864,
      "鉾": 4865,
      "銀": 4866,
      "銃": 4867,
      "銅": 4868,
      "銑": 4869,
      "銕": 4870,
      "銘": 4871,
      "銚": 4872,
      "銛": 4873,
      "銜": 4874,
      "銭": 4875,
      "鋏": 4876,
      "鋒": 4877,
      "鋤": 4878,
      "鋪": 4879,
      "鋭": 4880,
      "鋲": 4881,
      "鋳": 4882,
      "鋸": 4883,
      "鋼": 4884,
      "錄": 4885,
      "錆": 4886,
      "錐": 4887,
      "錘": 4888,
      "錚": 4889,
      "錠": 4890,
      "錣": 4891,
      "錦": 4892,
      "錨": 4893,
      "錫": 4894,
      "錬": 4895,
      "錮": 4896,
      "錯": 4897,
      "録": 4898,
      "錶": 4899,
      "鍊": 4900,
      "鍋": 4901,
      "鍍": 4902,
      "鍔": 4903,
      "鍛": 4904,
      "鍬": 4905,
      "鍮": 4906,
      "鍵": 4907,
      "鍼": 4908,
      "鍾": 4909,
      "鎊": 4910,
      "鎌": 4911,
      "鎖": 4912,
      "鎗": 4913,
      "鎧": 4914,
      "鎬": 4915,
      "鎮": 4916,
      "鏈": 4917,
      "鏑": 4918,
      "鏝": 4919,
      "鏞": 4920,
      "鏡": 4921,
      "鏤": 4922,
      "鏨": 4923,
      "鐔": 4924,
      "鐘": 4925,
      "鐙": 4926,
      "鐡": 4927,
      "鐵": 4928,
      "鐸": 4929,
      "鑑": 4930,
      "鑚": 4931,
      "鑛": 4932,
      "鑼": 4933,
      "鑽": 4934,
      "鑿": 4935,
      "银": 4936,
      "销": 4937,
      "锁": 4938,
      "错": 4939,
      "長": 4940,
      "长": 4941,
      "門": 4942,
      "閃": 4943,
      "閉": 4944,
      "閊": 4945,
      "開": 4946,
      "閏": 4947,
      "閑": 4948,
      "間": 4949,
      "関": 4950,
      "閣": 4951,
      "閤": 4952,
      "閥": 4953,
      "閨": 4954,
      "閭": 4955,
      "閲": 4956,
      "閻": 4957,
      "閾": 4958,
      "闆": 4959,
      "闇": 4960,
      "闊": 4961,
      "闕": 4962,
      "闖": 4963,
      "闘": 4964,
      "關": 4965,
      "闢": 4966,
      "闭": 4967,
      "间": 4968,
      "闾": 4969,
      "阁": 4970,
      "阜": 4971,
      "阪": 4972,
      "防": 4973,
      "阳": 4974,
      "阻": 4975,
      "阿": 4976,
      "陀": 4977,
      "附": 4978,
      "际": 4979,
      "陋": 4980,
      "降": 4981,
      "限": 4982,
      "陘": 4983,
      "陛": 4984,
      "陝": 4985,
      "陞": 4986,
      "院": 4987,
      "陣": 4988,
      "除": 4989,
      "陥": 4990,
      "陪": 4991,
      "陰": 4992,
      "陳": 4993,
      "陵": 4994,
      "陶": 4995,
      "陸": 4996,
      "険": 4997,
      "陽": 4998,
      "隅": 4999,
      "隆": 5000,
      "隈": 5001,
      "隊": 5002,
      "隋": 5003,
      "隍": 5004,
      "階": 5005,
      "随": 5006,
      "隔": 5007,
      "隕": 5008,
      "隗": 5009,
      "隘": 5010,
      "隙": 5011,
      "際": 5012,
      "障": 5013,
      "隠": 5014,
      "隣": 5015,
      "隧": 5016,
      "隨": 5017,
      "隱": 5018,
      "隷": 5019,
      "隻": 5020,
      "隼": 5021,
      "雀": 5022,
      "雁": 5023,
      "雄": 5024,
      "雅": 5025,
      "集": 5026,
      "雇": 5027,
      "雉": 5028,
      "雌": 5029,
      "雑": 5030,
      "雖": 5031,
      "雙": 5032,
      "雛": 5033,
      "雜": 5034,
      "離": 5035,
      "難": 5036,
      "雨": 5037,
      "雪": 5038,
      "雫": 5039,
      "雰": 5040,
      "雲": 5041,
      "零": 5042,
      "雷": 5043,
      "雹": 5044,
      "電": 5045,
      "需": 5046,
      "震": 5047,
      "霊": 5048,
      "霍": 5049,
      "霖": 5050,
      "霙": 5051,
      "霜": 5052,
      "霞": 5053,
      "霠": 5054,
      "霧": 5055,
      "霰": 5056,
      "露": 5057,
      "霸": 5058,
      "靄": 5059,
      "靈": 5060,
      "靑": 5061,
      "青": 5062,
      "靖": 5063,
      "静": 5064,
      "非": 5065,
      "靡": 5066,
      "面": 5067,
      "革": 5068,
      "靭": 5069,
      "靱": 5070,
      "靴": 5071,
      "靺": 5072,
      "靼": 5073,
      "鞄": 5074,
      "鞆": 5075,
      "鞋": 5076,
      "鞍": 5077,
      "鞘": 5078,
      "鞠": 5079,
      "鞨": 5080,
      "鞭": 5081,
      "鞴": 5082,
      "韃": 5083,
      "韋": 5084,
      "韓": 5085,
      "韜": 5086,
      "韦": 5087,
      "韮": 5088,
      "音": 5089,
      "韻": 5090,
      "響": 5091,
      "頁": 5092,
      "頂": 5093,
      "頃": 5094,
      "項": 5095,
      "順": 5096,
      "須": 5097,
      "頊": 5098,
      "頌": 5099,
      "預": 5100,
      "頑": 5101,
      "頒": 5102,
      "頓": 5103,
      "頗": 5104,
      "領": 5105,
      "頚": 5106,
      "頤": 5107,
      "頬": 5108,
      "頭": 5109,
      "頰": 5110,
      "頴": 5111,
      "頷": 5112,
      "頸": 5113,
      "頻": 5114,
      "頼": 5115,
      "頽": 5116,
      "顆": 5117,
      "題": 5118,
      "額": 5119,
      "顎": 5120,
      "顏": 5121,
      "顔": 5122,
      "顕": 5123,
      "願": 5124,
      "顛": 5125,
      "類": 5126,
      "顧": 5127,
      "顰": 5128,
      "预": 5129,
      "颐": 5130,
      "题": 5131,
      "風": 5132,
      "颪": 5133,
      "颯": 5134,
      "飄": 5135,
      "风": 5136,
      "飛": 5137,
      "飜": 5138,
      "食": 5139,
      "飠": 5140,
      "飢": 5141,
      "飩": 5142,
      "飯": 5143,
      "飲": 5144,
      "飴": 5145,
      "飼": 5146,
      "飽": 5147,
      "飾": 5148,
      "餃": 5149,
      "餅": 5150,
      "養": 5151,
      "餌": 5152,
      "餐": 5153,
      "餓": 5154,
      "餘": 5155,
      "餡": 5156,
      "館": 5157,
      "饂": 5158,
      "饅": 5159,
      "饉": 5160,
      "饒": 5161,
      "饗": 5162,
      "饰": 5163,
      "馆": 5164,
      "首": 5165,
      "馗": 5166,
      "馘": 5167,
      "香": 5168,
      "馥": 5169,
      "馨": 5170,
      "馬": 5171,
      "馳": 5172,
      "馴": 5173,
      "駁": 5174,
      "駄": 5175,
      "駅": 5176,
      "駆": 5177,
      "駈": 5178,
      "駐": 5179,
      "駒": 5180,
      "駕": 5181,
      "駝": 5182,
      "駱": 5183,
      "駿": 5184,
      "騎": 5185,
      "騒": 5186,
      "験": 5187,
      "騙": 5188,
      "騨": 5189,
      "騭": 5190,
      "騰": 5191,
      "騸": 5192,
      "驀": 5193,
      "驃": 5194,
      "驌": 5195,
      "驕": 5196,
      "驗": 5197,
      "驚": 5198,
      "驛": 5199,
      "骨": 5200,
      "骸": 5201,
      "骼": 5202,
      "髄": 5203,
      "髏": 5204,
      "髑": 5205,
      "體": 5206,
      "高": 5207,
      "髙": 5208,
      "髣": 5209,
      "髪": 5210,
      "髭": 5211,
      "髮": 5212,
      "髯": 5213,
      "髴": 5214,
      "髷": 5215,
      "鬆": 5216,
      "鬘": 5217,
      "鬚": 5218,
      "鬣": 5219,
      "鬨": 5220,
      "鬪": 5221,
      "鬮": 5222,
      "鬱": 5223,
      "鬼": 5224,
      "魁": 5225,
      "魂": 5226,
      "魃": 5227,
      "魄": 5228,
      "魅": 5229,
      "魍": 5230,
      "魎": 5231,
      "魏": 5232,
      "魑": 5233,
      "魔": 5234,
      "魚": 5235,
      "魯": 5236,
      "鮃": 5237,
      "鮎": 5238,
      "鮒": 5239,
      "鮨": 5240,
      "鮪": 5241,
      "鮫": 5242,
      "鮭": 5243,
      "鮮": 5244,
      "鮹": 5245,
      "鯉": 5246,
      "鯔": 5247,
      "鯖": 5248,
      "鯛": 5249,
      "鯨": 5250,
      "鯰": 5251,
      "鯱": 5252,
      "鯵": 5253,
      "鰌": 5254,
      "鰐": 5255,
      "鰓": 5256,
      "鰕": 5257,
      "鰤": 5258,
      "鰭": 5259,
      "鰯": 5260,
      "鰹": 5261,
      "鰺": 5262,
      "鰻": 5263,
      "鰾": 5264,
      "鱈": 5265,
      "鱒": 5266,
      "鱗": 5267,
      "鱸": 5268,
      "鳥": 5269,
      "鳩": 5270,
      "鳳": 5271,
      "鳴": 5272,
      "鳶": 5273,
      "鴉": 5274,
      "鴎": 5275,
      "鴛": 5276,
      "鴦": 5277,
      "鴨": 5278,
      "鴫": 5279,
      "鴬": 5280,
      "鴻": 5281,
      "鵜": 5282,
      "鵞": 5283,
      "鵠": 5284,
      "鵬": 5285,
      "鵲": 5286,
      "鵺": 5287,
      "鶏": 5288,
      "鶚": 5289,
      "鶯": 5290,
      "鶴": 5291,
      "鷗": 5292,
      "鷲": 5293,
      "鷹": 5294,
      "鷺": 5295,
      "鸞": 5296,
      "鹵": 5297,
      "鹸": 5298,
      "鹹": 5299,
      "鹽": 5300,
      "鹿": 5301,
      "麒": 5302,
      "麓": 5303,
      "麗": 5304,
      "麝": 5305,
      "麟": 5306,
      "麦": 5307,
      "麩": 5308,
      "麹": 5309,
      "麺": 5310,
      "麻": 5311,
      "麼": 5312,
      "麾": 5313,
      "麿": 5314,
      "黃": 5315,
      "黄": 5316,
      "黎": 5317,
      "黑": 5318,
      "黒": 5319,
      "黙": 5320,
      "黛": 5321,
      "黝": 5322,
      "點": 5323,
      "黴": 5324,
      "鼈": 5325,
      "鼎": 5326,
      "鼓": 5327,
      "鼠": 5328,
      "鼻": 5329,
      "齊": 5330,
      "齋": 5331,
      "齎": 5332,
      "齟": 5333,
      "齢": 5334,
      "齧": 5335,
      "齬": 5336,
      "齲": 5337,
      "龄": 5338,
      "龍": 5339,
      "龕": 5340,
      "龙": 5341,
      "꒳": 5342,
      "ꗗ": 5343,
      "Ꜣ": 5344,
      "가": 5345,
      "각": 5346,
      "갈": 5347,
      "강": 5348,
      "같": 5349,
      "개": 5350,
      "거": 5351,
      "건": 5352,
      "걸": 5353,
      "게": 5354,
      "겠": 5355,
      "격": 5356,
      "계": 5357,
      "고": 5358,
      "과": 5359,
      "관": 5360,
      "교": 5361,
      "구": 5362,
      "국": 5363,
      "군": 5364,
      "그": 5365,
      "글": 5366,
      "금": 5367,
      "급": 5368,
      "기": 5369,
      "김": 5370,
      "까": 5371,
      "깨": 5372,
      "꺼": 5373,
      "꼬": 5374,
      "나": 5375,
      "난": 5376,
      "남": 5377,
      "내": 5378,
      "너": 5379,
      "널": 5380,
      "녀": 5381,
      "노": 5382,
      "녹": 5383,
      "누": 5384,
      "눈": 5385,
      "는": 5386,
      "늘": 5387,
      "니": 5388,
      "다": 5389,
      "단": 5390,
      "달": 5391,
      "답": 5392,
      "대": 5393,
      "댄": 5394,
      "댈": 5395,
      "더": 5396,
      "덕": 5397,
      "데": 5398,
      "도": 5399,
      "동": 5400,
      "돼": 5401,
      "되": 5402,
      "두": 5403,
      "들": 5404,
      "등": 5405,
      "따": 5406,
      "또": 5407,
      "똑": 5408,
      "라": 5409,
      "란": 5410,
      "람": 5411,
      "랑": 5412,
      "래": 5413,
      "러": 5414,
      "럼": 5415,
      "렇": 5416,
      "렉": 5417,
      "련": 5418,
      "렬": 5419,
      "로": 5420,
      "롯": 5421,
      "뢰": 5422,
      "루": 5423,
      "르": 5424,
      "를": 5425,
      "름": 5426,
      "리": 5427,
      "림": 5428,
      "마": 5429,
      "막": 5430,
      "만": 5431,
      "많": 5432,
      "말": 5433,
      "망": 5434,
      "매": 5435,
      "먼": 5436,
      "메": 5437,
      "며": 5438,
      "면": 5439,
      "명": 5440,
      "모": 5441,
      "몰": 5442,
      "못": 5443,
      "무": 5444,
      "문": 5445,
      "물": 5446,
      "미": 5447,
      "바": 5448,
      "박": 5449,
      "반": 5450,
      "받": 5451,
      "발": 5452,
      "밥": 5453,
      "배": 5454,
      "백": 5455,
      "번": 5456,
      "법": 5457,
      "변": 5458,
      "병": 5459,
      "보": 5460,
      "복": 5461,
      "봉": 5462,
      "부": 5463,
      "불": 5464,
      "브": 5465,
      "비": 5466,
      "빔": 5467,
      "빠": 5468,
      "뿔": 5469,
      "사": 5470,
      "산": 5471,
      "삶": 5472,
      "상": 5473,
      "생": 5474,
      "샤": 5475,
      "서": 5476,
      "성": 5477,
      "세": 5478,
      "셨": 5479,
      "소": 5480,
      "속": 5481,
      "솔": 5482,
      "송": 5483,
      "쇼": 5484,
      "수": 5485,
      "순": 5486,
      "숭": 5487,
      "스": 5488,
      "슴": 5489,
      "습": 5490,
      "시": 5491,
      "식": 5492,
      "신": 5493,
      "싫": 5494,
      "심": 5495,
      "십": 5496,
      "싱": 5497,
      "싶": 5498,
      "쏘": 5499,
      "쏜": 5500,
      "아": 5501,
      "악": 5502,
      "안": 5503,
      "알": 5504,
      "애": 5505,
      "야": 5506,
      "약": 5507,
      "양": 5508,
      "얘": 5509,
      "어": 5510,
      "언": 5511,
      "얼": 5512,
      "없": 5513,
      "에": 5514,
      "여": 5515,
      "연": 5516,
      "열": 5517,
      "였": 5518,
      "영": 5519,
      "옆": 5520,
      "예": 5521,
      "오": 5522,
      "옥": 5523,
      "온": 5524,
      "와": 5525,
      "완": 5526,
      "요": 5527,
      "용": 5528,
      "욱": 5529,
      "운": 5530,
      "울": 5531,
      "웁": 5532,
      "웃": 5533,
      "웅": 5534,
      "워": 5535,
      "원": 5536,
      "웠": 5537,
      "위": 5538,
      "육": 5539,
      "윤": 5540,
      "으": 5541,
      "은": 5542,
      "을": 5543,
      "음": 5544,
      "의": 5545,
      "이": 5546,
      "인": 5547,
      "일": 5548,
      "있": 5549,
      "자": 5550,
      "작": 5551,
      "잔": 5552,
      "잘": 5553,
      "장": 5554,
      "전": 5555,
      "접": 5556,
      "정": 5557,
      "제": 5558,
      "조": 5559,
      "좀": 5560,
      "종": 5561,
      "죄": 5562,
      "죠": 5563,
      "주": 5564,
      "죽": 5565,
      "준": 5566,
      "줄": 5567,
      "지": 5568,
      "직": 5569,
      "진": 5570,
      "짜": 5571,
      "찌": 5572,
      "창": 5573,
      "채": 5574,
      "처": 5575,
      "청": 5576,
      "체": 5577,
      "최": 5578,
      "축": 5579,
      "출": 5580,
      "츠": 5581,
      "치": 5582,
      "친": 5583,
      "칠": 5584,
      "커": 5585,
      "컬": 5586,
      "크": 5587,
      "타": 5588,
      "택": 5589,
      "투": 5590,
      "트": 5591,
      "팀": 5592,
      "팬": 5593,
      "페": 5594,
      "펴": 5595,
      "평": 5596,
      "필": 5597,
      "하": 5598,
      "한": 5599,
      "할": 5600,
      "합": 5601,
      "해": 5602,
      "했": 5603,
      "형": 5604,
      "호": 5605,
      "혼": 5606,
      "홍": 5607,
      "화": 5608,
      "황": 5609,
      "회": 5610,
      "효": 5611,
      "훈": 5612,
      "희": 5613,
      "히": 5614,
      "﨑": 5615,
      "︎": 5616,
      "️": 5617,
      "﹃": 5618,
      "！": 5619,
      "＃": 5620,
      "＄": 5621,
      "％": 5622,
      "＆": 5623,
      "（": 5624,
      "）": 5625,
      "＊": 5626,
      "＋": 5627,
      "，": 5628,
      "－": 5629,
      "．": 5630,
      "／": 5631,
      "０": 5632,
      "１": 5633,
      "２": 5634,
      "３": 5635,
      "４": 5636,
      "５": 5637,
      "６": 5638,
      "７": 5639,
      "８": 5640,
      "９": 5641,
      "：": 5642,
      "；": 5643,
      "＜": 5644,
      "＝": 5645,
      "＞": 5646,
      "？": 5647,
      "＠": 5648,
      "Ａ": 5649,
      "Ｂ": 5650,
      "Ｃ": 5651,
      "Ｄ": 5652,
      "Ｅ": 5653,
      "Ｆ": 5654,
      "Ｇ": 5655,
      "Ｈ": 5656,
      "Ｉ": 5657,
      "Ｊ": 5658,
      "Ｋ": 5659,
      "Ｌ": 5660,
      "Ｍ": 5661,
      "Ｎ": 5662,
      "Ｏ": 5663,
      "Ｐ": 5664,
      "Ｑ": 5665,
      "Ｒ": 5666,
      "Ｓ": 5667,
      "Ｔ": 5668,
      "Ｕ": 5669,
      "Ｖ": 5670,
      "Ｗ": 5671,
      "Ｘ": 5672,
      "Ｙ": 5673,
      "Ｚ": 5674,
      "［": 5675,
      "＼": 5676,
      "］": 5677,
      "＾": 5678,
      "＿": 5679,
      "｀": 5680,
      "ａ": 5681,
      "ｂ": 5682,
      "ｃ": 5683,
      "ｄ": 5684,
      "ｅ": 5685,
      "ｆ": 5686,
      "ｇ": 5687,
      "ｈ": 5688,
      "ｉ": 5689,
      "ｊ": 5690,
      "ｋ": 5691,
      "ｌ": 5692,
      "ｍ": 5693,
      "ｎ": 5694,
      "ｏ": 5695,
      "ｐ": 5696,
      "ｑ": 5697,
      "ｒ": 5698,
      "ｓ": 5699,
      "ｔ": 5700,
      "ｕ": 5701,
      "ｖ": 5702,
      "ｗ": 5703,
      "ｘ": 5704,
      "ｙ": 5705,
      "ｚ": 5706,
      "｛": 5707,
      "｜": 5708,
      "｝": 5709,
      "～": 5710,
      "｡": 5711,
      "｢": 5712,
      "｣": 5713,
      "､": 5714,
      "･": 5715,
      "ｦ": 5716,
      "ｧ": 5717,
      "ｨ": 5718,
      "ｩ": 5719,
      "ｪ": 5720,
      "ｫ": 5721,
      "ｬ": 5722,
      "ｭ": 5723,
      "ｮ": 5724,
      "ｯ": 5725,
      "ｰ": 5726,
      "ｱ": 5727,
      "ｲ": 5728,
      "ｳ": 5729,
      "ｴ": 5730,
      "ｵ": 5731,
      "ｶ": 5732,
      "ｷ": 5733,
      "ｸ": 5734,
      "ｹ": 5735,
      "ｺ": 5736,
      "ｻ": 5737,
      "ｼ": 5738,
      "ｽ": 5739,
      "ｾ": 5740,
      "ｿ": 5741,
      "ﾀ": 5742,
      "ﾁ": 5743,
      "ﾂ": 5744,
      "ﾃ": 5745,
      "ﾄ": 5746,
      "ﾅ": 5747,
      "ﾆ": 5748,
      "ﾈ": 5749,
      "ﾉ": 5750,
      "ﾊ": 5751,
      "ﾋ": 5752,
      "ﾌ": 5753,
      "ﾍ": 5754,
      "ﾎ": 5755,
      "ﾏ": 5756,
      "ﾐ": 5757,
      "ﾑ": 5758,
      "ﾒ": 5759,
      "ﾓ": 5760,
      "ﾔ": 5761,
      "ﾖ": 5762,
      "ﾗ": 5763,
      "ﾘ": 5764,
      "ﾙ": 5765,
      "ﾚ": 5766,
      "ﾛ": 5767,
      "ﾜ": 5768,
      "ﾝ": 5769,
      "ﾞ": 5770,
      "ﾟ": 5771,
      "￡": 5772,
      "￢": 5773,
      "￣": 5774,
      "￥": 5775,
      "�": 5776,
      "🎵": 5777,
      "𩙿": 5778,
      "𩵋": 5779,
      "す。": 5780,
      "して": 5781,
      "って": 5782,
      "ます。": 5783,
      "した": 5784,
      "する": 5785,
      "こと": 5786,
      "は、": 5787,
      "った": 5788,
      "ない": 5789,
      "いる": 5790,
      "から": 5791,
      "- ": 5792,
      "です。": 5793,
      "され": 5794,
      "ある": 5795,
      "ので": 5796,
      "とい": 5797,
      "が、": 5798,
      "よう": 5799,
      "あり": 5800,
      "いた": 5801,
      "という": 5802,
      "にな": 5803,
      "した。": 5804,
      "でき": 5805,
      "います。": 5806,
      "その": 5807,
      "いて": 5808,
      "です": 5809,
      "ます": 5810,
      "この": 5811,
      "ット": 5812,
      "イン": 5813,
      "など": 5814,
      "ック": 5815,
      "ール": 5816,
      "し、": 5817,
      "では": 5818,
      "00": 5819,
      "ませ": 5820,
      "スト": 5821,
      "ません": 5822,
      "には": 5823,
      "られ": 5824,
      "しま": 5825,
      "でも": 5826,
      "によ": 5827,
      "で、": 5828,
      "ことが": 5829,
      "ート": 5830,
      "として": 5831,
      "り、": 5832,
      "イト": 5833,
      "ため": 5834,
      "ている": 5835,
      "もの": 5836,
      "それ": 5837,
      "しい": 5838,
      "ター": 5839,
      "ょう": 5840,
      "だけ": 5841,
      "ード": 5842,
      "しょう": 5843,
      "と思": 5844,
      "場合": 5845,
      "に、": 5846,
      "なく": 5847,
      "er": 5848,
      "ショ": 5849,
      "e ": 5850,
      "ング": 5851,
      "ました。": 5852,
      "また": 5853,
      "リー": 5854,
      "これ": 5855,
      "ント": 5856,
      "れば": 5857,
      "ので、": 5858,
      "さい": 5859,
      "る。": 5860,
      "している": 5861,
      "と、": 5862,
      "in": 5863,
      "サイト": 5864,
      "である": 5865,
      "さん": 5866,
      "ラン": 5867,
      "ージ": 5868,
      "20": 5869,
      "・・": 5870,
      "ーム": 5871,
      "っている": 5872,
      "まで": 5873,
      "します。": 5874,
      "ップ": 5875,
      "ティ": 5876,
      "ません。": 5877,
      "れる": 5878,
      "on": 5879,
      "利用": 5880,
      "ション": 5881,
      "とな": 5882,
      "サー": 5883,
      "された": 5884,
      "できる": 5885,
      "える": 5886,
      "そう": 5887,
      "ース": 5888,
      "くだ": 5889,
      "にも": 5890,
      "しか": 5891,
      "あります。": 5892,
      "an": 5893,
      "につ": 5894,
      "ような": 5895,
      "ください": 5896,
      "）\n": 5897,
      "ります。": 5898,
      "んな": 5899,
      "自分": 5900,
      "的な": 5901,
      "ディ": 5902,
      "s ": 5903,
      "えて": 5904,
      "コン": 5905,
      "かった": 5906,
      "or": 5907,
      "情報": 5908,
      "日本": 5909,
      "れて": 5910,
      "ね。": 5911,
      "がある": 5912,
      "なら": 5913,
      "19": 5914,
      "必要": 5915,
      "でしょう": 5916,
      "ライ": 5917,
      ", ": 5918,
      "より": 5919,
      "10": 5920,
      "||": 5921,
      "！\n": 5922,
      "かな": 5923,
      "ように": 5924,
      "ける": 5925,
      "ファ": 5926,
      "時間": 5927,
      "について": 5928,
      "も、": 5929,
      "編集": 5930,
      "ください。": 5931,
      "たい": 5932,
      "可能": 5933,
      "200": 5934,
      "なん": 5935,
      "ュー": 5936,
      "される": 5937,
      "にお": 5938,
      "されて": 5939,
      "プロ": 5940,
      "れた": 5941,
      "]\n": 5942,
      "出会": 5943,
      "には、": 5944,
      "では、": 5945,
      "いい": 5946,
      "によって": 5947,
      "んで": 5948,
      "en": 5949,
      "すること": 5950,
      "at": 5951,
      "います": 5952,
      "ステ": 5953,
      "った。": 5954,
      "ar": 5955,
      "|\n": 5956,
      "」と": 5957,
      "させ": 5958,
      "になる": 5959,
      "しく": 5960,
      "201": 5961,
      "を使": 5962,
      "スタ": 5963,
      "[編集": 5964,
      "めて": 5965,
      "して、": 5966,
      "ビス": 5967,
      "イル": 5968,
      "っと": 5969,
      "キャ": 5970,
      "を見": 5971,
      "的に": 5972,
      "どう": 5973,
      "バー": 5974,
      "のは": 5975,
      "のです。": 5976,
      "から、": 5977,
      "フォ": 5978,
      "テル": 5979,
      "サービス": 5980,
      "の中": 5981,
      "es": 5982,
      " (": 5983,
      "[編集]\n": 5984,
      "多く": 5985,
      "取り": 5986,
      "のか": 5987,
      "ンド": 5988,
      "リア": 5989,
      "けて": 5990,
      "出会い": 5991,
      "ころ": 5992,
      "t ": 5993,
      "ーク": 5994,
      "かり": 5995,
      "ことを": 5996,
      "..": 5997,
      "とは": 5998,
      "女性": 5999,
      "ホテル": 6000,
      "での": 6001,
      " - ": 6002,
      "al": 6003,
      "のです": 6004,
      "？\n": 6005,
      "ました": 6006,
      "d ": 6007,
      "ーン": 6008,
      "フィ": 6009,
      "出来": 6010,
      "また、": 6011,
      "になって": 6012,
      "ic": 6013,
      "もし": 6014,
      "されている": 6015,
      "あり、": 6016,
      "と言": 6017,
      "できます。": 6018,
      "との": 6019,
      "ネット": 6020,
      "のが": 6021,
      "なが": 6022,
      "に対": 6023,
      "いく": 6024,
      "チャ": 6025,
      "多い": 6026,
      "のお": 6027,
      "があります。": 6028,
      "しています。": 6029,
      "大き": 6030,
      "たち": 6031,
      "なる": 6032,
      "om": 6033,
      "プレ": 6034,
      "ない。": 6035,
      "んだ": 6036,
      "リン": 6037,
      "会社": 6038,
      "人の": 6039,
      "感じ": 6040,
      ". ": 6041,
      "ところ": 6042,
      "方法": 6043,
      "める": 6044,
      "とき": 6045,
      "ても": 6046,
      "と思います。": 6047,
      "ータ": 6048,
      "である。": 6049,
      "ですが、": 6050,
      "とも": 6051,
      "およ": 6052,
      "への": 6053,
      "良い": 6054,
      "ンス": 6055,
      "による": 6056,
      "しまう": 6057,
      "el": 6058,
      "だった": 6059,
      "メール": 6060,
      "を持": 6061,
      "it": 6062,
      "ちゃ": 6063,
      "ながら": 6064,
      "および": 6065,
      ": ": 6066,
      "であ": 6067,
      "に関": 6068,
      ")\n": 6069,
      "カー": 6070,
      "られる": 6071,
      "世界": 6072,
      "れば、": 6073,
      "シャ": 6074,
      "クラ": 6075,
      "・・・": 6076,
      "なかった": 6077,
      "さら": 6078,
      "無料": 6079,
      "を行": 6080,
      "する。": 6081,
      "st": 6082,
      "--": 6083,
      "ックス": 6084,
      "でしょう。": 6085,
      "わせ": 6086,
      "タイ": 6087,
      "て、": 6088,
      "に入": 6089,
      "」\n": 6090,
      "同じ": 6091,
      "使用": 6092,
      "ro": 6093,
      "って、": 6094,
      "12": 6095,
      "してお": 6096,
      "などの": 6097,
      "することが": 6098,
      "えば": 6099,
      "ため、": 6100,
      "をご": 6101,
      "ーション": 6102,
      "問題": 6103,
      "y ": 6104,
      "の方": 6105,
      "考え": 6106,
      "ろう": 6107,
      "の人": 6108,
      "らい": 6109,
      "ザー": 6110,
      "しました。": 6111,
      "アル": 6112,
      "機能": 6113,
      "とか": 6114,
      "楽し": 6115,
      "べて": 6116,
      "11": 6117,
      "カード": 6118,
      "まり": 6119,
      "スク": 6120,
      "ロー": 6121,
      "た。": 6122,
      "a ": 6123,
      "ことも": 6124,
      "ために": 6125,
      "バイ": 6126,
      ") ": 6127,
      "ちら": 6128,
      "プリ": 6129,
      "以上": 6130,
      "なく、": 6131,
      "ou": 6132,
      "いない": 6133,
      "ブル": 6134,
      "をお": 6135,
      "こう": 6136,
      "ジャ": 6137,
      "フェ": 6138,
      "」の": 6139,
      "っています。": 6140,
      "ほど": 6141,
      "ページ": 6142,
      "ありません。": 6143,
      "ッド": 6144,
      "やす": 6145,
      "チェ": 6146,
      "ラー": 6147,
      "ナー": 6148,
      "ープ": 6149,
      "ことは": 6150,
      "ウェ": 6151,
      ".\n": 6152,
      "あります": 6153,
      "よく": 6154,
      "受け": 6155,
      "ion": 6156,
      "もしれ": 6157,
      "商品": 6158,
      "パー": 6159,
      "クリ": 6160,
      "相手": 6161,
      "しょう。": 6162,
      "していた": 6163,
      "th": 6164,
      "18": 6165,
      "ベル": 6166,
      "ンの": 6167,
      "りの": 6168,
      "そして": 6169,
      "ht": 6170,
      "re": 6171,
      "ac": 6172,
      "関係": 6173,
      "表示": 6174,
      "われ": 6175,
      "合わせ": 6176,
      "でした。": 6177,
      "メリ": 6178,
      "いました。": 6179,
      "ここ": 6180,
      "そんな": 6181,
      "があ": 6182,
      "ウン": 6183,
      "か。": 6184,
      "くな": 6185,
      "ゲーム": 6186,
      "なた": 6187,
      "アン": 6188,
      "」を": 6189,
      "人が": 6190,
      "男性": 6191,
      "le": 6192,
      "仕事": 6193,
      "の一": 6194,
      "に行": 6195,
      "クト": 6196,
      "現在": 6197,
      "グラ": 6198,
      "ただ": 6199,
      "持ち": 6200,
      "自分の": 6201,
      "つの": 6202,
      "だ。": 6203,
      "アク": 6204,
      "他の": 6205,
      "そこ": 6206,
      "ッチ": 6207,
      "になり": 6208,
      "シュ": 6209,
      "い、": 6210,
      "いただけ": 6211,
      "レス": 6212,
      "のですが、": 6213,
      "か、": 6214,
      "上げ": 6215,
      "高い": 6216,
      "レン": 6217,
      "きます。": 6218,
      "am": 6219,
      "レー": 6220,
      "いう": 6221,
      "設定": 6222,
      "ジェ": 6223,
      "フト": 6224,
      " S": 6225,
      "データ": 6226,
      "oo": 6227,
      "アイ": 6228,
      "15": 6229,
      "きた": 6230,
      "効果": 6231,
      "の場合": 6232,
      "アド": 6233,
      "にある": 6234,
      "確認": 6235,
      "っても": 6236,
      "または": 6237,
      "出会い系": 6238,
      "30": 6239,
      "アップ": 6240,
      "ず、": 6241,
      "システ": 6242,
      "しかし、": 6243,
      "登録": 6244,
      "さらに": 6245,
      "常に": 6246,
      "しても": 6247,
      "したい": 6248,
      "システム": 6249,
      "ing": 6250,
      "紹介": 6251,
      "提供": 6252,
      "あなた": 6253,
      "かもしれ": 6254,
      "ダイ": 6255,
      "シー": 6256,
      "わけ": 6257,
      "ための": 6258,
      "いろ": 6259,
      "のような": 6260,
      "たり": 6261,
      "いつ": 6262,
      "ですよ": 6263,
      "メント": 6264,
      "場所": 6265,
      "者の": 6266,
      "のでは": 6267,
      "ちょ": 6268,
      "けど": 6269,
      "サイ": 6270,
      "してみ": 6271,
      "っていた": 6272,
      " の": 6273,
      "好き": 6274,
      "時に": 6275,
      "しない": 6276,
      "のは、": 6277,
      "もう": 6278,
      "内容": 6279,
      "は「": 6280,
      "られた": 6281,
      "」という": 6282,
      "実際": 6283,
      "ければ": 6284,
      "of": 6285,
      "存在": 6286,
      "ow": 6287,
      "状態": 6288,
      "購入": 6289,
      "じゃ": 6290,
      "イント": 6291,
      "らない": 6292,
      "スの": 6293,
      "ら、": 6294,
      "をする": 6295,
      "マン": 6296,
      "を作": 6297,
      "生活": 6298,
      "il": 6299,
      ".c": 6300,
      "ユー": 6301,
      "により": 6302,
      "とても": 6303,
      "ランド": 6304,
      "からの": 6305,
      "ることが": 6306,
      "インター": 6307,
      "ござ": 6308,
      "ると": 6309,
      "ダー": 6310,
      "らの": 6311,
      "開発": 6312,
      "でも、": 6313,
      "ch": 6314,
      "結果": 6315,
      "を利用": 6316,
      "ポイント": 6317,
      "ということ": 6318,
      "します": 6319,
      "簡単": 6320,
      "いただ": 6321,
      "において": 6322,
      "電話": 6323,
      "か？\n": 6324,
      "のも": 6325,
      "こちら": 6326,
      "/ ": 6327,
      "になります。": 6328,
      "ログ": 6329,
      "et": 6330,
      "er ": 6331,
      "ブラ": 6332,
      "出会い系サイト": 6333,
      "研究": 6334,
      "写真": 6335,
      "ri": 6336,
      "たく": 6337,
      "少し": 6338,
      "コミ": 6339,
      "く、": 6340,
      "になった": 6341,
      "くる": 6342,
      "アー": 6343,
      "これは": 6344,
      "ある。": 6345,
      "られて": 6346,
      " C": 6347,
      "）の": 6348,
      "され、": 6349,
      "りに": 6350,
      "まだ": 6351,
      "予約": 6352,
      "as": 6353,
      "最近": 6354,
      "おり、": 6355,
      "セン": 6356,
      "込み": 6357,
      "）。": 6358,
      "んど": 6359,
      "部分": 6360,
      "すべて": 6361,
      "ww": 6362,
      "大学": 6363,
      "前に": 6364,
      "や、": 6365,
      "ですね。": 6366,
      "一般": 6367,
      "ている。": 6368,
      "意味": 6369,
      "フレ": 6370,
      "ed": 6371,
      "食べ": 6372,
      "o ": 6373,
      "レビ": 6374,
      "すぐ": 6375,
      "が必要": 6376,
      "以下": 6377,
      "まず": 6378,
      "かに": 6379,
      "キー": 6380,
      "クロ": 6381,
      "ポート": 6382,
      "私は": 6383,
      "事が": 6384,
      "ルの": 6385,
      "管理": 6386,
      "チェック": 6387,
      "客様": 6388,
      "16": 6389,
      "引き": 6390,
      "年の": 6391,
      "000": 6392,
      "している。": 6393,
      "コー": 6394,
      "年に": 6395,
      "か？": 6396,
      "を選": 6397,
      "エン": 6398,
      "トリ": 6399,
      "を、": 6400,
      "まま": 6401,
      "付け": 6402,
      "オー": 6403,
      "ソフト": 6404,
      "料金": 6405,
      "リンク": 6406,
      "者が": 6407,
      "技術": 6408,
      "14": 6409,
      "セス": 6410,
      "企業": 6411,
      "にと": 6412,
      "変更": 6413,
      "環境": 6414,
      "時代": 6415,
      "ロン": 6416,
      "など、": 6417,
      "is": 6418,
      "だけで": 6419,
      "最初": 6420,
      "オン": 6421,
      "ファイル": 6422,
      "すると": 6423,
      "だろう": 6424,
      "日の": 6425,
      "方が": 6426,
      "ること": 6427,
      "デザ": 6428,
      "本当": 6429,
      " / ": 6430,
      "17": 6431,
      "の「": 6432,
      "人は": 6433,
      "を探": 6434,
      "のみ": 6435,
      "なければ": 6436,
      "アメリ": 6437,
      "人気": 6438,
      "アメリカ": 6439,
      "ol": 6440,
      "なり": 6441,
      "脱毛": 6442,
      "々な": 6443,
      "後、": 6444,
      "インターネット": 6445,
      "結婚": 6446,
      "メン": 6447,
      " A": 6448,
      "思い": 6449,
      "ちゃん": 6450,
      "記事": 6451,
      "アプリ": 6452,
      "新しい": 6453,
      "特に": 6454,
      "を使用": 6455,
      "検索": 6456,
      "重要": 6457,
      "ではない": 6458,
      "つけ": 6459,
      "と思う": 6460,
      "対応": 6461,
      "えた": 6462,
      "後の": 6463,
      "ルト": 6464,
      "個人": 6465,
      "）、": 6466,
      "っぱ": 6467,
      "作品": 6468,
      "かか": 6469,
      "下さい": 6470,
      "くれる": 6471,
      "くらい": 6472,
      "50": 6473,
      "月2": 6474,
      "みたい": 6475,
      "1 ": 6476,
      "回答": 6477,
      "のある": 6478,
      "東京": 6479,
      "ウィ": 6480,
      "に関する": 6481,
      "力を": 6482,
      "ニー": 6483,
      "非常に": 6484,
      ".com": 6485,
      "起こ": 6486,
      "マイ": 6487,
      "以外": 6488,
      " M": 6489,
      "- ^": 6490,
      "基本": 6491,
      "eb": 6492,
      "自動": 6493,
      "多くの": 6494,
      "もち": 6495,
      "ンプ": 6496,
      "らしい": 6497,
      "であり、": 6498,
      "参加": 6499,
      "旅行": 6500,
      "大きな": 6501,
      "変わ": 6502,
      "販売": 6503,
      "ちょっと": 6504,
      "いただけます。": 6505,
      "ot": 6506,
      "できない": 6507,
      "映画": 6508,
      "やすい": 6509,
      " P": 6510,
      "価格": 6511,
      "といった": 6512,
      "キング": 6513,
      "登場": 6514,
      "製品": 6515,
      "プラ": 6516,
      "が出": 6517,
      "われる": 6518,
      "き、": 6519,
      "かの": 6520,
      "かけ": 6521,
      "ニュー": 6522,
      "女の": 6523,
      "ビジ": 6524,
      "//": 6525,
      "今回": 6526,
      "として、": 6527,
      "スペ": 6528,
      "13": 6529,
      "をして": 6530,
      "追加": 6531,
      "種類": 6532,
      "ン・": 6533,
      "べき": 6534,
      "ネル": 6535,
      "安心": 6536,
      "めた": 6537,
      "注意": 6538,
      "関連": 6539,
      "っている。": 6540,
      "ad": 6541,
      "かなり": 6542,
      "えば、": 6543,
      "ライン": 6544,
      "きました。": 6545,
      "程度": 6546,
      "ましょう。": 6547,
      "を受け": 6548,
      "tp": 6549,
      "とした": 6550,
      "上が": 6551,
      "トラ": 6552,
      "ーマ": 6553,
      "しかし": 6554,
      "ロード": 6555,
      "子供": 6556,
      "たくさん": 6557,
      "されます。": 6558,
      "イベ": 6559,
      "場合、": 6560,
      "- ^ ": 6561,
      "後に": 6562,
      "説明": 6563,
      "により、": 6564,
      "ind": 6565,
      "リング": 6566,
      "掲載": 6567,
      "可能性": 6568,
      "させて": 6569,
      "ろん": 6570,
      "いて、": 6571,
      "となる": 6572,
      "ッシュ": 6573,
      "テン": 6574,
      "とう": 6575,
      "://": 6576,
      "3年": 6577,
      "音楽": 6578,
      "ケット": 6579,
      "http": 6580,
      "ひと": 6581,
      "なので、": 6582,
      "なお": 6583,
      "なので": 6584,
      "ほと": 6585,
      "のように": 6586,
      "われて": 6587,
      "イベント": 6588,
      "もちろん": 6589,
      "あまり": 6590,
      "だから": 6591,
      "プレイ": 6592,
      "とする": 6593,
      "タイプ": 6594,
      "人間": 6595,
      "出来る": 6596,
      "状況": 6597,
      "op": 6598,
      "使い": 6599,
      "違い": 6600,
      "社会": 6601,
      "デザイン": 6602,
      "まれ": 6603,
      "2年": 6604,
      "いますが、": 6605,
      "ag": 6606,
      "目的": 6607,
      "してください。": 6608,
      "してい": 6609,
      "ピー": 6610,
      "アクセス": 6611,
      "ダウン": 6612,
      "部屋": 6613,
      "ほとんど": 6614,
      "それは": 6615,
      "----": 6616,
      "っかり": 6617,
      "入れ": 6618,
      "などを": 6619,
      "００": 6620,
      "がない": 6621,
      "全て": 6622,
      "気持ち": 6623,
      "-\n": 6624,
      "質問": 6625,
      "ーツ": 6626,
      "http://": 6627,
      "ur": 6628,
      "くれ": 6629,
      "グル": 6630,
      "ってしま": 6631,
      "...\n": 6632,
      "付き": 6633,
      "タン": 6634,
      "ir": 6635,
      "活動": 6636,
      "されています。": 6637,
      " m": 6638,
      "さま": 6639,
      "料理": 6640,
      "書き": 6641,
      "スポ": 6642,
      "ネス": 6643,
      "願い": 6644,
      "のに": 6645,
      "ますが、": 6646,
      "4年": 6647,
      "メージ": 6648,
      "地域": 6649,
      " 2": 6650,
      "いた。": 6651,
      "え、": 6652,
      "をも": 6653,
      "ケーション": 6654,
      "ありません": 6655,
      "国の": 6656,
      "em": 6657,
      "パン": 6658,
      "ユーザー": 6659,
      "数の": 6660,
      "組み": 6661,
      "199": 6662,
      "保険": 6663,
      "考えて": 6664,
      "ものです。": 6665,
      "km": 6666,
      "」「": 6667,
      "ジュ": 6668,
      "ナル": 6669,
      "ap": 6670,
      " T": 6671,
      "時の": 6672,
      "ec": 6673,
      "ex": 6674,
      "レイ": 6675,
      "なら、": 6676,
      "でした": 6677,
      "よりも": 6678,
      "くり": 6679,
      "発生": 6680,
      "なんて": 6681,
      "スター": 6682,
      "しよう": 6683,
      "された。": 6684,
      "マー": 6685,
      "にあ": 6686,
      "うち": 6687,
      "だと": 6688,
      "シア": 6689,
      "いった": 6690,
      "前の": 6691,
      "セル": 6692,
      "詳細": 6693,
      "施設": 6694,
      "一番": 6695,
      "なくな": 6696,
      "を取り": 6697,
      "ニア": 6698,
      "経験": 6699,
      "がある。": 6700,
      "こんな": 6701,
      "画像": 6702,
      "お客様": 6703,
      "ティング": 6704,
      "パート": 6705,
      "いている": 6706,
      "中の": 6707,
      "日、": 6708,
      "ホーム": 6709,
      "理由": 6710,
      " R": 6711,
      "スマ": 6712,
      "様々な": 6713,
      "期間": 6714,
      "にて": 6715,
      "デル": 6716,
      "ティー": 6717,
      "1年": 6718,
      "ビー": 6719,
      "ラク": 6720,
      "気が": 6721,
      "】\n": 6722,
      "影響": 6723,
      "ig": 6724,
      "やって": 6725,
      "In": 6726,
      "カル": 6727,
      "ワー": 6728,
      "ter": 6729,
      "呼ば": 6730,
      "はい": 6731,
      "を行う": 6732,
      "学校": 6733,
      "させる": 6734,
      "人も": 6735,
      "動画": 6736,
      "ベスト": 6737,
      "言葉": 6738,
      "上の": 6739,
      "向け": 6740,
      "ation": 6741,
      "に出": 6742,
      "便利": 6743,
      "における": 6744,
      "用の": 6745,
      "やり": 6746,
      "ジョ": 6747,
      "もある": 6748,
      "体の": 6749,
      "ワーク": 6750,
      "すぎ": 6751,
      "は ": 6752,
      "クレ": 6753,
      "よい": 6754,
      "av": 6755,
      "us": 6756,
      "ようです。": 6757,
      "本当に": 6758,
      "ぞれ": 6759,
      "キャン": 6760,
      "日に": 6761,
      "）を": 6762,
      "情報を": 6763,
      "専門": 6764,
      "でお": 6765,
      "それぞれ": 6766,
      "os": 6767,
      "ほう": 6768,
      "評価": 6769,
      "のではない": 6770,
      "un": 6771,
      "んでいる": 6772,
      "id": 6773,
      "ったり": 6774,
      "せる": 6775,
      "参考": 6776,
      "/0": 6777,
      "ランス": 6778,
      "に対して": 6779,
      "業者": 6780,
      "いを": 6781,
      "間に": 6782,
      "the ": 6783,
      "クリック": 6784,
      "ed ": 6785,
      "が多い": 6786,
      "下さい。": 6787,
      "にとって": 6788,
      "よ。": 6789,
      " D": 6790,
      "タル": 6791,
      "英語": 6792,
      "通常": 6793,
      "普通": 6794,
      "自身": 6795,
      "私の": 6796,
      "リスト": 6797,
      "までの": 6798,
      "たら": 6799,
      "]。": 6800,
      "indow": 6801,
      "どんな": 6802,
      "会員": 6803,
      "にして": 6804,
      "比較": 6805,
      "金を": 6806,
      "最も": 6807,
      "はず": 6808,
      "ハイ": 6809,
      "一度": 6810,
      "原因": 6811,
      "ニング": 6812,
      "完全": 6813,
      "それを": 6814,
      "アドバイ": 6815,
      "め、": 6816,
      "を含": 6817,
      "ーター": 6818,
      "条件": 6819,
      "支払": 6820,
      "どこ": 6821,
      "楽しみ": 6822,
      "処理": 6823,
      "でしょうか。": 6824,
      "万円": 6825,
      "場合は、": 6826,
      "24": 6827,
      "そして、": 6828,
      "申し": 6829,
      "大切": 6830,
      "Window": 6831,
      "とに": 6832,
      "だが、": 6833,
      "もので": 6834,
      "チーム": 6835,
      "すると、": 6836,
      "自然": 6837,
      "される。": 6838,
      "を受": 6839,
      "安全": 6840,
      "最大": 6841,
      "テレビ": 6842,
      "最高": 6843,
      "」が": 6844,
      "初めて": 6845,
      "センター": 6846,
      "キュ": 6847,
      "ドラ": 6848,
      "ニュ": 6849,
      "位置": 6850,
      "特徴": 6851,
      "ールド": 6852,
      "いに": 6853,
      "一緒": 6854,
      "相談": 6855,
      "25": 6856,
      "イメージ": 6857,
      "ってい": 6858,
      "と言う": 6859,
      "用意": 6860,
      "100": 6861,
      "ヴァ": 6862,
      "対象": 6863,
      "目の": 6864,
      "サン": 6865,
      "治療": 6866,
      "ってお": 6867,
      "されている。": 6868,
      "サイズ": 6869,
      "ッグ": 6870,
      "バス": 6871,
      "が見": 6872,
      "立ち": 6873,
      "これらの": 6874,
      "いの": 6875,
      "定の": 6876,
      "シェ": 6877,
      "） ": 6878,
      "まる": 6879,
      "リーズ": 6880,
      "名前": 6881,
      "ように、": 6882,
      "ありが": 6883,
      "に対する": 6884,
      "更新": 6885,
      "セックス": 6886,
      "パソ": 6887,
      "モン": 6888,
      "ライブ": 6889,
      "ましたが、": 6890,
      "内の": 6891,
      "ご利用": 6892,
      "ですが": 6893,
      "を実": 6894,
      "シン": 6895,
      "けど、": 6896,
      "事を": 6897,
      "Th": 6898,
      "パソコン": 6899,
      "出す": 6900,
      "！！": 6901,
      "彼女": 6902,
      "計画": 6903,
      "調査": 6904,
      "無い": 6905,
      "ルーム": 6906,
      "投稿": 6907,
      "があり、": 6908,
      "の上": 6909,
      "きて": 6910,
      "作業": 6911,
      "物の": 6912,
      "プログラ": 6913,
      "公開": 6914,
      "じゃない": 6915,
      "と同じ": 6916,
      "家族": 6917,
      "歴史": 6918,
      "ent": 6919,
      "にする": 6920,
      "アニ": 6921,
      "えない": 6922,
      "をつ": 6923,
      "終わ": 6924,
      "さんの": 6925,
      "言う": 6926,
      "もあります。": 6927,
      "を持つ": 6928,
      "掲示": 6929,
      "40": 6930,
      "ヤー": 6931,
      "um": 6932,
      "健康": 6933,
      "ギー": 6934,
      "やは": 6935,
      "それが": 6936,
      "すれば": 6937,
      "イド": 6938,
      "ヴィ": 6939,
      "切り": 6940,
      "レベル": 6941,
      "and ": 6942,
      "まった": 6943,
      "消費": 6944,
      "：\n": 6945,
      "自由": 6946,
      "トップ": 6947,
      "連絡": 6948,
      "ビジネス": 6949,
      "ub": 6950,
      "すす": 6951,
      "はじ": 6952,
      "いたします。": 6953,
      "できる。": 6954,
      "インスト": 6955,
      "を開": 6956,
      "サポート": 6957,
      "バル": 6958,
      "体験": 6959,
      "を取": 6960,
      "私たち": 6961,
      "1.": 6962,
      "選択": 6963,
      "アウ": 6964,
      "ヘル": 6965,
      "発売": 6966,
      "入力": 6967,
      "大変": 6968,
      " B": 6969,
      "IS": 6970,
      "ケース": 6971,
      "画面": 6972,
      "ずに": 6973,
      "ると、": 6974,
      "十分": 6975,
      "iv": 6976,
      "od": 6977,
      "なし": 6978,
      "シング": 6979,
      "簡単に": 6980,
      "なくて": 6981,
      "いは": 6982,
      "事業": 6983,
      "交換": 6984,
      "ディア": 6985,
      "しゃ": 6986,
      "ew": 6987,
      "掲示板": 6988,
      "すべての": 6989,
      "かく": 6990,
      "人に": 6991,
      "しましょう。": 6992,
      "ゆる": 6993,
      "を得": 6994,
      "次の": 6995,
      "セット": 6996,
      "しっかり": 6997,
      "を通": 6998,
      "われた": 6999,
      "le ": 7000,
      "リス": 7001,
      "かる": 7002,
      "らせ": 7003,
      "ウス": 7004,
      "接続": 7005,
      "すすめ": 7006,
      ":\n": 7007,
      "続き": 7008,
      "文字": 7009,
      "部の": 7010,
      "希望": 7011,
      "プション": 7012,
      "ロック": 7013,
      "々の": 7014,
      "かつ": 7015,
      "ことに": 7016,
      "作成": 7017,
      "of ": 7018,
      "攻撃": 7019,
      "をご利用": 7020,
      "必ず": 7021,
      "好きな": 7022,
      "3 ": 7023,
      "OS": 7024,
      "えます。": 7025,
      "理解": 7026,
      "考える": 7027,
      "トル": 7028,
      "イス": 7029,
      "80": 7030,
      "きたい": 7031,
      "風俗": 7032,
      "すぐに": 7033,
      "im": 7034,
      "ニック": 7035,
      "何か": 7036,
      "有名": 7037,
      "ものを": 7038,
      "実際に": 7039,
      "ジン": 7040,
      "学生": 7041,
      "2010": 7042,
      "> ": 7043,
      "ばかり": 7044,
      "ウォ": 7045,
      "ッフ": 7046,
      "海外": 7047,
      "強い": 7048,
      "2 ": 7049,
      "……": 7050,
      "ながら、": 7051,
      "そうです。": 7052,
      "だけど": 7053,
      "ために、": 7054,
      "けない": 7055,
      "まと": 7056,
      "ワード": 7057,
      "ダウンロード": 7058,
      "i\n": 7059,
      "があります": 7060,
      "に「": 7061,
      "変化": 7062,
      "注文": 7063,
      "最適": 7064,
      "レスト": 7065,
      "いろいろ": 7066,
      "ガー": 7067,
      "営業": 7068,
      "ジット": 7069,
      "ドル": 7070,
      "移動": 7071,
      "かもしれません。": 7072,
      "バック": 7073,
      "8年": 7074,
      "ります": 7075,
      "範囲": 7076,
      "すご": 7077,
      "契約": 7078,
      "機関": 7079,
      "落ち": 7080,
      "モデル": 7081,
      "ーカー": 7082,
      "ut": 7083,
      "が\n": 7084,
      "ブログ": 7085,
      "ってしまう": 7086,
      "ーズ": 7087,
      "中心": 7088,
      "PC": 7089,
      "あら": 7090,
      "んです。": 7091,
      "番号": 7092,
      "となります。": 7093,
      "テク": 7094,
      "やはり": 7095,
      "あげ": 7096,
      "問い": 7097,
      "国際": 7098,
      "o.": 7099,
      "ではなく、": 7100,
      "食事": 7101,
      "日\n": 7102,
      "ありがとう": 7103,
      "US": 7104,
      "借り": 7105,
      "のための": 7106,
      "買い": 7107,
      "以下の": 7108,
      "60": 7109,
      "予定": 7110,
      "最新": 7111,
      "じて": 7112,
      "もっと": 7113,
      "からない": 7114,
      "www": 7115,
      "指定": 7116,
      "間の": 7117,
      "発表": 7118,
      "ソン": 7119,
      "ウェア": 7120,
      "を探す": 7121,
      "日本の": 7122,
      "可能な": 7123,
      "を与": 7124,
      "ませんが、": 7125,
      "スタッフ": 7126,
      "中に": 7127,
      "大きく": 7128,
      "グループ": 7129,
      "プログラム": 7130,
      "」に": 7131,
      "ベース": 7132,
      "違う": 7133,
      "いで": 7134,
      "フリー": 7135,
      "などが": 7136,
      "の、": 7137,
      " H": 7138,
      "カメ": 7139,
      "携帯": 7140,
      "オプション": 7141,
      "ですよね。": 7142,
      "だった。": 7143,
      "メイン": 7144,
      "保護": 7145,
      "インストール": 7146,
      "9年": 7147,
      "まれて": 7148,
      "しました": 7149,
      "のこと": 7150,
      "5年": 7151,
      "れない": 7152,
      "必要な": 7153,
      "km / ": 7154,
      "ガン": 7155,
      "ook": 7156,
      "直接": 7157,
      "」、": 7158,
      "アニメ": 7159,
      "撮影": 7160,
      "かなか": 7161,
      "提携": 7162,
      "ならない": 7163,
      "場合は": 7164,
      "小さ": 7165,
      "スタイル": 7166,
      "pp": 7167,
      "こそ": 7168,
      "シリーズ": 7169,
      "決定": 7170,
      "しまった": 7171,
      "エット": 7172,
      "及び": 7173,
      "ul": 7174,
      "es ": 7175,
      "バン": 7176,
      "教えて": 7177,
      "があった": 7178,
      "VD": 7179,
      "2.": 7180,
      "lo": 7181,
      "ay": 7182,
      "放送": 7183,
      "期待": 7184,
      "物を": 7185,
      "ジェクト": 7186,
      "のでしょう": 7187,
      "を使って": 7188,
      "アウト": 7189,
      "ございます。": 7190,
      "AN": 7191,
      "ファン": 7192,
      "）に": 7193,
      "ものが": 7194,
      "なのか": 7195,
      "ブリ": 7196,
      "時期": 7197,
      "・・・\n": 7198,
      "コード": 7199,
      "プライ": 7200,
      "ローン": 7201,
      "かない": 7202,
      "っくり": 7203,
      "女の子": 7204,
      "を読": 7205,
      "かも": 7206,
      "と同": 7207,
      "のご": 7208,
      "iP": 7209,
      "）が": 7210,
      "マル": 7211,
      "今日": 7212,
      "全く": 7213,
      " F": 7214,
      "構成": 7215,
      "かけて": 7216,
      "わない": 7217,
      "を出": 7218,
      "をした": 7219,
      "代表": 7220,
      "可能です。": 7221,
      "のために": 7222,
      "一方": 7223,
      "費用": 7224,
      "通り": 7225,
      "for": 7226,
      "エル": 7227,
      "毎日": 7228,
      "者は": 7229,
      "年代": 7230,
      "レストラン": 7231,
      "られます。": 7232,
      "事件": 7233,
      "成功": 7234,
      "ですから、": 7235,
      "宿泊": 7236,
      "7年": 7237,
      "試験": 7238,
      "参照": 7239,
      " E": 7240,
      "採用": 7241,
      "情報\n": 7242,
      "ッション": 7243,
      "りました。": 7244,
      "行為": 7245,
      "このような": 7246,
      "ID": 7247,
      "設計": 7248,
      "距離": 7249,
      "かれ": 7250,
      "運動": 7251,
      "銀行": 7252,
      "erv": 7253,
      "ビュー": 7254,
      "なのです。": 7255,
      "フル": 7256,
      "リティ": 7257,
      "ab": 7258,
      "とは、": 7259,
      "フラ": 7260,
      "ak": 7261,
      "性の": 7262,
      "なかなか": 7263,
      "友達": 7264,
      "性を": 7265,
      "ってる": 7266,
      "くなる": 7267,
      "とお": 7268,
      "スメ": 7269,
      "内に": 7270,
      "によって、": 7271,
      "3.": 7272,
      "経済": 7273,
      "的には": 7274,
      "ことができます。": 7275,
      "一人": 7276,
      "なぜ": 7277,
      "対策": 7278,
      "メリット": 7279,
      "になっている": 7280,
      "-0": 7281,
      "い。": 7282,
      "イツ": 7283,
      "コメント": 7284,
      "恋愛": 7285,
      "はその": 7286,
      "行動": 7287,
      "ウンド": 7288,
      "ツール": 7289,
      "時、": 7290,
      "であった": 7291,
      "体を": 7292,
      "客室": 7293,
      "なの": 7294,
      "一緒に": 7295,
      "St": 7296,
      "活用": 7297,
      "等の": 7298,
      "アドバイザー": 7299,
      "パス": 7300,
      "よね。": 7301,
      "少ない": 7302,
      "res": 7303,
      "どの": 7304,
      "パイ": 7305,
      "以上の": 7306,
      "の中で": 7307,
      "を提供": 7308,
      "になる。": 7309,
      "担当": 7310,
      "る\n": 7311,
      "組織": 7312,
      "興味": 7313,
      "ディング": 7314,
      "our": 7315,
      "クル": 7316,
      "先生": 7317,
      "かどう": 7318,
      "教育": 7319,
      "の ": 7320,
      "美味": 7321,
      "ってみ": 7322,
      "ことができる": 7323,
      "問い合わせ": 7324,
      "以降": 7325,
      "始め": 7326,
      "4 ": 7327,
      "に見": 7328,
      "ほうが": 7329,
      "ia": 7330,
      "ケー": 7331,
      "のない": 7332,
      "特別": 7333,
      "ラス": 7334,
      "近く": 7335,
      "」（": 7336,
      "と考え": 7337,
      "難しい": 7338,
      "メッ": 7339,
      "立て": 7340,
      "通信": 7341,
      "jp": 7342,
      "募集": 7343,
      "株式": 7344,
      "www.": 7345,
      "で行": 7346,
      "かい": 7347,
      "スイ": 7348,
      "としての": 7349,
      ",000": 7350,
      "を求": 7351,
      "最終": 7352,
      "気を": 7353,
      "アルバ": 7354,
      "にした": 7355,
      "に関して": 7356,
      "Windows ": 7357,
      "意識": 7358,
      "重要な": 7359,
      "パートナー": 7360,
      "表現": 7361,
      "お願い": 7362,
      "魅力": 7363,
      "の方が": 7364,
      "DVD": 7365,
      "かが": 7366,
      "ダイエット": 7367,
      "メーカー": 7368,
      "いつも": 7369,
      "ュニ": 7370,
      "さんが": 7371,
      "の大": 7372,
      "オス": 7373,
      "作り": 7374,
      "開催": 7375,
      "られている": 7376,
      "を使う": 7377,
      "店舗": 7378,
      "空港": 7379,
      "中国": 7380,
      "とり": 7381,
      "ing ": 7382,
      "TE": 7383,
      "いくつ": 7384,
      "わり": 7385,
      "6年": 7386,
      "改善": 7387,
      "しくは": 7388,
      "が行": 7389,
      "などで": 7390,
      "わた": 7391,
      "日本語": 7392,
      "ざま": 7393,
      "トリップ": 7394,
      "クション": 7395,
      "になりました。": 7396,
      "解決": 7397,
      "判断": 7398,
      "1日": 7399,
      "ぜひ": 7400,
      "ば、": 7401,
      "ミュ": 7402,
      "観光": 7403,
      "ことで": 7404,
      "広告": 7405,
      "あった": 7406,
      "社の": 7407,
      "金額": 7408,
      "雰囲": 7409,
      "」は": 7410,
      "0.": 7411,
      "住宅": 7412,
      "別の": 7413,
      "症状": 7414,
      "コミュニ": 7415,
      "に向": 7416,
      "知識": 7417,
      "ラクター": 7418,
      "が生": 7419,
      "年齢": 7420,
      "スー": 7421,
      "有効": 7422,
      "電子": 7423,
      "ョン": 7424,
      "事務": 7425,
      "制限": 7426,
      "と呼ば": 7427,
      "を知": 7428,
      "を送": 7429,
      "テスト": 7430,
      "監督": 7431,
      "ロッ": 7432,
      "になり、": 7433,
      "…\n": 7434,
      "しの": 7435,
      "シャル": 7436,
      "みの": 7437,
      "家の": 7438,
      "5 ": 7439,
      "まれた": 7440,
      "ハン": 7441,
      "ピング": 7442,
      "ですよ。": 7443,
      "合い": 7444,
      "過ぎ": 7445,
      "！ ": 7446,
      "デオ": 7447,
      "項目": 7448,
      "していく": 7449,
      "私が": 7450,
      "都市": 7451,
      "異なる": 7452,
      "責任": 7453,
      "ピン": 7454,
      "報告": 7455,
      "クレジット": 7456,
      "IN": 7457,
      "操作": 7458,
      "方の": 7459,
      "良く": 7460,
      "自分が": 7461,
      " mi\n": 7462,
      "できます": 7463,
      "どちら": 7464,
      "不安": 7465,
      "政府": 7466,
      "さまざま": 7467,
      "カメラ": 7468,
      "みな": 7469,
      "これを": 7470,
      "することができます。": 7471,
      "そういう": 7472,
      "はお": 7473,
      "まり、": 7474,
      "を目": 7475,
      "手に": 7476,
      "見て": 7477,
      "金融": 7478,
      "クリー": 7479,
      "と思います": 7480,
      "みに": 7481,
      "少なく": 7482,
      "にも、": 7483,
      " （": 7484,
      "待ち": 7485,
      "気に": 7486,
      "フォン": 7487,
      "なかった。": 7488,
      "トリップアドバイザー": 7489,
      "を見て": 7490,
      "上記": 7491,
      " L": 7492,
      "せて": 7493,
      "保存": 7494,
      "!!": 7495,
      "さを": 7496,
      "自己": 7497,
      "The ": 7498,
      "文化": 7499,
      "り返": 7500,
      "メニュー": 7501,
      "構造": 7502,
      "について\n": 7503,
      "早く": 7504,
      "詳しい": 7505,
      "というのは": 7506,
      "いたい": 7507,
      "らく": 7508,
      "ジャー": 7509,
      "彼の": 7510,
      "ジー": 7511,
      "新た": 7512,
      "したり": 7513,
      "オリ": 7514,
      "タイム": 7515,
      "込む": 7516,
      "安心して": 7517,
      "しば": 7518,
      "キャラクター": 7519,
      "しており、": 7520,
      "れ、": 7521,
      "科学": 7522,
      "らう": 7523,
      "月に": 7524,
      "をしている": 7525,
      "方は": 7526,
      "終了": 7527,
      "形式": 7528,
      "欲しい": 7529,
      "23": 7530,
      "んと": 7531,
      "ドイツ": 7532,
      "んです": 7533,
      "その他": 7534,
      "はない": 7535,
      "あなたの": 7536,
      "Web": 7537,
      "高速": 7538,
      "ik": 7539,
      "大な": 7540,
      "ショップ": 7541,
      "CD": 7542,
      "労働": 7543,
      "ネットワーク": 7544,
      "信頼": 7545,
      "！！\n": 7546,
      "ちな": 7547,
      "来の": 7548,
      "られる。": 7549,
      "ep": 7550,
      "人を": 7551,
      "過ご": 7552,
      "取引": 7553,
      "」。": 7554,
      "スカ": 7555,
      "プロジェクト": 7556,
      "基準": 7557,
      "ct": 7558,
      "ブランド": 7559,
      "ユニ": 7560,
      "使う": 7561,
      "戦闘": 7562,
      "an ": 7563,
      "セフレ": 7564,
      "導入": 7565,
      "成分": 7566,
      " 「": 7567,
      "が増": 7568,
      "ビデオ": 7569,
      "レビュー": 7570,
      "がお": 7571,
      "時は": 7572,
      "勧め": 7573,
      "からは": 7574,
      "エスト": 7575,
      "ミー": 7576,
      "デジ": 7577,
      "再生": 7578,
      "主義": 7579,
      "アプリケーション": 7580,
      "1\n": 7581,
      "ラル": 7582,
      "展開": 7583,
      "絶対": 7584,
      "あたり": 7585,
      "かん": 7586,
      "one": 7587,
      "レンジ": 7588,
      "oc": 7589,
      "アカ": 7590,
      "テム": 7591,
      "病院": 7592,
      "70": 7593,
      "よろ": 7594,
      "れど": 7595,
      "フロ": 7596,
      "そのまま": 7597,
      "くて": 7598,
      "と共": 7599,
      "に戻": 7600,
      "上で": 7601,
      "子の": 7602,
      "運営": 7603,
      "する\n": 7604,
      "事故": 7605,
      "印象": 7606,
      "られ、": 7607,
      "やっぱ": 7608,
      "市場": 7609,
      "コース": 7610,
      "危険": 7611,
      "なお、": 7612,
      "医療": 7613,
      "１０": 7614,
      "意見": 7615,
      "あるいは": 7616,
      "コンピ": 7617,
      "ときに": 7618,
      "だと思います。": 7619,
      "会議": 7620,
      "過去": 7621,
      "わかり": 7622,
      "悪い": 7623,
      "ロール": 7624,
      "したら": 7625,
      "が高い": 7626,
      "ブレ": 7627,
      "株式会社": 7628,
      "出し": 7629,
      "削除": 7630,
      "勉強": 7631,
      "ランキング": 7632,
      "らず、": 7633,
      "チン": 7634,
      "大阪": 7635,
      "については、": 7636,
      "if": 7637,
      "アナ": 7638,
      "時間を": 7639,
      "22": 7640,
      "が高": 7641,
      "エリア": 7642,
      "エネル": 7643,
      "ON": 7644,
      "わず": 7645,
      "話を": 7646,
      "さまざまな": 7647,
      "支援": 7648,
      "フォーム": 7649,
      "ではありません。": 7650,
      "られない": 7651,
      "彼は": 7652,
      "フォル": 7653,
      " G": 7654,
      "を発": 7655,
      "アイテム": 7656,
      "記録": 7657,
      "する必要": 7658,
      "できた": 7659,
      "ただし、": 7660,
      "へと": 7661,
      "メンバー": 7662,
      "198": 7663,
      "チュ": 7664,
      "ボー": 7665,
      "準備": 7666,
      "コンピュー": 7667,
      "っき": 7668,
      "の手": 7669,
      "してしまう": 7670,
      "に乗": 7671,
      "ボタン": 7672,
      "ウェブ": 7673,
      "日時": 7674,
      "しながら": 7675,
      "まで、": 7676,
      "満足": 7677,
      "閲覧": 7678,
      "障害": 7679,
      "っても、": 7680,
      "お金": 7681,
      "ウント": 7682,
      "カン": 7683,
      "ヒー": 7684,
      "言語": 7685,
      "有料": 7686,
      "結構": 7687,
      "それに": 7688,
      "の場合、": 7689,
      "かを": 7690,
      "4.": 7691,
      "読み": 7692,
      "クラス": 7693,
      "Ex": 7694,
      "IC": 7695,
      "搭載": 7696,
      "成長": 7697,
      "特典": 7698,
      "能力": 7699,
      "その後": 7700,
      "が入": 7701,
      "スキ": 7702,
      "にご": 7703,
      "はこちら": 7704,
      "家庭": 7705,
      "限定": 7706,
      "たと": 7707,
      "心配": 7708,
      "開始": 7709,
      "サイトの": 7710,
      "することも": 7711,
      "に行く": 7712,
      "例えば、": 7713,
      "飲み": 7714,
      "ist": 7715,
      "エステ": 7716,
      "ッツ": 7717,
      "第一": 7718,
      "することは": 7719,
      "以外の": 7720,
      " > ": 7721,
      "みんな": 7722,
      "を楽し": 7723,
      "スピ": 7724,
      "としては": 7725,
      "ンプル": 7726,
      "これが": 7727,
      "ひとつ": 7728,
      "ip": 7729,
      "お手": 7730,
      "を感じ": 7731,
      "生産": 7732,
      "時間が": 7733,
      "に対応": 7734,
      "どれ": 7735,
      "エア": 7736,
      "ワイ": 7737,
      "規模": 7738,
      "チャー": 7739,
      "クラブ": 7740,
      "アドレス": 7741,
      "度の": 7742,
      "素晴": 7743,
      "エロ": 7744,
      "少女": 7745,
      "方も": 7746,
      "以前": 7747,
      "ともに": 7748,
      "http://www.": 7749,
      "空間": 7750,
      "自分で": 7751,
      "ホームページ": 7752,
      "生き": 7753,
      "場合があります。": 7754,
      "カラ": 7755,
      "メル": 7756,
      "時計": 7757,
      "ことで、": 7758,
      "ニュース": 7759,
      "26": 7760,
      "ぐらい": 7761,
      "セージ": 7762,
      "しております。": 7763,
      "サロン": 7764,
      "知り": 7765,
      "ありますが、": 7766,
      "をご利用いただけます。": 7767,
      "にく": 7768,
      "タイト": 7769,
      "お店": 7770,
      "ポリ": 7771,
      "実は": 7772,
      "映像": 7773,
      "送料": 7774,
      "ワン": 7775,
      "素材": 7776,
      "自動車": 7777,
      "エネルギー": 7778,
      "AS": 7779,
      "ずれ": 7780,
      "周辺": 7781,
      "かわ": 7782,
      "カップ": 7783,
      "国内": 7784,
      "ヶ月": 7785,
      "気に入": 7786,
      " N": 7787,
      "nd": 7788,
      "）は、": 7789,
      "面白": 7790,
      "フィル": 7791,
      "ただ、": 7792,
      "スポーツ": 7793,
      "書いて": 7794,
      "したり、": 7795,
      "動き": 7796,
      "審査": 7797,
      "インド": 7798,
      ":00": 7799,
      "ソース": 7800,
      "打ち": 7801,
      "起動": 7802,
      "28": 7803,
      "宇宙": 7804,
      "なども": 7805,
      "PS": 7806,
      "選び": 7807,
      "長い": 7808,
      "人と": 7809,
      "経営": 7810,
      "ミング": 7811,
      "という。": 7812,
      "現在の": 7813,
      "ev": 7814,
      "らず": 7815,
      "カラー": 7816,
      "業務": 7817,
      "2014年": 7818,
      "公式": 7819,
      "まずは": 7820,
      "10月": 7821,
      " V": 7822,
      "異な": 7823,
      "適用": 7824,
      "けた": 7825,
      "ミン": 7826,
      "精神": 7827,
      "--------": 7828,
      "ッサ": 7829,
      "するために": 7830,
      "などに": 7831,
      "クレジットカード": 7832,
      "ov": 7833,
      "が一": 7834,
      "をと": 7835,
      "合う": 7836,
      "証明": 7837,
      "そうな": 7838,
      "est": 7839,
      "最初の": 7840,
      "コレ": 7841,
      "出て": 7842,
      "出張": 7843,
      "行く": 7844,
      "12月": 7845,
      "メッセージ": 7846,
      "ッピング": 7847,
      "公園": 7848,
      "割引": 7849,
      "を選択": 7850,
      "が「": 7851,
      "で「": 7852,
      "制作": 7853,
      "電気": 7854,
      "エレ": 7855,
      "たる": 7856,
      "は一": 7857,
      "まく": 7858,
      "現代": 7859,
      "AT": 7860,
      "当然": 7861,
      "調べ": 7862,
      "きます": 7863,
      "っち": 7864,
      "ッシング": 7865,
      "つつ": 7866,
      "を誇": 7867,
      "航空": 7868,
      "ールの": 7869,
      "and": 7870,
      "がい": 7871,
      "体が": 7872,
      "もちろん、": 7873,
      " J": 7874,
      "らし": 7875,
      "スコ": 7876,
      "ers": 7877,
      "ができる": 7878,
      "要素": 7879,
      "その他の": 7880,
      "われている": 7881,
      "をクリック": 7882,
      "これから": 7883,
      "実に": 7884,
      "できません。": 7885,
      "となる。": 7886,
      "to ": 7887,
      "オープ": 7888,
      "最適な": 7889,
      "様に": 7890,
      "製造": 7891,
      "豊富": 7892,
      "高校": 7893,
      "ものは": 7894,
      "すれば、": 7895,
      "ケア": 7896,
      "価値": 7897,
      "eg": 7898,
      "言い": 7899,
      "請求": 7900,
      ".com/": 7901,
      "主人": 7902,
      "無理": 7903,
      "近い": 7904,
      "ったら": 7905,
      "くれた": 7906,
      "中で": 7907,
      "計算": 7908,
      "qu": 7909,
      "がつ": 7910,
      "デン": 7911,
      "会の": 7912,
      "大事": 7913,
      "業界": 7914,
      "選手": 7915,
      "までに": 7916,
      "そこで": 7917,
      "AR": 7918,
      "になった。": 7919,
      "のか、": 7920,
      "| ": 7921,
      "スパ": 7922,
      "のであ": 7923,
      "楽しい": 7924,
      "指導": 7925,
      "ダン": 7926,
      "テーマ": 7927,
      "ロシア": 7928,
      "細胞": 7929,
      "運転": 7930,
      "してみて": 7931,
      "メモ": 7932,
      "流れ": 7933,
      "2012年": 7934,
      "プラン": 7935,
      "性能": 7936,
      "チャット": 7937,
      "ターン": 7938,
      "ob": 7939,
      "： ": 7940,
      "何度": 7941,
      "目を": 7942,
      "者に": 7943,
      "りを": 7944,
      "ビル": 7945,
      "頑張": 7946,
      "otel": 7947,
      "初期": 7948,
      "複数の": 7949,
      "設置": 7950,
      "フォーマ": 7951,
      "をご覧": 7952,
      "500": 7953,
      "かって": 7954,
      "当たり": 7955,
      "検査": 7956,
      "滞在": 7957,
      "させていただ": 7958,
      "] ": 7959,
      "ストラ": 7960,
      "の一つ": 7961,
      "を含む": 7962,
      "』の": 7963,
      "おすすめ": 7964,
      "自宅": 7965,
      "2000": 7966,
      "みて": 7967,
      "を用": 7968,
      "協力": 7969,
      "2\n": 7970,
      "配信": 7971,
      " s": 7972,
      "が多く": 7973,
      "そも": 7974,
      "地の": 7975,
      "届け": 7976,
      "については": 7977,
      "合わせて": 7978,
      "基づ": 7979,
      "記載": 7980,
      "際に": 7981,
      "rig": 7982,
      "mon": 7983,
      "設備": 7984,
      "チョ": 7985,
      "思う": 7986,
      "収入": 7987,
      "となった": 7988,
      "があり": 7989,
      "まれる": 7990,
      "やっぱり": 7991,
      "チャン": 7992,
      "3月": 7993,
      "4月": 7994,
      "つける": 7995,
      "効率": 7996,
      "越し": 7997,
      "）と": 7998,
      "女性の": 7999,
      "分の": 8000,
      "毎月": 8001,
      "ではなく": 8002,
      "ER": 8003,
      "?\n": 8004,
      "案内": 8005,
      "…。": 8006,
      "いました": 8007,
      "げる": 8008,
      "で見": 8009,
      "呼び": 8010,
      "立つ": 8011,
      "なんだ": 8012,
      "が発生": 8013,
      "だろう。": 8014,
      "あの": 8015,
      "しなければ": 8016,
      "のが、": 8017,
      "わる": 8018,
      "ia ": 8019,
      "さに": 8020,
      "2013年": 8021,
      "事は": 8022,
      "失敗": 8023,
      "栄養": 8024,
      "機会": 8025,
      "私も": 8026,
      "ことです。": 8027,
      "プレゼ": 8028,
      "エンジン": 8029,
      "ス・": 8030,
      "事も": 8031,
      "ボール": 8032,
      "例えば": 8033,
      "気になる": 8034,
      "聞いて": 8035,
      "してくれる": 8036,
      "ハー": 8037,
      "保証": 8038,
      "機器": 8039,
      "OK": 8040,
      "けれど": 8041,
      "の下": 8042,
      "ハード": 8043,
      "プト": 8044,
      "ムの": 8045,
      "かかる": 8046,
      "27": 8047,
      "エク": 8048,
      "ギャ": 8049,
      "グレ": 8050,
      "バージ": 8051,
      "番組": 8052,
      "）は": 8053,
      "ED": 8054,
      "標準": 8055,
      "小さな": 8056,
      "90": 8057,
      "総合": 8058,
      "all": 8059,
      "スマート": 8060,
      "オススメ": 8061,
      "シーン": 8062,
      "様の": 8063,
      "Ch": 8064,
      "いません。": 8065,
      "っちゃ": 8066,
      "デリ": 8067,
      "依頼": 8068,
      "新聞": 8069,
      "大きい": 8070,
      "検討": 8071,
      "してしま": 8072,
      "コンテン": 8073,
      "普段": 8074,
      "資格": 8075,
      "とか、": 8076,
      " 0": 8077,
      "ジア": 8078,
      "一つ": 8079,
      "11月": 8080,
      "投資": 8081,
      "とき、": 8082,
      "を受ける": 8083,
      "々に": 8084,
      "の実": 8085,
      "話題": 8086,
      "が必要です。": 8087,
      "ジオ": 8088,
      "分類": 8089,
      "酵素": 8090,
      "限り": 8091,
      "ail": 8092,
      "からです。": 8093,
      "スケ": 8094,
      "時に、": 8095,
      "のを": 8096,
      "メディア": 8097,
      "AM": 8098,
      "Al": 8099,
      "を入": 8100,
      "くと": 8101,
      "体に": 8102,
      "可愛": 8103,
      "ダンス": 8104,
      "今の": 8105,
      "動作": 8106,
      "調整": 8107,
      "スタート": 8108,
      "oog": 8109,
      "モード": 8110,
      "に応": 8111,
      "型の": 8112,
      "時点": 8113,
      "はこの": 8114,
      "気軽": 8115,
      "これら": 8116,
      "IT": 8117,
      "♪\n": 8118,
      "いずれ": 8119,
      "える。": 8120,
      "反応": 8121,
      "段階": 8122,
      "認識": 8123,
      "素晴らしい": 8124,
      "えている": 8125,
      "是非": 8126,
      "するという": 8127,
      "専用": 8128,
      "建築": 8129,
      "・・・。": 8130,
      "オンライン": 8131,
      "is ": 8132,
      "全国": 8133,
      "漫画": 8134,
      "金利": 8135,
      "美容": 8136,
      "タイトル": 8137,
      "クエスト": 8138,
      "返済": 8139,
      "リース": 8140,
      "」で": 8141,
      "ツアー": 8142,
      "世紀": 8143,
      "サーバー": 8144,
      "スーパー": 8145,
      "3\n": 8146,
      "どのような": 8147,
      "ほぼ": 8148,
      "制度": 8149,
      "方を": 8150,
      "となった。": 8151,
      "についての": 8152,
      "AD": 8153,
      "を持ち": 8154,
      "全ての": 8155,
      "デジタル": 8156,
      "万人": 8157,
      "明ら": 8158,
      "ファイ": 8159,
      "になっています。": 8160,
      "最後": 8161,
      "韓国": 8162,
      "イギ": 8163,
      "口コミ": 8164,
      "ですから": 8165,
      "リアル": 8166,
      "icro": 8167,
      " p": 8168,
      "のですが": 8169,
      "たちの": 8170,
      "コピー": 8171,
      "セキュ": 8172,
      "デート": 8173,
      "ペン": 8174,
      "拡大": 8175,
      "していない": 8176,
      "です\n": 8177,
      "ベン": 8178,
      "会場": 8179,
      "２０": 8180,
      "安定": 8181,
      "週間": 8182,
      "としている": 8183,
      "iPh": 8184,
      "jp/": 8185,
      "さえ": 8186,
      "ッジ": 8187,
      "援助": 8188,
      "だけの": 8189,
      "相手の": 8190,
      "air": 8191
    },
    "merges": [
      [
        "す",
        "。"
      ],
      [
        "し",
        "て"
      ],
      [
        "っ",
        "て"
      ],
      [
        "ま",
        "す。"
      ],
      [
        "し",
        "た"
      ],
      [
        "す",
        "る"
      ],
      [
        "こ",
        "と"
      ],
      [
        "は",
        "、"
      ],
      [
        "っ",
        "た"
      ],
      [
        "な",
        "い"
      ],
      [
        "い",
        "る"
      ],
      [
        "か",
        "ら"
      ],
      [
        "-",
        " "
      ],
      [
        "で",
        "す。"
      ],
      [
        "さ",
        "れ"
      ],
      [
        "あ",
        "る"
      ],
      [
        "の",
        "で"
      ],
      [
        "と",
        "い"
      ],
      [
        "が",
        "、"
      ],
      [
        "よ",
        "う"
      ],
      [
        "あ",
        "り"
      ],
      [
        "い",
        "た"
      ],
      [
        "とい",
        "う"
      ],
      [
        "に",
        "な"
      ],
      [
        "した",
        "。"
      ],
      [
        "で",
        "き"
      ],
      [
        "い",
        "ます。"
      ],
      [
        "そ",
        "の"
      ],
      [
        "い",
        "て"
      ],
      [
        "で",
        "す"
      ],
      [
        "ま",
        "す"
      ],
      [
        "こ",
        "の"
      ],
      [
        "ッ",
        "ト"
      ],
      [
        "イ",
        "ン"
      ],
      [
        "な",
        "ど"
      ],
      [
        "ッ",
        "ク"
      ],
      [
        "ー",
        "ル"
      ],
      [
        "し",
        "、"
      ],
      [
        "で",
        "は"
      ],
      [
        "0",
        "0"
      ],
      [
        "ま",
        "せ"
      ],
      [
        "ス",
        "ト"
      ],
      [
        "ませ",
        "ん"
      ],
      [
        "に",
        "は"
      ],
      [
        "ら",
        "れ"
      ],
      [
        "し",
        "ま"
      ],
      [
        "で",
        "も"
      ],
      [
        "に",
        "よ"
      ],
      [
        "で",
        "、"
      ],
      [
        "こと",
        "が"
      ],
      [
        "ー",
        "ト"
      ],
      [
        "と",
        "して"
      ],
      [
        "り",
        "、"
      ],
      [
        "イ",
        "ト"
      ],
      [
        "た",
        "め"
      ],
      [
        "て",
        "いる"
      ],
      [
        "も",
        "の"
      ],
      [
        "そ",
        "れ"
      ],
      [
        "し",
        "い"
      ],
      [
        "タ",
        "ー"
      ],
      [
        "ょ",
        "う"
      ],
      [
        "だ",
        "け"
      ],
      [
        "ー",
        "ド"
      ],
      [
        "し",
        "ょう"
      ],
      [
        "と",
        "思"
      ],
      [
        "場",
        "合"
      ],
      [
        "に",
        "、"
      ],
      [
        "な",
        "く"
      ],
      [
        "e",
        "r"
      ],
      [
        "シ",
        "ョ"
      ],
      [
        "e",
        " "
      ],
      [
        "ン",
        "グ"
      ],
      [
        "ま",
        "した。"
      ],
      [
        "ま",
        "た"
      ],
      [
        "リ",
        "ー"
      ],
      [
        "こ",
        "れ"
      ],
      [
        "ン",
        "ト"
      ],
      [
        "れ",
        "ば"
      ],
      [
        "ので",
        "、"
      ],
      [
        "さ",
        "い"
      ],
      [
        "る",
        "。"
      ],
      [
        "して",
        "いる"
      ],
      [
        "と",
        "、"
      ],
      [
        "i",
        "n"
      ],
      [
        "サ",
        "イト"
      ],
      [
        "で",
        "ある"
      ],
      [
        "さ",
        "ん"
      ],
      [
        "ラ",
        "ン"
      ],
      [
        "ー",
        "ジ"
      ],
      [
        "2",
        "0"
      ],
      [
        "・",
        "・"
      ],
      [
        "ー",
        "ム"
      ],
      [
        "って",
        "いる"
      ],
      [
        "ま",
        "で"
      ],
      [
        "し",
        "ます。"
      ],
      [
        "ッ",
        "プ"
      ],
      [
        "テ",
        "ィ"
      ],
      [
        "ません",
        "。"
      ],
      [
        "れ",
        "る"
      ],
      [
        "o",
        "n"
      ],
      [
        "利",
        "用"
      ],
      [
        "ショ",
        "ン"
      ],
      [
        "と",
        "な"
      ],
      [
        "サ",
        "ー"
      ],
      [
        "され",
        "た"
      ],
      [
        "でき",
        "る"
      ],
      [
        "え",
        "る"
      ],
      [
        "そ",
        "う"
      ],
      [
        "ー",
        "ス"
      ],
      [
        "く",
        "だ"
      ],
      [
        "に",
        "も"
      ],
      [
        "し",
        "か"
      ],
      [
        "あり",
        "ます。"
      ],
      [
        "a",
        "n"
      ],
      [
        "に",
        "つ"
      ],
      [
        "よう",
        "な"
      ],
      [
        "くだ",
        "さい"
      ],
      [
        "）",
        "\n"
      ],
      [
        "り",
        "ます。"
      ],
      [
        "ん",
        "な"
      ],
      [
        "自",
        "分"
      ],
      [
        "的",
        "な"
      ],
      [
        "デ",
        "ィ"
      ],
      [
        "s",
        " "
      ],
      [
        "え",
        "て"
      ],
      [
        "コ",
        "ン"
      ],
      [
        "か",
        "った"
      ],
      [
        "o",
        "r"
      ],
      [
        "情",
        "報"
      ],
      [
        "日",
        "本"
      ],
      [
        "れ",
        "て"
      ],
      [
        "ね",
        "。"
      ],
      [
        "が",
        "ある"
      ],
      [
        "な",
        "ら"
      ],
      [
        "1",
        "9"
      ],
      [
        "必",
        "要"
      ],
      [
        "で",
        "しょう"
      ],
      [
        "ラ",
        "イ"
      ],
      [
        ",",
        " "
      ],
      [
        "よ",
        "り"
      ],
      [
        "1",
        "0"
      ],
      [
        "|",
        "|"
      ],
      [
        "！",
        "\n"
      ],
      [
        "か",
        "な"
      ],
      [
        "よう",
        "に"
      ],
      [
        "け",
        "る"
      ],
      [
        "フ",
        "ァ"
      ],
      [
        "時",
        "間"
      ],
      [
        "につ",
        "いて"
      ],
      [
        "も",
        "、"
      ],
      [
        "編",
        "集"
      ],
      [
        "ください",
        "。"
      ],
      [
        "た",
        "い"
      ],
      [
        "可",
        "能"
      ],
      [
        "2",
        "00"
      ],
      [
        "な",
        "ん"
      ],
      [
        "ュ",
        "ー"
      ],
      [
        "され",
        "る"
      ],
      [
        "に",
        "お"
      ],
      [
        "され",
        "て"
      ],
      [
        "プ",
        "ロ"
      ],
      [
        "れ",
        "た"
      ],
      [
        "]",
        "\n"
      ],
      [
        "出",
        "会"
      ],
      [
        "に",
        "は、"
      ],
      [
        "で",
        "は、"
      ],
      [
        "い",
        "い"
      ],
      [
        "によ",
        "って"
      ],
      [
        "ん",
        "で"
      ],
      [
        "e",
        "n"
      ],
      [
        "する",
        "こと"
      ],
      [
        "a",
        "t"
      ],
      [
        "い",
        "ます"
      ],
      [
        "ス",
        "テ"
      ],
      [
        "った",
        "。"
      ],
      [
        "a",
        "r"
      ],
      [
        "|",
        "\n"
      ],
      [
        "」",
        "と"
      ],
      [
        "さ",
        "せ"
      ],
      [
        "にな",
        "る"
      ],
      [
        "し",
        "く"
      ],
      [
        "20",
        "1"
      ],
      [
        "を",
        "使"
      ],
      [
        "ス",
        "タ"
      ],
      [
        "[",
        "編集"
      ],
      [
        "め",
        "て"
      ],
      [
        "して",
        "、"
      ],
      [
        "ビ",
        "ス"
      ],
      [
        "イ",
        "ル"
      ],
      [
        "っ",
        "と"
      ],
      [
        "キ",
        "ャ"
      ],
      [
        "を",
        "見"
      ],
      [
        "的",
        "に"
      ],
      [
        "ど",
        "う"
      ],
      [
        "バ",
        "ー"
      ],
      [
        "の",
        "は"
      ],
      [
        "の",
        "です。"
      ],
      [
        "から",
        "、"
      ],
      [
        "フ",
        "ォ"
      ],
      [
        "テ",
        "ル"
      ],
      [
        "サー",
        "ビス"
      ],
      [
        "の",
        "中"
      ],
      [
        "e",
        "s"
      ],
      [
        " ",
        "("
      ],
      [
        "[編集",
        "]\n"
      ],
      [
        "多",
        "く"
      ],
      [
        "取",
        "り"
      ],
      [
        "の",
        "か"
      ],
      [
        "ン",
        "ド"
      ],
      [
        "リ",
        "ア"
      ],
      [
        "け",
        "て"
      ],
      [
        "出会",
        "い"
      ],
      [
        "こ",
        "ろ"
      ],
      [
        "t",
        " "
      ],
      [
        "ー",
        "ク"
      ],
      [
        "か",
        "り"
      ],
      [
        "こと",
        "を"
      ],
      [
        ".",
        "."
      ],
      [
        "と",
        "は"
      ],
      [
        "女",
        "性"
      ],
      [
        "ホ",
        "テル"
      ],
      [
        "で",
        "の"
      ],
      [
        " ",
        "- "
      ],
      [
        "a",
        "l"
      ],
      [
        "ので",
        "す"
      ],
      [
        "？",
        "\n"
      ],
      [
        "ま",
        "した"
      ],
      [
        "d",
        " "
      ],
      [
        "ー",
        "ン"
      ],
      [
        "フ",
        "ィ"
      ],
      [
        "出",
        "来"
      ],
      [
        "また",
        "、"
      ],
      [
        "にな",
        "って"
      ],
      [
        "i",
        "c"
      ],
      [
        "も",
        "し"
      ],
      [
        "され",
        "ている"
      ],
      [
        "あり",
        "、"
      ],
      [
        "と",
        "言"
      ],
      [
        "でき",
        "ます。"
      ],
      [
        "と",
        "の"
      ],
      [
        "ネ",
        "ット"
      ],
      [
        "の",
        "が"
      ],
      [
        "な",
        "が"
      ],
      [
        "に",
        "対"
      ],
      [
        "い",
        "く"
      ],
      [
        "チ",
        "ャ"
      ],
      [
        "多",
        "い"
      ],
      [
        "の",
        "お"
      ],
      [
        "が",
        "あります。"
      ],
      [
        "して",
        "います。"
      ],
      [
        "大",
        "き"
      ],
      [
        "た",
        "ち"
      ],
      [
        "な",
        "る"
      ],
      [
        "o",
        "m"
      ],
      [
        "プ",
        "レ"
      ],
      [
        "ない",
        "。"
      ],
      [
        "ん",
        "だ"
      ],
      [
        "リ",
        "ン"
      ],
      [
        "会",
        "社"
      ],
      [
        "人",
        "の"
      ],
      [
        "感",
        "じ"
      ],
      [
        ".",
        " "
      ],
      [
        "と",
        "ころ"
      ],
      [
        "方",
        "法"
      ],
      [
        "め",
        "る"
      ],
      [
        "と",
        "き"
      ],
      [
        "て",
        "も"
      ],
      [
        "と思",
        "います。"
      ],
      [
        "ー",
        "タ"
      ],
      [
        "である",
        "。"
      ],
      [
        "です",
        "が、"
      ],
      [
        "と",
        "も"
      ],
      [
        "お",
        "よ"
      ],
      [
        "へ",
        "の"
      ],
      [
        "良",
        "い"
      ],
      [
        "ン",
        "ス"
      ],
      [
        "によ",
        "る"
      ],
      [
        "しま",
        "う"
      ],
      [
        "e",
        "l"
      ],
      [
        "だ",
        "った"
      ],
      [
        "メ",
        "ール"
      ],
      [
        "を",
        "持"
      ],
      [
        "i",
        "t"
      ],
      [
        "ち",
        "ゃ"
      ],
      [
        "なが",
        "ら"
      ],
      [
        "およ",
        "び"
      ],
      [
        ":",
        " "
      ],
      [
        "で",
        "あ"
      ],
      [
        "に",
        "関"
      ],
      [
        ")",
        "\n"
      ],
      [
        "カ",
        "ー"
      ],
      [
        "られ",
        "る"
      ],
      [
        "世",
        "界"
      ],
      [
        "れば",
        "、"
      ],
      [
        "シ",
        "ャ"
      ],
      [
        "ク",
        "ラ"
      ],
      [
        "・・",
        "・"
      ],
      [
        "な",
        "かった"
      ],
      [
        "さ",
        "ら"
      ],
      [
        "無",
        "料"
      ],
      [
        "を",
        "行"
      ],
      [
        "する",
        "。"
      ],
      [
        "s",
        "t"
      ],
      [
        "-",
        "-"
      ],
      [
        "ック",
        "ス"
      ],
      [
        "でしょう",
        "。"
      ],
      [
        "わ",
        "せ"
      ],
      [
        "タ",
        "イ"
      ],
      [
        "て",
        "、"
      ],
      [
        "に",
        "入"
      ],
      [
        "」",
        "\n"
      ],
      [
        "同",
        "じ"
      ],
      [
        "使",
        "用"
      ],
      [
        "r",
        "o"
      ],
      [
        "って",
        "、"
      ],
      [
        "1",
        "2"
      ],
      [
        "して",
        "お"
      ],
      [
        "など",
        "の"
      ],
      [
        "する",
        "ことが"
      ],
      [
        "え",
        "ば"
      ],
      [
        "ため",
        "、"
      ],
      [
        "を",
        "ご"
      ],
      [
        "ー",
        "ション"
      ],
      [
        "問",
        "題"
      ],
      [
        "y",
        " "
      ],
      [
        "の",
        "方"
      ],
      [
        "考",
        "え"
      ],
      [
        "ろ",
        "う"
      ],
      [
        "の",
        "人"
      ],
      [
        "ら",
        "い"
      ],
      [
        "ザ",
        "ー"
      ],
      [
        "しま",
        "した。"
      ],
      [
        "ア",
        "ル"
      ],
      [
        "機",
        "能"
      ],
      [
        "と",
        "か"
      ],
      [
        "楽",
        "し"
      ],
      [
        "べ",
        "て"
      ],
      [
        "1",
        "1"
      ],
      [
        "カ",
        "ード"
      ],
      [
        "ま",
        "り"
      ],
      [
        "ス",
        "ク"
      ],
      [
        "ロ",
        "ー"
      ],
      [
        "た",
        "。"
      ],
      [
        "a",
        " "
      ],
      [
        "こと",
        "も"
      ],
      [
        "ため",
        "に"
      ],
      [
        "バ",
        "イ"
      ],
      [
        ")",
        " "
      ],
      [
        "ち",
        "ら"
      ],
      [
        "プ",
        "リ"
      ],
      [
        "以",
        "上"
      ],
      [
        "なく",
        "、"
      ],
      [
        "o",
        "u"
      ],
      [
        "い",
        "ない"
      ],
      [
        "ブ",
        "ル"
      ],
      [
        "を",
        "お"
      ],
      [
        "こ",
        "う"
      ],
      [
        "ジ",
        "ャ"
      ],
      [
        "フ",
        "ェ"
      ],
      [
        "」",
        "の"
      ],
      [
        "って",
        "います。"
      ],
      [
        "ほ",
        "ど"
      ],
      [
        "ペ",
        "ージ"
      ],
      [
        "あり",
        "ません。"
      ],
      [
        "ッ",
        "ド"
      ],
      [
        "や",
        "す"
      ],
      [
        "チ",
        "ェ"
      ],
      [
        "ラ",
        "ー"
      ],
      [
        "ナ",
        "ー"
      ],
      [
        "ー",
        "プ"
      ],
      [
        "こと",
        "は"
      ],
      [
        "ウ",
        "ェ"
      ],
      [
        ".",
        "\n"
      ],
      [
        "あり",
        "ます"
      ],
      [
        "よ",
        "く"
      ],
      [
        "受",
        "け"
      ],
      [
        "i",
        "on"
      ],
      [
        "もし",
        "れ"
      ],
      [
        "商",
        "品"
      ],
      [
        "パ",
        "ー"
      ],
      [
        "ク",
        "リ"
      ],
      [
        "相",
        "手"
      ],
      [
        "しょう",
        "。"
      ],
      [
        "して",
        "いた"
      ],
      [
        "t",
        "h"
      ],
      [
        "1",
        "8"
      ],
      [
        "ベ",
        "ル"
      ],
      [
        "ン",
        "の"
      ],
      [
        "り",
        "の"
      ],
      [
        "そ",
        "して"
      ],
      [
        "h",
        "t"
      ],
      [
        "r",
        "e"
      ],
      [
        "a",
        "c"
      ],
      [
        "関",
        "係"
      ],
      [
        "表",
        "示"
      ],
      [
        "わ",
        "れ"
      ],
      [
        "合",
        "わせ"
      ],
      [
        "で",
        "した。"
      ],
      [
        "メ",
        "リ"
      ],
      [
        "い",
        "ました。"
      ],
      [
        "こ",
        "こ"
      ],
      [
        "そ",
        "んな"
      ],
      [
        "が",
        "あ"
      ],
      [
        "ウ",
        "ン"
      ],
      [
        "か",
        "。"
      ],
      [
        "く",
        "な"
      ],
      [
        "ゲ",
        "ーム"
      ],
      [
        "な",
        "た"
      ],
      [
        "ア",
        "ン"
      ],
      [
        "」",
        "を"
      ],
      [
        "人",
        "が"
      ],
      [
        "男",
        "性"
      ],
      [
        "l",
        "e"
      ],
      [
        "仕",
        "事"
      ],
      [
        "の",
        "一"
      ],
      [
        "に",
        "行"
      ],
      [
        "ク",
        "ト"
      ],
      [
        "現",
        "在"
      ],
      [
        "グ",
        "ラ"
      ],
      [
        "た",
        "だ"
      ],
      [
        "持",
        "ち"
      ],
      [
        "自分",
        "の"
      ],
      [
        "つ",
        "の"
      ],
      [
        "だ",
        "。"
      ],
      [
        "ア",
        "ク"
      ],
      [
        "他",
        "の"
      ],
      [
        "そ",
        "こ"
      ],
      [
        "ッ",
        "チ"
      ],
      [
        "にな",
        "り"
      ],
      [
        "シ",
        "ュ"
      ],
      [
        "い",
        "、"
      ],
      [
        "いた",
        "だけ"
      ],
      [
        "レ",
        "ス"
      ],
      [
        "のです",
        "が、"
      ],
      [
        "か",
        "、"
      ],
      [
        "上",
        "げ"
      ],
      [
        "高",
        "い"
      ],
      [
        "レ",
        "ン"
      ],
      [
        "き",
        "ます。"
      ],
      [
        "a",
        "m"
      ],
      [
        "レ",
        "ー"
      ],
      [
        "い",
        "う"
      ],
      [
        "設",
        "定"
      ],
      [
        "ジ",
        "ェ"
      ],
      [
        "フ",
        "ト"
      ],
      [
        " ",
        "S"
      ],
      [
        "デ",
        "ータ"
      ],
      [
        "o",
        "o"
      ],
      [
        "ア",
        "イ"
      ],
      [
        "1",
        "5"
      ],
      [
        "き",
        "た"
      ],
      [
        "効",
        "果"
      ],
      [
        "の",
        "場合"
      ],
      [
        "ア",
        "ド"
      ],
      [
        "に",
        "ある"
      ],
      [
        "確",
        "認"
      ],
      [
        "って",
        "も"
      ],
      [
        "また",
        "は"
      ],
      [
        "出会い",
        "系"
      ],
      [
        "3",
        "0"
      ],
      [
        "ア",
        "ップ"
      ],
      [
        "ず",
        "、"
      ],
      [
        "シ",
        "ステ"
      ],
      [
        "しか",
        "し、"
      ],
      [
        "登",
        "録"
      ],
      [
        "さら",
        "に"
      ],
      [
        "常",
        "に"
      ],
      [
        "して",
        "も"
      ],
      [
        "した",
        "い"
      ],
      [
        "システ",
        "ム"
      ],
      [
        "in",
        "g"
      ],
      [
        "紹",
        "介"
      ],
      [
        "提",
        "供"
      ],
      [
        "あ",
        "なた"
      ],
      [
        "か",
        "もしれ"
      ],
      [
        "ダ",
        "イ"
      ],
      [
        "シ",
        "ー"
      ],
      [
        "わ",
        "け"
      ],
      [
        "ため",
        "の"
      ],
      [
        "い",
        "ろ"
      ],
      [
        "の",
        "ような"
      ],
      [
        "た",
        "り"
      ],
      [
        "い",
        "つ"
      ],
      [
        "です",
        "よ"
      ],
      [
        "メ",
        "ント"
      ],
      [
        "場",
        "所"
      ],
      [
        "者",
        "の"
      ],
      [
        "ので",
        "は"
      ],
      [
        "ち",
        "ょ"
      ],
      [
        "け",
        "ど"
      ],
      [
        "サ",
        "イ"
      ],
      [
        "して",
        "み"
      ],
      [
        "って",
        "いた"
      ],
      [
        " ",
        "の"
      ],
      [
        "好",
        "き"
      ],
      [
        "時",
        "に"
      ],
      [
        "し",
        "ない"
      ],
      [
        "の",
        "は、"
      ],
      [
        "も",
        "う"
      ],
      [
        "内",
        "容"
      ],
      [
        "は",
        "「"
      ],
      [
        "られ",
        "た"
      ],
      [
        "」",
        "という"
      ],
      [
        "実",
        "際"
      ],
      [
        "け",
        "れば"
      ],
      [
        "o",
        "f"
      ],
      [
        "存",
        "在"
      ],
      [
        "o",
        "w"
      ],
      [
        "状",
        "態"
      ],
      [
        "購",
        "入"
      ],
      [
        "じ",
        "ゃ"
      ],
      [
        "イン",
        "ト"
      ],
      [
        "ら",
        "ない"
      ],
      [
        "ス",
        "の"
      ],
      [
        "ら",
        "、"
      ],
      [
        "を",
        "する"
      ],
      [
        "マ",
        "ン"
      ],
      [
        "を",
        "作"
      ],
      [
        "生",
        "活"
      ],
      [
        "i",
        "l"
      ],
      [
        ".",
        "c"
      ],
      [
        "ユ",
        "ー"
      ],
      [
        "によ",
        "り"
      ],
      [
        "と",
        "ても"
      ],
      [
        "ラン",
        "ド"
      ],
      [
        "から",
        "の"
      ],
      [
        "る",
        "ことが"
      ],
      [
        "イン",
        "ター"
      ],
      [
        "ご",
        "ざ"
      ],
      [
        "る",
        "と"
      ],
      [
        "ダ",
        "ー"
      ],
      [
        "ら",
        "の"
      ],
      [
        "開",
        "発"
      ],
      [
        "でも",
        "、"
      ],
      [
        "c",
        "h"
      ],
      [
        "結",
        "果"
      ],
      [
        "を",
        "利用"
      ],
      [
        "ポ",
        "イント"
      ],
      [
        "という",
        "こと"
      ],
      [
        "し",
        "ます"
      ],
      [
        "簡",
        "単"
      ],
      [
        "いた",
        "だ"
      ],
      [
        "にお",
        "いて"
      ],
      [
        "電",
        "話"
      ],
      [
        "か",
        "？\n"
      ],
      [
        "の",
        "も"
      ],
      [
        "こ",
        "ちら"
      ],
      [
        "/",
        " "
      ],
      [
        "にな",
        "ります。"
      ],
      [
        "ロ",
        "グ"
      ],
      [
        "e",
        "t"
      ],
      [
        "er",
        " "
      ],
      [
        "ブ",
        "ラ"
      ],
      [
        "出会い系",
        "サイト"
      ],
      [
        "研",
        "究"
      ],
      [
        "写",
        "真"
      ],
      [
        "r",
        "i"
      ],
      [
        "た",
        "く"
      ],
      [
        "少",
        "し"
      ],
      [
        "コ",
        "ミ"
      ],
      [
        "く",
        "、"
      ],
      [
        "にな",
        "った"
      ],
      [
        "く",
        "る"
      ],
      [
        "ア",
        "ー"
      ],
      [
        "これ",
        "は"
      ],
      [
        "ある",
        "。"
      ],
      [
        "られ",
        "て"
      ],
      [
        " ",
        "C"
      ],
      [
        "）",
        "の"
      ],
      [
        "され",
        "、"
      ],
      [
        "り",
        "に"
      ],
      [
        "ま",
        "だ"
      ],
      [
        "予",
        "約"
      ],
      [
        "a",
        "s"
      ],
      [
        "最",
        "近"
      ],
      [
        "お",
        "り、"
      ],
      [
        "セ",
        "ン"
      ],
      [
        "込",
        "み"
      ],
      [
        "）",
        "。"
      ],
      [
        "ん",
        "ど"
      ],
      [
        "部",
        "分"
      ],
      [
        "す",
        "べて"
      ],
      [
        "w",
        "w"
      ],
      [
        "大",
        "学"
      ],
      [
        "前",
        "に"
      ],
      [
        "や",
        "、"
      ],
      [
        "です",
        "ね。"
      ],
      [
        "一",
        "般"
      ],
      [
        "ている",
        "。"
      ],
      [
        "意",
        "味"
      ],
      [
        "フ",
        "レ"
      ],
      [
        "e",
        "d"
      ],
      [
        "食",
        "べ"
      ],
      [
        "o",
        " "
      ],
      [
        "レ",
        "ビ"
      ],
      [
        "す",
        "ぐ"
      ],
      [
        "が",
        "必要"
      ],
      [
        "以",
        "下"
      ],
      [
        "ま",
        "ず"
      ],
      [
        "か",
        "に"
      ],
      [
        "キ",
        "ー"
      ],
      [
        "ク",
        "ロ"
      ],
      [
        "ポ",
        "ート"
      ],
      [
        "私",
        "は"
      ],
      [
        "事",
        "が"
      ],
      [
        "ル",
        "の"
      ],
      [
        "管",
        "理"
      ],
      [
        "チェ",
        "ック"
      ],
      [
        "客",
        "様"
      ],
      [
        "1",
        "6"
      ],
      [
        "引",
        "き"
      ],
      [
        "年",
        "の"
      ],
      [
        "00",
        "0"
      ],
      [
        "している",
        "。"
      ],
      [
        "コ",
        "ー"
      ],
      [
        "年",
        "に"
      ],
      [
        "か",
        "？"
      ],
      [
        "を",
        "選"
      ],
      [
        "エ",
        "ン"
      ],
      [
        "ト",
        "リ"
      ],
      [
        "を",
        "、"
      ],
      [
        "ま",
        "ま"
      ],
      [
        "付",
        "け"
      ],
      [
        "オ",
        "ー"
      ],
      [
        "ソ",
        "フト"
      ],
      [
        "料",
        "金"
      ],
      [
        "リン",
        "ク"
      ],
      [
        "者",
        "が"
      ],
      [
        "技",
        "術"
      ],
      [
        "1",
        "4"
      ],
      [
        "セ",
        "ス"
      ],
      [
        "企",
        "業"
      ],
      [
        "に",
        "と"
      ],
      [
        "変",
        "更"
      ],
      [
        "環",
        "境"
      ],
      [
        "時",
        "代"
      ],
      [
        "ロ",
        "ン"
      ],
      [
        "など",
        "、"
      ],
      [
        "i",
        "s"
      ],
      [
        "だけ",
        "で"
      ],
      [
        "最",
        "初"
      ],
      [
        "オ",
        "ン"
      ],
      [
        "ファ",
        "イル"
      ],
      [
        "する",
        "と"
      ],
      [
        "だ",
        "ろう"
      ],
      [
        "日",
        "の"
      ],
      [
        "方",
        "が"
      ],
      [
        "る",
        "こと"
      ],
      [
        "デ",
        "ザ"
      ],
      [
        "本",
        "当"
      ],
      [
        " ",
        "/ "
      ],
      [
        "1",
        "7"
      ],
      [
        "の",
        "「"
      ],
      [
        "人",
        "は"
      ],
      [
        "を",
        "探"
      ],
      [
        "の",
        "み"
      ],
      [
        "な",
        "ければ"
      ],
      [
        "ア",
        "メリ"
      ],
      [
        "人",
        "気"
      ],
      [
        "アメリ",
        "カ"
      ],
      [
        "o",
        "l"
      ],
      [
        "な",
        "り"
      ],
      [
        "脱",
        "毛"
      ],
      [
        "々",
        "な"
      ],
      [
        "後",
        "、"
      ],
      [
        "インター",
        "ネット"
      ],
      [
        "結",
        "婚"
      ],
      [
        "メ",
        "ン"
      ],
      [
        " ",
        "A"
      ],
      [
        "思",
        "い"
      ],
      [
        "ちゃ",
        "ん"
      ],
      [
        "記",
        "事"
      ],
      [
        "ア",
        "プリ"
      ],
      [
        "新",
        "しい"
      ],
      [
        "特",
        "に"
      ],
      [
        "を使",
        "用"
      ],
      [
        "検",
        "索"
      ],
      [
        "重",
        "要"
      ],
      [
        "では",
        "ない"
      ],
      [
        "つ",
        "け"
      ],
      [
        "と思",
        "う"
      ],
      [
        "対",
        "応"
      ],
      [
        "え",
        "た"
      ],
      [
        "後",
        "の"
      ],
      [
        "ル",
        "ト"
      ],
      [
        "個",
        "人"
      ],
      [
        "）",
        "、"
      ],
      [
        "っ",
        "ぱ"
      ],
      [
        "作",
        "品"
      ],
      [
        "か",
        "か"
      ],
      [
        "下",
        "さい"
      ],
      [
        "く",
        "れる"
      ],
      [
        "く",
        "らい"
      ],
      [
        "5",
        "0"
      ],
      [
        "月",
        "2"
      ],
      [
        "み",
        "たい"
      ],
      [
        "1",
        " "
      ],
      [
        "回",
        "答"
      ],
      [
        "の",
        "ある"
      ],
      [
        "東",
        "京"
      ],
      [
        "ウ",
        "ィ"
      ],
      [
        "に関",
        "する"
      ],
      [
        "力",
        "を"
      ],
      [
        "ニ",
        "ー"
      ],
      [
        "非",
        "常に"
      ],
      [
        ".c",
        "om"
      ],
      [
        "起",
        "こ"
      ],
      [
        "マ",
        "イ"
      ],
      [
        "以",
        "外"
      ],
      [
        " ",
        "M"
      ],
      [
        "- ",
        "^"
      ],
      [
        "基",
        "本"
      ],
      [
        "e",
        "b"
      ],
      [
        "自",
        "動"
      ],
      [
        "多く",
        "の"
      ],
      [
        "も",
        "ち"
      ],
      [
        "ン",
        "プ"
      ],
      [
        "ら",
        "しい"
      ],
      [
        "で",
        "あり、"
      ],
      [
        "参",
        "加"
      ],
      [
        "旅",
        "行"
      ],
      [
        "大き",
        "な"
      ],
      [
        "変",
        "わ"
      ],
      [
        "販",
        "売"
      ],
      [
        "ちょ",
        "っと"
      ],
      [
        "いただけ",
        "ます。"
      ],
      [
        "o",
        "t"
      ],
      [
        "でき",
        "ない"
      ],
      [
        "映",
        "画"
      ],
      [
        "やす",
        "い"
      ],
      [
        " ",
        "P"
      ],
      [
        "価",
        "格"
      ],
      [
        "とい",
        "った"
      ],
      [
        "キ",
        "ング"
      ],
      [
        "登",
        "場"
      ],
      [
        "製",
        "品"
      ],
      [
        "プ",
        "ラ"
      ],
      [
        "が",
        "出"
      ],
      [
        "わ",
        "れる"
      ],
      [
        "き",
        "、"
      ],
      [
        "か",
        "の"
      ],
      [
        "か",
        "け"
      ],
      [
        "ニ",
        "ュー"
      ],
      [
        "女",
        "の"
      ],
      [
        "ビ",
        "ジ"
      ],
      [
        "/",
        "/"
      ],
      [
        "今",
        "回"
      ],
      [
        "として",
        "、"
      ],
      [
        "ス",
        "ペ"
      ],
      [
        "1",
        "3"
      ],
      [
        "を",
        "して"
      ],
      [
        "追",
        "加"
      ],
      [
        "種",
        "類"
      ],
      [
        "ン",
        "・"
      ],
      [
        "べ",
        "き"
      ],
      [
        "ネ",
        "ル"
      ],
      [
        "安",
        "心"
      ],
      [
        "め",
        "た"
      ],
      [
        "注",
        "意"
      ],
      [
        "関",
        "連"
      ],
      [
        "っている",
        "。"
      ],
      [
        "a",
        "d"
      ],
      [
        "かな",
        "り"
      ],
      [
        "えば",
        "、"
      ],
      [
        "ラ",
        "イン"
      ],
      [
        "き",
        "ました。"
      ],
      [
        "程",
        "度"
      ],
      [
        "ま",
        "しょう。"
      ],
      [
        "を",
        "受け"
      ],
      [
        "t",
        "p"
      ],
      [
        "と",
        "した"
      ],
      [
        "上",
        "が"
      ],
      [
        "ト",
        "ラ"
      ],
      [
        "ー",
        "マ"
      ],
      [
        "しか",
        "し"
      ],
      [
        "ロ",
        "ード"
      ],
      [
        "子",
        "供"
      ],
      [
        "たく",
        "さん"
      ],
      [
        "され",
        "ます。"
      ],
      [
        "イ",
        "ベ"
      ],
      [
        "場合",
        "、"
      ],
      [
        "- ^",
        " "
      ],
      [
        "後",
        "に"
      ],
      [
        "説",
        "明"
      ],
      [
        "によ",
        "り、"
      ],
      [
        "in",
        "d"
      ],
      [
        "リ",
        "ング"
      ],
      [
        "掲",
        "載"
      ],
      [
        "可能",
        "性"
      ],
      [
        "させ",
        "て"
      ],
      [
        "ろ",
        "ん"
      ],
      [
        "いて",
        "、"
      ],
      [
        "とな",
        "る"
      ],
      [
        "ッ",
        "シュ"
      ],
      [
        "テ",
        "ン"
      ],
      [
        "と",
        "う"
      ],
      [
        ":",
        "//"
      ],
      [
        "3",
        "年"
      ],
      [
        "音",
        "楽"
      ],
      [
        "ケ",
        "ット"
      ],
      [
        "ht",
        "tp"
      ],
      [
        "ひ",
        "と"
      ],
      [
        "な",
        "ので、"
      ],
      [
        "な",
        "お"
      ],
      [
        "な",
        "ので"
      ],
      [
        "ほ",
        "と"
      ],
      [
        "の",
        "ように"
      ],
      [
        "わ",
        "れて"
      ],
      [
        "イベ",
        "ント"
      ],
      [
        "もち",
        "ろん"
      ],
      [
        "あ",
        "まり"
      ],
      [
        "だ",
        "から"
      ],
      [
        "プレ",
        "イ"
      ],
      [
        "と",
        "する"
      ],
      [
        "タイ",
        "プ"
      ],
      [
        "人",
        "間"
      ],
      [
        "出来",
        "る"
      ],
      [
        "状",
        "況"
      ],
      [
        "o",
        "p"
      ],
      [
        "使",
        "い"
      ],
      [
        "違",
        "い"
      ],
      [
        "社",
        "会"
      ],
      [
        "デザ",
        "イン"
      ],
      [
        "ま",
        "れ"
      ],
      [
        "2",
        "年"
      ],
      [
        "います",
        "が、"
      ],
      [
        "a",
        "g"
      ],
      [
        "目",
        "的"
      ],
      [
        "して",
        "ください。"
      ],
      [
        "して",
        "い"
      ],
      [
        "ピ",
        "ー"
      ],
      [
        "アク",
        "セス"
      ],
      [
        "ダ",
        "ウン"
      ],
      [
        "部",
        "屋"
      ],
      [
        "ほと",
        "んど"
      ],
      [
        "それ",
        "は"
      ],
      [
        "--",
        "--"
      ],
      [
        "っ",
        "かり"
      ],
      [
        "入",
        "れ"
      ],
      [
        "など",
        "を"
      ],
      [
        "０",
        "０"
      ],
      [
        "が",
        "ない"
      ],
      [
        "全",
        "て"
      ],
      [
        "気",
        "持ち"
      ],
      [
        "-",
        "\n"
      ],
      [
        "質",
        "問"
      ],
      [
        "ー",
        "ツ"
      ],
      [
        "http",
        "://"
      ],
      [
        "u",
        "r"
      ],
      [
        "く",
        "れ"
      ],
      [
        "グ",
        "ル"
      ],
      [
        "って",
        "しま"
      ],
      [
        "..",
        ".\n"
      ],
      [
        "付",
        "き"
      ],
      [
        "タ",
        "ン"
      ],
      [
        "i",
        "r"
      ],
      [
        "活",
        "動"
      ],
      [
        "されて",
        "います。"
      ],
      [
        " ",
        "m"
      ],
      [
        "さ",
        "ま"
      ],
      [
        "料",
        "理"
      ],
      [
        "書",
        "き"
      ],
      [
        "ス",
        "ポ"
      ],
      [
        "ネ",
        "ス"
      ],
      [
        "願",
        "い"
      ],
      [
        "の",
        "に"
      ],
      [
        "ます",
        "が、"
      ],
      [
        "4",
        "年"
      ],
      [
        "メ",
        "ージ"
      ],
      [
        "地",
        "域"
      ],
      [
        " ",
        "2"
      ],
      [
        "いた",
        "。"
      ],
      [
        "え",
        "、"
      ],
      [
        "を",
        "も"
      ],
      [
        "ケ",
        "ーション"
      ],
      [
        "あり",
        "ません"
      ],
      [
        "国",
        "の"
      ],
      [
        "e",
        "m"
      ],
      [
        "パ",
        "ン"
      ],
      [
        "ユー",
        "ザー"
      ],
      [
        "数",
        "の"
      ],
      [
        "組",
        "み"
      ],
      [
        "19",
        "9"
      ],
      [
        "保",
        "険"
      ],
      [
        "考",
        "えて"
      ],
      [
        "もの",
        "です。"
      ],
      [
        "k",
        "m"
      ],
      [
        "」",
        "「"
      ],
      [
        "ジ",
        "ュ"
      ],
      [
        "ナ",
        "ル"
      ],
      [
        "a",
        "p"
      ],
      [
        " ",
        "T"
      ],
      [
        "時",
        "の"
      ],
      [
        "e",
        "c"
      ],
      [
        "e",
        "x"
      ],
      [
        "レ",
        "イ"
      ],
      [
        "なら",
        "、"
      ],
      [
        "で",
        "した"
      ],
      [
        "より",
        "も"
      ],
      [
        "く",
        "り"
      ],
      [
        "発",
        "生"
      ],
      [
        "なん",
        "て"
      ],
      [
        "ス",
        "ター"
      ],
      [
        "し",
        "よう"
      ],
      [
        "された",
        "。"
      ],
      [
        "マ",
        "ー"
      ],
      [
        "に",
        "あ"
      ],
      [
        "う",
        "ち"
      ],
      [
        "だ",
        "と"
      ],
      [
        "シ",
        "ア"
      ],
      [
        "い",
        "った"
      ],
      [
        "前",
        "の"
      ],
      [
        "セ",
        "ル"
      ],
      [
        "詳",
        "細"
      ],
      [
        "施",
        "設"
      ],
      [
        "一",
        "番"
      ],
      [
        "なく",
        "な"
      ],
      [
        "を",
        "取り"
      ],
      [
        "ニ",
        "ア"
      ],
      [
        "経",
        "験"
      ],
      [
        "がある",
        "。"
      ],
      [
        "こ",
        "んな"
      ],
      [
        "画",
        "像"
      ],
      [
        "お",
        "客様"
      ],
      [
        "ティ",
        "ング"
      ],
      [
        "パ",
        "ート"
      ],
      [
        "いて",
        "いる"
      ],
      [
        "中",
        "の"
      ],
      [
        "日",
        "、"
      ],
      [
        "ホ",
        "ーム"
      ],
      [
        "理",
        "由"
      ],
      [
        " ",
        "R"
      ],
      [
        "ス",
        "マ"
      ],
      [
        "様",
        "々な"
      ],
      [
        "期",
        "間"
      ],
      [
        "に",
        "て"
      ],
      [
        "デ",
        "ル"
      ],
      [
        "ティ",
        "ー"
      ],
      [
        "1",
        "年"
      ],
      [
        "ビ",
        "ー"
      ],
      [
        "ラ",
        "ク"
      ],
      [
        "気",
        "が"
      ],
      [
        "】",
        "\n"
      ],
      [
        "影",
        "響"
      ],
      [
        "i",
        "g"
      ],
      [
        "や",
        "って"
      ],
      [
        "I",
        "n"
      ],
      [
        "カ",
        "ル"
      ],
      [
        "ワ",
        "ー"
      ],
      [
        "t",
        "er"
      ],
      [
        "呼",
        "ば"
      ],
      [
        "は",
        "い"
      ],
      [
        "を行",
        "う"
      ],
      [
        "学",
        "校"
      ],
      [
        "させ",
        "る"
      ],
      [
        "人",
        "も"
      ],
      [
        "動",
        "画"
      ],
      [
        "ベ",
        "スト"
      ],
      [
        "言",
        "葉"
      ],
      [
        "上",
        "の"
      ],
      [
        "向",
        "け"
      ],
      [
        "at",
        "ion"
      ],
      [
        "に",
        "出"
      ],
      [
        "便",
        "利"
      ],
      [
        "にお",
        "ける"
      ],
      [
        "用",
        "の"
      ],
      [
        "や",
        "り"
      ],
      [
        "ジ",
        "ョ"
      ],
      [
        "も",
        "ある"
      ],
      [
        "体",
        "の"
      ],
      [
        "ワ",
        "ーク"
      ],
      [
        "す",
        "ぎ"
      ],
      [
        "は",
        " "
      ],
      [
        "ク",
        "レ"
      ],
      [
        "よ",
        "い"
      ],
      [
        "a",
        "v"
      ],
      [
        "u",
        "s"
      ],
      [
        "よう",
        "です。"
      ],
      [
        "本当",
        "に"
      ],
      [
        "ぞ",
        "れ"
      ],
      [
        "キャ",
        "ン"
      ],
      [
        "日",
        "に"
      ],
      [
        "）",
        "を"
      ],
      [
        "情報",
        "を"
      ],
      [
        "専",
        "門"
      ],
      [
        "で",
        "お"
      ],
      [
        "それ",
        "ぞれ"
      ],
      [
        "o",
        "s"
      ],
      [
        "ほ",
        "う"
      ],
      [
        "評",
        "価"
      ],
      [
        "のでは",
        "ない"
      ],
      [
        "u",
        "n"
      ],
      [
        "んで",
        "いる"
      ],
      [
        "i",
        "d"
      ],
      [
        "った",
        "り"
      ],
      [
        "せ",
        "る"
      ],
      [
        "参",
        "考"
      ],
      [
        "/",
        "0"
      ],
      [
        "ラン",
        "ス"
      ],
      [
        "に対",
        "して"
      ],
      [
        "業",
        "者"
      ],
      [
        "い",
        "を"
      ],
      [
        "間",
        "に"
      ],
      [
        "th",
        "e "
      ],
      [
        "クリ",
        "ック"
      ],
      [
        "e",
        "d "
      ],
      [
        "が",
        "多い"
      ],
      [
        "下さい",
        "。"
      ],
      [
        "にと",
        "って"
      ],
      [
        "よ",
        "。"
      ],
      [
        " ",
        "D"
      ],
      [
        "タ",
        "ル"
      ],
      [
        "英",
        "語"
      ],
      [
        "通",
        "常"
      ],
      [
        "普",
        "通"
      ],
      [
        "自",
        "身"
      ],
      [
        "私",
        "の"
      ],
      [
        "リ",
        "スト"
      ],
      [
        "まで",
        "の"
      ],
      [
        "た",
        "ら"
      ],
      [
        "]",
        "。"
      ],
      [
        "ind",
        "ow"
      ],
      [
        "ど",
        "んな"
      ],
      [
        "会",
        "員"
      ],
      [
        "に",
        "して"
      ],
      [
        "比",
        "較"
      ],
      [
        "金",
        "を"
      ],
      [
        "最",
        "も"
      ],
      [
        "は",
        "ず"
      ],
      [
        "ハ",
        "イ"
      ],
      [
        "一",
        "度"
      ],
      [
        "原",
        "因"
      ],
      [
        "ニ",
        "ング"
      ],
      [
        "完",
        "全"
      ],
      [
        "それ",
        "を"
      ],
      [
        "アド",
        "バイ"
      ],
      [
        "め",
        "、"
      ],
      [
        "を",
        "含"
      ],
      [
        "ー",
        "ター"
      ],
      [
        "条",
        "件"
      ],
      [
        "支",
        "払"
      ],
      [
        "ど",
        "こ"
      ],
      [
        "楽し",
        "み"
      ],
      [
        "処",
        "理"
      ],
      [
        "でしょう",
        "か。"
      ],
      [
        "万",
        "円"
      ],
      [
        "場合",
        "は、"
      ],
      [
        "2",
        "4"
      ],
      [
        "そ",
        "して、"
      ],
      [
        "申",
        "し"
      ],
      [
        "大",
        "切"
      ],
      [
        "W",
        "indow"
      ],
      [
        "と",
        "に"
      ],
      [
        "だ",
        "が、"
      ],
      [
        "も",
        "ので"
      ],
      [
        "チ",
        "ーム"
      ],
      [
        "する",
        "と、"
      ],
      [
        "自",
        "然"
      ],
      [
        "され",
        "る。"
      ],
      [
        "を",
        "受"
      ],
      [
        "安",
        "全"
      ],
      [
        "最",
        "大"
      ],
      [
        "テ",
        "レビ"
      ],
      [
        "最",
        "高"
      ],
      [
        "」",
        "が"
      ],
      [
        "初",
        "めて"
      ],
      [
        "セン",
        "ター"
      ],
      [
        "キ",
        "ュ"
      ],
      [
        "ド",
        "ラ"
      ],
      [
        "ニ",
        "ュ"
      ],
      [
        "位",
        "置"
      ],
      [
        "特",
        "徴"
      ],
      [
        "ール",
        "ド"
      ],
      [
        "い",
        "に"
      ],
      [
        "一",
        "緒"
      ],
      [
        "相",
        "談"
      ],
      [
        "2",
        "5"
      ],
      [
        "イ",
        "メージ"
      ],
      [
        "って",
        "い"
      ],
      [
        "と言",
        "う"
      ],
      [
        "用",
        "意"
      ],
      [
        "1",
        "00"
      ],
      [
        "ヴ",
        "ァ"
      ],
      [
        "対",
        "象"
      ],
      [
        "目",
        "の"
      ],
      [
        "サ",
        "ン"
      ],
      [
        "治",
        "療"
      ],
      [
        "って",
        "お"
      ],
      [
        "されている",
        "。"
      ],
      [
        "サイ",
        "ズ"
      ],
      [
        "ッ",
        "グ"
      ],
      [
        "バ",
        "ス"
      ],
      [
        "が",
        "見"
      ],
      [
        "立",
        "ち"
      ],
      [
        "これ",
        "らの"
      ],
      [
        "い",
        "の"
      ],
      [
        "定",
        "の"
      ],
      [
        "シ",
        "ェ"
      ],
      [
        "）",
        " "
      ],
      [
        "ま",
        "る"
      ],
      [
        "リー",
        "ズ"
      ],
      [
        "名",
        "前"
      ],
      [
        "よう",
        "に、"
      ],
      [
        "あり",
        "が"
      ],
      [
        "に対",
        "する"
      ],
      [
        "更",
        "新"
      ],
      [
        "セ",
        "ックス"
      ],
      [
        "パ",
        "ソ"
      ],
      [
        "モ",
        "ン"
      ],
      [
        "ライ",
        "ブ"
      ],
      [
        "ました",
        "が、"
      ],
      [
        "内",
        "の"
      ],
      [
        "ご",
        "利用"
      ],
      [
        "です",
        "が"
      ],
      [
        "を",
        "実"
      ],
      [
        "シ",
        "ン"
      ],
      [
        "けど",
        "、"
      ],
      [
        "事",
        "を"
      ],
      [
        "T",
        "h"
      ],
      [
        "パソ",
        "コン"
      ],
      [
        "出",
        "す"
      ],
      [
        "！",
        "！"
      ],
      [
        "彼",
        "女"
      ],
      [
        "計",
        "画"
      ],
      [
        "調",
        "査"
      ],
      [
        "無",
        "い"
      ],
      [
        "ル",
        "ーム"
      ],
      [
        "投",
        "稿"
      ],
      [
        "が",
        "あり、"
      ],
      [
        "の",
        "上"
      ],
      [
        "き",
        "て"
      ],
      [
        "作",
        "業"
      ],
      [
        "物",
        "の"
      ],
      [
        "プロ",
        "グラ"
      ],
      [
        "公",
        "開"
      ],
      [
        "じゃ",
        "ない"
      ],
      [
        "と",
        "同じ"
      ],
      [
        "家",
        "族"
      ],
      [
        "歴",
        "史"
      ],
      [
        "en",
        "t"
      ],
      [
        "に",
        "する"
      ],
      [
        "ア",
        "ニ"
      ],
      [
        "え",
        "ない"
      ],
      [
        "を",
        "つ"
      ],
      [
        "終",
        "わ"
      ],
      [
        "さん",
        "の"
      ],
      [
        "言",
        "う"
      ],
      [
        "も",
        "あります。"
      ],
      [
        "を持",
        "つ"
      ],
      [
        "掲",
        "示"
      ],
      [
        "4",
        "0"
      ],
      [
        "ヤ",
        "ー"
      ],
      [
        "u",
        "m"
      ],
      [
        "健",
        "康"
      ],
      [
        "ギ",
        "ー"
      ],
      [
        "や",
        "は"
      ],
      [
        "それ",
        "が"
      ],
      [
        "す",
        "れば"
      ],
      [
        "イ",
        "ド"
      ],
      [
        "ヴ",
        "ィ"
      ],
      [
        "切",
        "り"
      ],
      [
        "レ",
        "ベル"
      ],
      [
        "an",
        "d "
      ],
      [
        "ま",
        "った"
      ],
      [
        "消",
        "費"
      ],
      [
        "：",
        "\n"
      ],
      [
        "自",
        "由"
      ],
      [
        "ト",
        "ップ"
      ],
      [
        "連",
        "絡"
      ],
      [
        "ビジ",
        "ネス"
      ],
      [
        "u",
        "b"
      ],
      [
        "す",
        "す"
      ],
      [
        "は",
        "じ"
      ],
      [
        "いた",
        "します。"
      ],
      [
        "でき",
        "る。"
      ],
      [
        "イン",
        "スト"
      ],
      [
        "を",
        "開"
      ],
      [
        "サ",
        "ポート"
      ],
      [
        "バ",
        "ル"
      ],
      [
        "体",
        "験"
      ],
      [
        "を",
        "取"
      ],
      [
        "私",
        "たち"
      ],
      [
        "1",
        "."
      ],
      [
        "選",
        "択"
      ],
      [
        "ア",
        "ウ"
      ],
      [
        "ヘ",
        "ル"
      ],
      [
        "発",
        "売"
      ],
      [
        "入",
        "力"
      ],
      [
        "大",
        "変"
      ],
      [
        " ",
        "B"
      ],
      [
        "I",
        "S"
      ],
      [
        "ケ",
        "ース"
      ],
      [
        "画",
        "面"
      ],
      [
        "ず",
        "に"
      ],
      [
        "る",
        "と、"
      ],
      [
        "十",
        "分"
      ],
      [
        "i",
        "v"
      ],
      [
        "o",
        "d"
      ],
      [
        "な",
        "し"
      ],
      [
        "シ",
        "ング"
      ],
      [
        "簡単",
        "に"
      ],
      [
        "なく",
        "て"
      ],
      [
        "い",
        "は"
      ],
      [
        "事",
        "業"
      ],
      [
        "交",
        "換"
      ],
      [
        "ディ",
        "ア"
      ],
      [
        "し",
        "ゃ"
      ],
      [
        "e",
        "w"
      ],
      [
        "掲示",
        "板"
      ],
      [
        "すべて",
        "の"
      ],
      [
        "か",
        "く"
      ],
      [
        "人",
        "に"
      ],
      [
        "しま",
        "しょう。"
      ],
      [
        "ゆ",
        "る"
      ],
      [
        "を",
        "得"
      ],
      [
        "次",
        "の"
      ],
      [
        "セ",
        "ット"
      ],
      [
        "し",
        "っかり"
      ],
      [
        "を",
        "通"
      ],
      [
        "わ",
        "れた"
      ],
      [
        "l",
        "e "
      ],
      [
        "リ",
        "ス"
      ],
      [
        "か",
        "る"
      ],
      [
        "ら",
        "せ"
      ],
      [
        "ウ",
        "ス"
      ],
      [
        "接",
        "続"
      ],
      [
        "すす",
        "め"
      ],
      [
        ":",
        "\n"
      ],
      [
        "続",
        "き"
      ],
      [
        "文",
        "字"
      ],
      [
        "部",
        "の"
      ],
      [
        "希",
        "望"
      ],
      [
        "プ",
        "ション"
      ],
      [
        "ロ",
        "ック"
      ],
      [
        "々",
        "の"
      ],
      [
        "か",
        "つ"
      ],
      [
        "こと",
        "に"
      ],
      [
        "作",
        "成"
      ],
      [
        "of",
        " "
      ],
      [
        "攻",
        "撃"
      ],
      [
        "をご",
        "利用"
      ],
      [
        "必",
        "ず"
      ],
      [
        "好き",
        "な"
      ],
      [
        "3",
        " "
      ],
      [
        "O",
        "S"
      ],
      [
        "え",
        "ます。"
      ],
      [
        "理",
        "解"
      ],
      [
        "考",
        "える"
      ],
      [
        "ト",
        "ル"
      ],
      [
        "イ",
        "ス"
      ],
      [
        "8",
        "0"
      ],
      [
        "き",
        "たい"
      ],
      [
        "風",
        "俗"
      ],
      [
        "すぐ",
        "に"
      ],
      [
        "i",
        "m"
      ],
      [
        "ニ",
        "ック"
      ],
      [
        "何",
        "か"
      ],
      [
        "有",
        "名"
      ],
      [
        "もの",
        "を"
      ],
      [
        "実際",
        "に"
      ],
      [
        "ジ",
        "ン"
      ],
      [
        "学",
        "生"
      ],
      [
        "20",
        "10"
      ],
      [
        ">",
        " "
      ],
      [
        "ば",
        "かり"
      ],
      [
        "ウ",
        "ォ"
      ],
      [
        "ッ",
        "フ"
      ],
      [
        "海",
        "外"
      ],
      [
        "強",
        "い"
      ],
      [
        "2",
        " "
      ],
      [
        "…",
        "…"
      ],
      [
        "ながら",
        "、"
      ],
      [
        "そう",
        "です。"
      ],
      [
        "だけ",
        "ど"
      ],
      [
        "ため",
        "に、"
      ],
      [
        "け",
        "ない"
      ],
      [
        "ま",
        "と"
      ],
      [
        "ワ",
        "ード"
      ],
      [
        "ダウン",
        "ロード"
      ],
      [
        "i",
        "\n"
      ],
      [
        "が",
        "あります"
      ],
      [
        "に",
        "「"
      ],
      [
        "変",
        "化"
      ],
      [
        "注",
        "文"
      ],
      [
        "最",
        "適"
      ],
      [
        "レ",
        "スト"
      ],
      [
        "いろ",
        "いろ"
      ],
      [
        "ガ",
        "ー"
      ],
      [
        "営",
        "業"
      ],
      [
        "ジ",
        "ット"
      ],
      [
        "ド",
        "ル"
      ],
      [
        "移",
        "動"
      ],
      [
        "かもしれ",
        "ません。"
      ],
      [
        "バ",
        "ック"
      ],
      [
        "8",
        "年"
      ],
      [
        "り",
        "ます"
      ],
      [
        "範",
        "囲"
      ],
      [
        "す",
        "ご"
      ],
      [
        "契",
        "約"
      ],
      [
        "機",
        "関"
      ],
      [
        "落",
        "ち"
      ],
      [
        "モ",
        "デル"
      ],
      [
        "ー",
        "カー"
      ],
      [
        "u",
        "t"
      ],
      [
        "が",
        "\n"
      ],
      [
        "ブ",
        "ログ"
      ],
      [
        "って",
        "しまう"
      ],
      [
        "ー",
        "ズ"
      ],
      [
        "中",
        "心"
      ],
      [
        "P",
        "C"
      ],
      [
        "あ",
        "ら"
      ],
      [
        "ん",
        "です。"
      ],
      [
        "番",
        "号"
      ],
      [
        "とな",
        "ります。"
      ],
      [
        "テ",
        "ク"
      ],
      [
        "やは",
        "り"
      ],
      [
        "あ",
        "げ"
      ],
      [
        "問",
        "い"
      ],
      [
        "国",
        "際"
      ],
      [
        "o",
        "."
      ],
      [
        "では",
        "なく、"
      ],
      [
        "食",
        "事"
      ],
      [
        "日",
[...]
