{"kind": "bpe_edu", "version": "bpe_edu_v1", "itos": ["<PAD>", "<UNK>", "<BOS>", "<EOS>", "<USER>", "<ASSISTANT>", "\t", "\n", " ", "!", "\"", "#", "$", "%", "&", "'", "(", ")", "+", ",", "-", ".", "/", "0", "1", "2", "3", "4", "5", "6", "7", "8", "9", ":", ";", "<", "=", ">", "A", "B", "C", "D", "E", "F", "G", "H", "I", "J", "K", "L", "M", "N", "O", "P", "Q", "R", "S", "T", "U", "V", "W", "X", "Y", "Z", "[", "]", "^", "_", "a", "b", "c", "d", "e", "f", "g", "h", "i", "j", "k", "l", "m", "n", "o", "p", "q", "r", "s", "t", "u", "v", "w", "x", "y", "z", "«", "°", "±", "»", "ä", "è", "é", "ê", "ô", "ö", "ē", "ɯ", "˔", "˕", "̈", "̜", "̠", "̹", "ᵝ", "ṓ", "‐", "–", "―", "’", "…", "‰", "※", "⁊", "℃", "→", "∋", "①", "②", "③", "④", "○", "　", "、", "。", "々", "〈", "〉", "《", "》", "「", "」", "『", "』", "【", "】", "〔", "〕", "〜", "ぁ", "あ", "ぃ", "い", "ぅ", "う", "ぇ", "え", "ぉ", "お", "か", "が", "き", "ぎ", "く", "ぐ", "け", "げ", "こ", "ご", "さ", "ざ", "し", "じ", "す", "ず", "せ", "ぜ", "そ", "ぞ", "た", "だ", "ち", "ぢ", "っ", "つ", "づ", "て", "で", "と", "ど", "な", "に", "ぬ", "ね", "の", "は", "ば", "ぱ", "ひ", "び", "ぴ", "ふ", "ぶ", "へ", "べ", "ほ", "ぼ", "ぽ", "ま", "み", "む", "め", "も", "ゃ", "や", "ゅ", "ゆ", "ょ", "よ", "ら", "り", "る", "れ", "ろ", "ゎ", "わ", "ゐ", "ゑ", "を", "ん", "゛", "゜", "ァ", "ア", "ィ", "イ", "ゥ", "ウ", "ェ", "エ", "ォ", "オ", "カ", "ガ", "キ", "ギ", "ク", "グ", "ケ", "ゲ", "コ", "ゴ", "サ", "ザ", "シ", "ジ", "ス", "ズ", "セ", "ゼ", "ソ", "ゾ", "タ", "ダ", "チ", "ッ", "ツ", "ヅ", "テ", "デ", "ト", "ド", "ナ", "ニ", "ヌ", "ネ", "ノ", "ハ", "バ", "パ", "ヒ", "ビ", "ピ", "フ", "ブ", "プ", "ヘ", "ベ", "ペ", "ホ", "ボ", "ポ", "マ", "ミ", "ム", "メ", "モ", "ャ", "ヤ", "ュ", "ユ", "ョ", "ヨ", "ラ", "リ", "ル", "レ", "ロ", "ヮ", "ワ", "ヰ", "ヱ", "ヲ", "ン", "ヴ", "ヵ", "ヶ", "・", "ー", "ㅡ", "一", "丁", "七", "万", "丈", "三", "上", "下", "不", "与", "世", "丘", "丙", "両", "並", "中", "丸", "丹", "主", "乃", "久", "之", "乎", "乏", "乖", "乗", "乙", "九", "乞", "也", "乱", "乾", "了", "予", "争", "事", "二", "云", "互", "五", "井", "些", "亜", "亡", "交", "享", "京", "亭", "人", "仁", "今", "介", "仏", "仕", "他", "付", "仙", "代", "令", "以", "仮", "仰", "仲", "件", "任", "企", "伊", "伏", "伐", "休", "会", "伝", "伯", "伴", "伸", "伺", "似", "伽", "但", "位", "低", "住", "佐", "体", "何", "佗", "余", "作", "併", "使", "例", "侍", "供", "依", "価", "侮", "侵", "侶", "便", "係", "促", "俄", "俊", "俗", "保", "信", "俥", "修", "俯", "俳", "俸", "倉", "個", "倍", "倒", "候", "借", "倣", "値", "倦", "倫", "倭", "偉", "偏", "停", "健", "側", "偶", "偸", "偽", "傍", "傑", "傘", "備", "傚", "催", "傭", "傳", "債", "傷", "傾", "僅", "働", "像", "僑", "僕", "僧", "僻", "儀", "億", "儒", "償", "優", "儲", "元", "兄", "充", "兆", "先", "光", "免", "児", "党", "入", "全", "八", "公", "六", "共", "兵", "具", "典", "兼", "内", "円", "冊", "再", "冒", "冗", "写", "冠", "冥", "冬", "冴", "冷", "冽", "凄", "凋", "凌", "凍", "凝", "几", "凡", "処", "凱", "凸", "凹", "出", "刀", "分", "切", "刈", "刊", "刑", "列", "初", "判", "別", "利", "到", "制", "刷", "刹", "刺", "刻", "剃", "則", "削", "前", "剛", "剣", "剥", "副", "割", "創", "劃", "劇", "力", "功", "加", "劣", "助", "努", "劫", "励", "労", "効", "勃", "勇", "勉", "動", "勘", "務", "勝", "募", "勢", "勤", "勧", "勾", "勿", "匂", "包", "匍", "匐", "化", "北", "匠", "匹", "区", "医", "十", "千", "午", "半", "卑", "卒", "卓", "協", "南", "単", "博", "卜", "占", "印", "危", "即", "却", "卵", "厄", "厘", "厚", "原", "厠", "厩", "厭", "厳", "去", "参", "又", "及", "友", "双", "反", "収", "叔", "取", "受", "叙", "口", "古", "句", "只", "叫", "召", "可", "台", "叱", "史", "右", "号", "司", "吃", "各", "合", "吉", "同", "名", "吐", "向", "君", "吟", "吠", "否", "含", "吸", "吹", "吻", "呂", "呈", "呉", "告", "呑", "周", "呪", "味", "呼", "命", "咀", "咄", "和", "咲", "咽", "哀", "品", "哉", "員", "哲", "唄", "唆", "唇", "唐", "唯", "唱", "唸", "唾", "商", "問", "啓", "啜", "善", "喉", "喋", "喜", "喧", "喩", "喫", "喬", "喰", "営", "嗅", "嗜", "嗟", "嗣", "嘆", "嘉", "嘔", "嘗", "嘘", "嘩", "嘲", "噂", "噛", "器", "嚆", "嚇", "嚢", "嚮", "嚼", "囈", "四", "回", "因", "団", "困", "囲", "図", "固", "国", "國", "圏", "園", "土", "圧", "在", "地", "坂", "均", "坊", "坐", "坦", "坪", "垂", "型", "垢", "垣", "垰", "埋", "城", "埒", "域", "執", "培", "基", "埼", "堀", "堂", "堅", "堆", "堪", "報", "場", "塀", "塊", "塔", "塗", "塚", "塞", "塩", "塵", "塾", "境", "墓", "増", "墨", "墳", "墾", "壁", "壇", "壊", "壌", "士", "声", "売", "変", "夏", "夕", "外", "多", "夜", "夢", "大", "天", "太", "夫", "央", "失", "夷", "奄", "奇", "奈", "奉", "奏", "契", "套", "奢", "奥", "奪", "奮", "女", "奴", "好", "如", "妃", "妊", "妙", "妥", "妨", "妬", "妹", "妻", "妾", "姉", "始", "姓", "委", "姦", "姻", "姿", "威", "娑", "娘", "娠", "娯", "婆", "婉", "婚", "婦", "媒", "媚", "媛", "嫁", "嫉", "嫌", "嬉", "嬌", "嬢", "子", "孔", "字", "存", "孝", "季", "孤", "学", "孫", "宅", "宇", "守", "安", "宋", "完", "宗", "官", "宙", "定", "宛", "宜", "宝", "実", "客", "宣", "室", "宮", "害", "宵", "家", "容", "宿", "寂", "寄", "密", "富", "寒", "寛", "寝", "察", "寡", "寧", "審", "寮", "寸", "寺", "対", "寿", "封", "専", "射", "将", "尊", "尋", "導", "小", "少", "尓", "尖", "尚", "就", "尺", "尻", "尽", "尾", "尿", "局", "居", "屈", "届", "屋", "屑", "展", "属", "層", "履", "山", "屹", "岐", "岡", "岩", "岳", "岸", "峙", "峠", "峡", "峯", "島", "峻", "崎", "崖", "崩", "嶋", "嶺", "川", "州", "巡", "工", "左", "巧", "巨", "差", "己", "已", "巴", "巷", "巻", "巾", "市", "布", "帆", "希", "帝", "師", "席", "帯", "帰", "帳", "常", "帽", "幅", "幕", "幡", "干", "平", "年", "幸", "幹", "幼", "幽", "幾", "庁", "広", "庄", "庇", "床", "序", "底", "店", "府", "度", "座", "庫", "庭", "庶", "康", "廂", "廃", "廉", "廊", "廓", "廠", "延", "廷", "建", "廻", "廿", "弁", "弄", "弊", "式", "引", "弘", "弛", "弟", "弦", "弧", "弱", "張", "強", "弾", "彌", "当", "彙", "形", "彦", "彩", "彫", "影", "彷", "役", "彼", "往", "征", "待", "律", "後", "徐", "徒", "従", "得", "御", "徨", "復", "循", "微", "徳", "徴", "徹", "徽", "心", "必", "忌", "忍", "志", "忘", "忙", "応", "忠", "快", "念", "忽", "怒", "怖", "怜", "思", "怠", "急", "性", "怪", "怯", "恋", "恐", "恒", "恣", "恥", "恨", "恩", "恭", "息", "恰", "悄", "悉", "悔", "悟", "悠", "悦", "悧", "悩", "悪", "悲", "悵", "悶", "悼", "情", "惑", "惚", "惜", "惧", "惨", "惰", "想", "惹", "愁", "愉", "意", "愚", "愛", "感", "慄", "慈", "態", "慎", "慢", "慣", "慥", "慮", "慰", "慶", "憎", "憐", "憚", "憤", "憧", "憩", "憬", "憲", "憶", "憾", "懇", "應", "懊", "懐", "懸", "成", "我", "戒", "或", "戚", "戟", "戦", "截", "戯", "戴", "戸", "戻", "房", "所", "扁", "扇", "扉", "手", "才", "打", "払", "托", "扱", "扶", "批", "承", "技", "抄", "把", "抑", "投", "抗", "折", "抜", "択", "抱", "抵", "押", "抽", "担", "拉", "拍", "拒", "拓", "拗", "拘", "拙", "招", "拝", "拠", "拡", "括", "拭", "拱", "拳", "拵", "拶", "拾", "持", "指", "挙", "挟", "挨", "挫", "振", "挿", "捉", "捌", "捕", "捧", "据", "捲", "捷", "授", "掌", "排", "掘", "掛", "掠", "採", "探", "接", "控", "推", "措", "掲", "掻", "揃", "揉", "描", "提", "揚", "換", "握", "揮", "援", "揺", "損", "搏", "搬", "携", "摂", "摘", "摩", "摺", "撃", "撒", "撥", "播", "撮", "撰", "撻", "擁", "操", "擦", "擬", "擱", "擲", "攫", "支", "改", "攻", "放", "政", "故", "敏", "救", "敗", "教", "敢", "散", "敬", "数", "整", "敵", "敷", "斃", "文", "斎", "斐", "料", "斜", "斥", "斧", "断", "斯", "新", "方", "於", "施", "旅", "旋", "族", "旗", "既", "日", "旦", "旧", "旨", "早", "旬", "昂", "昆", "昇", "明", "昏", "易", "昔", "星", "映", "春", "昧", "昨", "昭", "昼", "時", "晋", "晩", "普", "景", "晰", "晴", "暇", "暈", "暑", "暖", "暗", "暢", "暦", "暮", "暴", "曇", "曖", "曜", "曝", "曠", "曲", "曳", "更", "書", "曼", "曽", "替", "最", "月", "有", "朋", "服", "朕", "朖", "望", "朝", "期", "朦", "朧", "木", "未", "末", "本", "札", "朱", "朴", "机", "朽", "杁", "杉", "李", "杏", "材", "村", "杖", "束", "条", "来", "杯", "東", "松", "板", "析", "枕", "林", "枚", "果", "枝", "枠", "枯", "枳", "柄", "染", "柔", "柘", "柯", "柱", "柳", "査", "柿", "栃", "栄", "栗", "校", "株", "核", "根", "格", "栽", "桃", "案", "桜", "梅", "梗", "梢", "梨", "梯", "械", "梵", "棄", "棋", "棒", "棘", "棚", "棟", "森", "椀", "椅", "植", "椎", "検", "椿", "楊", "楓", "楫", "業", "極", "楷", "楽", "概", "榜", "榴", "構", "様", "槻", "標", "模", "権", "横", "樫", "樹", "樺", "橋", "機", "檀", "檻", "櫓", "欄", "欝", "欠", "次", "欧", "欲", "欺", "款", "歇", "歌", "歐", "歓", "歟", "止", "正", "此", "武", "歩", "歯", "歳", "歴", "死", "殊", "残", "殖", "殴", "段", "殺", "殻", "殿", "毀", "母", "毎", "毒", "比", "毛", "毫", "氏", "民", "気", "水", "氷", "永", "求", "汗", "汚", "江", "池", "汰", "汲", "決", "汽", "沁", "沃", "沈", "沓", "沖", "沙", "沢", "河", "油", "治", "沼", "沿", "況", "泄", "泉", "泊", "法", "泡", "波", "泣", "泥", "注", "泰", "泳", "洋", "洒", "洗", "洞", "津", "洩", "洲", "活", "派", "流", "浄", "浅", "浚", "浜", "浣", "浦", "浪", "浮", "浴", "海", "浸", "消", "涙", "涯", "液", "涼", "淆", "淋", "淡", "淤", "深", "淵", "混", "添", "清", "渇", "済", "渉", "渋", "渓", "減", "渠", "渡", "渦", "温", "測", "港", "湊", "湖", "湧", "湯", "湾", "湿", "満", "源", "準", "溜", "溝", "溢", "溶", "溺", "滅", "滑", "滝", "滞", "滲", "滴", "漁", "漂", "漆", "漏", "演", "漕", "漠", "漢", "漫", "漬", "漲", "漸", "潔", "潜", "潟", "潮", "潰", "澄", "激", "濁", "濃", "濡", "濫", "濯", "瀕", "瀾", "火", "灯", "灰", "災", "炉", "炊", "炬", "炭", "点", "為", "烈", "烟", "焚", "無", "焦", "然", "焼", "煉", "煎", "煤", "照", "煩", "煮", "煽", "熊", "熟", "熱", "熾", "燃", "燈", "燥", "燵", "燻", "爆", "爪", "爵", "父", "爾", "片", "版", "牛", "牢", "牧", "物", "牲", "特", "犀", "犠", "犬", "犯", "状", "狂", "狐", "狙", "狡", "独", "狭", "狼", "狽", "猛", "猜", "猥", "猫", "献", "猶", "猾", "猿", "獄", "獲", "玄", "率", "玉", "王", "玩", "珀", "珍", "珠", "現", "球", "理", "琉", "琥", "琴", "琵", "琶", "瑣", "環", "瓦", "瓶", "甘", "甚", "生", "産", "用", "田", "由", "甲", "申", "男", "町", "画", "界", "畏", "畑", "留", "畜", "畠", "略", "番", "異", "畳", "畷", "畿", "疇", "疎", "疑", "疲", "疳", "疾", "病", "症", "痕", "痛", "痴", "痺", "瘠", "療", "癇", "癒", "癖", "癪", "発", "登", "白", "百", "的", "皆", "皇", "皮", "盃", "盆", "益", "盗", "盛", "盟", "監", "盤", "盥", "目", "盲", "直", "相", "盾", "省", "眉", "看", "県", "眞", "真", "眠", "眩", "眺", "眼", "着", "睡", "督", "睥", "睦", "睨", "瞑", "瞥", "瞬", "瞭", "瞰", "瞳", "瞼", "矛", "矢", "知", "短", "矮", "矯", "石", "砂", "研", "砕", "砦", "砲", "破", "硝", "硬", "碁", "碌", "碑", "碗", "確", "磁", "磯", "礎", "示", "礼", "社", "祇", "祈", "祖", "祚", "祝", "神", "祟", "祥", "祭", "禁", "禄", "福", "禿", "秀", "私", "秋", "科", "秒", "秘", "租", "秤", "秩", "称", "移", "稀", "程", "税", "稚", "種", "稲", "稽", "稿", "穀", "積", "穎", "穏", "穫", "穴", "究", "空", "穿", "突", "窃", "窒", "窓", "窘", "窮", "窺", "立", "竜", "竟", "章", "童", "竦", "竪", "端", "競", "竹", "竿", "笑", "笛", "笠", "笥", "符", "第", "笹", "筆", "等", "筋", "筑", "答", "策", "箇", "箒", "算", "管", "箪", "箱", "箸", "節", "範", "篆", "篇", "築", "篏", "篤", "簡", "簿", "籍", "籠", "米", "粉", "粋", "粒", "粗", "粘", "粛", "粥", "精", "糊", "糖", "糞", "糠", "糸", "糺", "系", "糾", "紀", "約", "紅", "紆", "紋", "納", "紐", "純", "紗", "紙", "級", "紛", "素", "紡", "索", "紫", "細", "紳", "紹", "紺", "終", "組", "絆", "経", "結", "絡", "絣", "給", "統", "絵", "絶", "絹", "継", "続", "綜", "維", "綱", "網", "綴", "綺", "綿", "緊", "総", "緑", "緒", "線", "締", "編", "緩", "緯", "練", "縁", "縄", "縊", "縋", "縛", "縦", "縫", "縮", "縺", "績", "繁", "繊", "繋", "織", "繕", "繙", "繰", "繻", "纂", "纏", "罪", "罫", "置", "罰", "罵", "罹", "羅", "羊", "美", "羞", "群", "羨", "義", "羽", "翌", "習", "翰", "翳", "翻", "翼", "老", "考", "者", "耆", "而", "耐", "耕", "耳", "耽", "聊", "聖", "聚", "聞", "聟", "聳", "聴", "職", "肉", "肌", "肝", "股", "肢", "肥", "肩", "肯", "肱", "育", "肴", "胃", "胆", "背", "胞", "胡", "胴", "胸", "能", "脂", "脅", "脆", "脇", "脈", "脚", "脱", "脳", "腋", "腎", "腐", "腕", "腥", "腰", "腸", "腹", "膚", "膜", "膝", "膠", "膨", "膳", "臆", "臓", "臣", "臥", "臨", "自", "臭", "至", "致", "興", "舌", "舎", "舗", "舞", "舟", "航", "般", "船", "良", "艱", "色", "艶", "芍", "芝", "芥", "花", "芳", "芸", "芽", "苑", "苔", "苗", "苛", "苞", "若", "苦", "英", "茂", "茎", "茨", "茫", "茶", "茸", "草", "荊", "荒", "荘", "荷", "荼", "菅", "菊", "菌", "菓", "華", "菱", "萌", "萎", "萬", "落", "葉", "著", "葡", "董", "葬", "葱", "葺", "蒐", "蒙", "蒟", "蒲", "蒴", "蒸", "蒻", "蒼", "蓄", "蓊", "蓋", "蓮", "蔑", "蔓", "蔭", "蔵", "蔽", "蕎", "薄", "薇", "薔", "薩", "薬", "藁", "藉", "藍", "藤", "藩", "藻", "蘇", "蘚", "蘭", "虐", "虚", "虫", "蚊", "蛇", "蛋", "蛮", "蜂", "蝉", "蝨", "融", "螺", "蟇", "蟠", "蠅", "血", "衆", "行", "衍", "術", "街", "衛", "衝", "衢", "衣", "表", "衰", "袂", "袋", "袖", "被", "袴", "裁", "裂", "装", "裏", "裕", "補", "裳", "裸", "裹", "製", "裾", "複", "褐", "褒", "襖", "襟", "襯", "襲", "襷", "西", "要", "覆", "覇", "見", "規", "視", "覗", "覘", "覚", "覧", "親", "観", "角", "解", "触", "言", "訂", "計", "訊", "討", "訐", "訓", "記", "訟", "訣", "訪", "設", "許", "訳", "訴", "診", "証", "詐", "評", "詞", "詠", "試", "詩", "詫", "詰", "話", "該", "詳", "誇", "誉", "誌", "認", "誓", "誕", "誘", "語", "誠", "誤", "誦", "説", "読", "誰", "課", "調", "談", "請", "論", "諦", "諧", "諮", "諷", "諸", "諺", "諾", "謀", "謙", "講", "謝", "謡", "謨", "謳", "識", "譜", "警", "議", "譲", "護", "讃", "讐", "谷", "豆", "豊", "豌", "象", "豪", "貌", "貝", "貞", "負", "財", "貢", "貧", "貨", "販", "貪", "貫", "責", "貯", "貰", "貴", "買", "貸", "費", "貼", "貿", "賀", "資", "賑", "賛", "賜", "賞", "賢", "質", "購", "贅", "贈", "赤", "赦", "赧", "走", "起", "超", "越", "趣", "足", "距", "跟", "跡", "跨", "跪", "路", "跳", "践", "踊", "踏", "踵", "蹟", "蹴", "躅", "躇", "躊", "躍", "躑", "身", "躾", "車", "軋", "軍", "軒", "軟", "転", "軸", "軽", "較", "載", "輔", "輛", "輝", "輩", "輪", "輸", "轄", "轢", "辛", "辞", "辭", "辱", "農", "辺", "辻", "込", "辿", "迂", "迅", "迎", "近", "返", "迫", "述", "迷", "迹", "追", "退", "送", "逃", "逅", "逆", "逍", "透", "途", "這", "通", "速", "造", "逢", "連", "週", "進", "逸", "逼", "遁", "遂", "遅", "遇", "遊", "運", "遍", "過", "道", "達", "違", "遜", "遠", "遡", "遣", "遥", "適", "遮", "遷", "選", "遺", "避", "邂", "邃", "還", "那", "邦", "邪", "邸", "郊", "郎", "部", "郵", "郷", "都", "鄙", "鄭", "酌", "配", "酒", "酔", "酬", "酵", "酷", "酸", "醒", "采", "釈", "里", "重", "野", "量", "金", "釘", "釜", "針", "釣", "鈍", "鈴", "鉄", "鉛", "鉢", "鉱", "銀", "銅", "銘", "銚", "銭", "鋒", "鋭", "鋳", "錆", "錘", "錯", "録", "鍬", "鍵", "鎌", "鎖", "鎮", "鏡", "鑑", "長", "門", "閉", "開", "閑", "間", "閘", "関", "閣", "閻", "闇", "闊", "闘", "阪", "防", "阻", "阿", "附", "降", "限", "陛", "院", "除", "陥", "陰", "陳", "陵", "陸", "険", "陽", "隅", "隆", "隈", "隊", "階", "随", "隔", "隙", "際", "障", "隠", "隣", "隷", "雄", "雅", "集", "雇", "雌", "雑", "離", "難", "雨", "雪", "雫", "雰", "雲", "零", "雷", "電", "需", "震", "霊", "霖", "霜", "霞", "霧", "露", "青", "静", "非", "靠", "面", "革", "靴", "鞄", "鞘", "鞭", "韓", "音", "韻", "響", "頁", "頂", "頃", "項", "順", "須", "預", "頑", "頓", "頗", "領", "頬", "頭", "頸", "頻", "頼", "顋", "題", "額", "顔", "顕", "願", "顚", "顛", "類", "顧", "顫", "風", "飛", "食", "飯", "飲", "飴", "飼", "飽", "飾", "餅", "養", "餐", "館", "饉", "饑", "首", "香", "馬", "馳", "馴", "駁", "駄", "駅", "駆", "駈", "駐", "駒", "騒", "験", "騙", "騨", "驚", "骨", "髄", "高", "髪", "髭", "髯", "鬱", "魂", "魔", "魚", "魯", "鮮", "鯛", "鱗", "鳥", "鳴", "鳶", "鶏", "鶯", "鷹", "鹹", "鹿", "麗", "麦", "麻", "麿", "黄", "黒", "黙", "黴", "鼎", "鼓", "鼻", "齋", "齟", "齢", "齬", "龍", "！", "％", "（", "）", "＋", "，", "－", "／", "１", "２", "：", "＝", "？", "Ｋ", "＼", "～", "た。", "てい", "る。", "した。", "ない", "から", "して", "私は", "って", "った", "は、", "った。", "ので", "する", "その", "とい", "よう", "す。", "ました。", "であ", "した", "それ", "され", "さん", "が、", "先生", "のです。", "られ", "など", "という", "には", "ってい", "なか", "日本", "にな", "私の", "もの", "してい", "こと", "いて", "また", "この", "に、", "パリ", "り、", "ある", "では", "」「", "でも", "」\n", "んで", "そう", "しか", "奥さん", "」と", "言語", "日本語", "として", "ませ", "ると", " \n", "があ", "ように", "これ", "とも", "、「", "によ", "なく", "なかった。", "である。", "ため", "って、", "」の", "しい", "ラン", "で、", "自分", "ません", "し、", "にも", "われ", "けれ", "考え", "ような", "いた", "言葉", "まで", "しかし", "から、", "んだ", "より", "の中", "なかった", "でき", "  ", "しょ", "だけ", "ろう", "地理", "も、", "どう", "て、", "んな", "らない", "るの", "19", "ている。", "事を", "先生の", "ール", "　私は", "を見", "いう", "あな", "では、", "ること", "であった。", "しょう", "）\n", "用い", "です", "と、", "あなた", "ただ", "先生は", "うち", "あり", "ている", "ある。", "もので", "でした。", "お嬢", "場合", "地理学", "フラン", "お嬢さん", "人の", "語の", "につ", "と思", "時代", "こう", "ば、", "である", "ほど", "する。", "しま", "方言", "私が", "私に", "にお", "っている", "か、", "通り", "とな", "植物", "同じ", "00", "動詞", "研究", "ない。", ". ", "りました。", "などの", "して、", "ント", "れた", "それを", "ころ", "自分の", "多く", "ると、", "ません。", "彼の", "フランス", "そこ", "的な", "文字", "について", "だろう", "している", "られる", "ーロ", "しました。", "に対", "れる", "いた。", "ら、", "ます。", "っと", "けれど", "なが", "父の", "ようにな", "なる", "ッパ", "らい", "は「", "には、", "しく", "される", "ーロッパ", "ヨーロッパ", "まだ", "ができ", "いました。", "意味", ", ", "その時", "ゴケ", "Ｋは", "そうして", "およ", "ていた。", "の方", "」を", "仮名", "の間", "された", "ける", "学校", "はい", "える", "）。", "私には", "東京", "存在", "世界", "たのです。", "い。", "的に", "ます", "および", "日本語の", "前に", "セント", "ところ", "がある", "奥さんは", "地域", "ったのです。", "受け", "少し", "によって", "なら", "すぐ", "している。", "世紀", "の上", "において", "じゃ", "e ", "取り", "がある。", "付け", "めて", "また、", "ませんで", "なけれ", "っている。", "大き", "であり、", "って来", "いる", "答え", "私を", "現在", "父は", "かり", "よく", "もう", "の一", "だから", "」など", "関係", "語を", "人間", "のです", "です。", "すること", "形容", "18", "を、", "られる。", "どこ", "ていた", "すると", "かと", "おり、", "問題", "」（", "）、", "けて", "語彙", "二人", "アク", "ので、", "しょう。", "0年", "生物", "漢字", "上げ", "を持", "ませんでした。", "のは", "なければ", "なかったのです。", "とする", "され、", "」という", "母音", "のように", "ために", "」とい", "- ", "発音", "アクセント", "んです", "ため、", "それが", "される。", "Ｋの", "見え", "彼は", "体系", "けれども", "表現", "自然", "時、", "ものを", "だと", "させ", " - ", "サン", "へ出", "の言語", "された。", "方が", "られた", "っていた。", "か」\n", "大学", "一般", "のうち", "とは", "そんな", "しば", "いつ", "都市", "れて", "気が", "必要", "まる", "ばかり", "の事", "のない", "知れ", "手紙", "国語", "ティ", "ように、", "まり", "くらい", "an", "とう", "たと", "20", "好い", "パリ市", "の「", "なくな", "コケ", "ほと", "それで", "かも", "名詞", "んど", "める", "にか", "あった。", "」は", "表記", "に関", "なく、", "っち", "くれ", "かに", "）の", "行く", "私は、", "様子", "一人", "ロー", "わざ", "ながら、", "きた", "えば", "er", "語が", "文法", "文化", "ック", "ほとんど", "いい", "on", " (", "語、", "結果", "奥さんの", "分類", "もある。", "の人", "なり", "との", "であった", "いに", "来た", "教育", "共通", "にある", "なお", "しても", "「お", "200", "変化", "れば、", "ようになった。", "これは", "表す", "呼ば", "シャ", "アン", "ました", "ちょ", "それから", "しろ", "実際", "始め", "らの", "べき", "病気", "先生が", "修飾", "以降", "べて", "ここ", "語・", "活用", "区別", "をも", "っとも", "くな", "ものは", "まま", "のだ", "になる", "しない", "されている。", "いった。", "）と", "系統", "リー", "よ。", "ず、", "えて", "語と", "大きな", "卒業", "コケ植物", "よりも", "に「", "っていた", "ずに", "きました。", "かつ", "か。", "th", "（1", "話を", "私も", "書き", "助詞", "使用", "ぞれ", "それぞれ", "が多", "かも知れ", "かな", "言葉を", "思い", "地方", "以上", "今日", "リカ", "イン", "れば", "らしい", "による", "態度", "心持", "ルー", "ュー", "のような", "に入", "として、", "っても", "さえ", "事も", "セー", "んだ。", "を示", "していた", "さら", "（「", "話者", "歴史", "普通", "打ち", "は、「", "こんな", "」が", "音韻", "落ち", "苔類", "美術", "急に", "年の", "参照", "一方", "ヴァ", "タン", "へ帰", "の上に", "のは、", "では「", "かない", "現代", "出した", "一つ", "シア", "を出", "に向", "かれ", "かの", "えば、", "いわ", "）を", "顔を見", "用いる", "子音", "り返", "むしろ", "まるで", "ならない", "といった", "していた。", "えた", "ar", "部分", "過ぎ", "感じ", "形成", "引き", "他の", "事ができ", "ド・", "のみ", "になった", "いは", "気の", "位置", "スト", "まれ", "はず", "ね。", "なの", "かい", "あった", "d ", "英語", "聞いた。", "経済", "突然", "ディ", "アル", "を表す", "に見", "に立", "ながら", "つも", "っていました。", "顔を", "母の", "来る", "形容詞", "体の", "もっとも", "でしょう。", "ごと", "t ", "Ｋに", "説明", "胞子", "比較", "多くの", "使われ", "ル・", "られた。", "や、", "などを", "なぜ", "と考え", "とした", "でも、", "だった", "たい", "それは", "けれども、", "」などの", "10", "）が", "行った。", "後の", "広場", "常に", "叔父", "区）\n", "全く", "人が", "事は", "主要", "中心", "ート", "パリの", "に対する", "されて", "があった。", "いで", "いく", "ありません", "あなたの", "is", ": ", "調子", "語は", "相手", "構造", "新しい", "可能", "前の", "事に", "セーヌ", "を受け", "らく", "または", "に分", "と同じ", "ちょっと", "だの", "く、", "があり", "がない", "あなたは", "聞か", "江戸", "掛け", "外来", "国際", "出した。", "今まで", "ット", "ジャ", "めた", "のある", "ずれ", "から見", "あり、", "　先生は", "16", "近代", "若い", "社会", "時に", "成分", "形容動詞", "向う", "分野", "出す", "何も", "マル", "ジュ", "に関する", "にいる", "ないと", "でしょう", "つもり", "すべて", "かった", "かえ", "いて、", "ありません。", "ra", "or", "間に", "過去", "自由", "父さん", "思われ", "強い", "外に", "地球", "信じ", "何か", "リア", "ェル", "を「", "もし", "のもの", "になった。", "であるが、", "ても", "っしょ", "そこに", "かつて", "お嬢さんの", "いの", "々の", "in", "197", "17", "辞書", "行われ", "蘚類", "種類", "眼を", "生活", "気が付", "後に", "年に", "先生と", "るのが", "に対して", "ないという", "であると", "ていました。", "つの", "しゃ", "かえって", "「私は", "記号", "目的", "用語", "特徴", "物を", "大陸", "同様", "先生に", "ンヌ", "イル", "られている。", "らしく", "さらに", "es", "al", "違い", "連体", "繰り返", "立ち", "種の", "用いられる", "独立", "特に", "時の", "文の", "数の", "以下", "事実", "ン・", "ツノ", "ゴケ綱", "らなかった。", "の時", "における", "と思い", "たび", "があり、", "か」と", "ic", "0年代", "Ｋと", "（）\n", "西洋", "決して", "母は", "悪い", "事が", "ール・", "ヴィ", "ジア", "の中に", "どんな", "それほど", "その上", "13", "長い", "聞こ", "美術館", "細胞", "注意", "想像", "平安", "家の", "口を", "医者", "仮名遣", "二人の", "モン", "メリカ", "を行", "を得", "りに", "ものである。", "ものと", "もある", "まった", "はその", "の中で", "の前に", "のパリ", "などが", "ないのです。", "ないの", "できる", "で「", "っしゃ", "たとえば", "たち", "その時の", "いずれ", "高等", "身体", "聞いた", "科学", "知らない", "無論", "江戸時代", "気分", "死ぬ", "構成", "最も", "平安時代", "学問", "地位", "合わ", "公園", "先生を", "二人は", "下さ", "リン", "アメリカ", "を持つ", "わけ", "らしか", "へ行", "の音", "といって", "でした", "それに", "じゃない", "」のように", "12", "）」「", "間の", "郊外", "述べ", "記憶", "私はその", "相当", "機会", "文章", "扱う", "子供", "奥さんに", "切り", "中国", "上の", "ショ", "ゴケ類", "を与", "られて", "ゆる", "になって", "など、", "という。", "での", "ったの", "そういう", "しが", "これら", "が多く", "お嬢さんは", "い、", "あた", "」、", "og", "of", "en", "Ｋが", "調査", "話し", "葉状", "落ち付", "生き", "漢語", "意識", "思う", "影響", "尋ね", "場合、", "地の", "呼ぶ", "中に", "丁寧", "ーラ", "レー", "ドイ", "ター", "コミ", "んだから", "を示す", "をする", "よ」\n", "への", "のですが、", "により", "について、", "と思う", "とうとう", "といって、", "せる", "くに", "ができる。", "あるいは", "　父は", "――", "ge", ".\n", "  \n", "音の", "財産", "聞き", "組織", "母が", "段々", "文体", "打ち明", "手を", "成立", "心配", "呼ばれ", "友達", "出て", "出しました。", "何とも", "以外", "仕方が", "人を", "人に", "中国語", "丈夫", "ーク", "ファ", "ドイツ", "テン", "コン", "んでい", "に近", "に属", "っしょに", "それでも", "そり", "すると、", "これらの", "けた", "いてい", "at", "\" ", "＝ド", "高い", "革命", "返事を", "病院", "異な", "田舎", "理解", "時々", "手紙を", "性質", "後、", "子を", "始めて", "取って", "半島", "修飾語", "主語", "上が", "マン", "バス", "ギリ", "なければならない", "なわ", "となる。", "ちら", "ちゃ", "ただし、", "たない", "しばしば", "さま", "かった。", "えた。", "いている", "「え", "of ", "196", "連合", "言語学", "言語の", "行政", "自分で", "自身", "聞く", "環境", "現在の", "欧州", "来の", "朝鮮", "早く", "心を", "奥さんが", "大変", "呼び", "参照）。", "何の", "人口", "二十", "世代", "フィ", "ニア", "アジア", "を用いる", "りの", "ほか、", "はない", "のでしょう。", "のが", "になる。", "にして", "ために、", "そうな", "せて", "しよう", "これから", "こういう", "ぐらい", "き、", "が存在", "いと", "」といった。", "……", "ph", "ou", "11", ")\n", "）は、", "覚悟", "若者", "能力", "笑い", "私はすぐ", "眺め", "発生", "民族", "死んだ", "政治", "我々", "思想", "心の", "広い", "国家", "何にも", "人は", "主張", "下に", "一の", "ルト", "ランド", "ヨーロッパの", "ビア", "ることが", "られ、", "のですから、", "において、", "なわち", "なさ", "ともに", "すなわち", "すで", "ことが", "くれる", "があった", "が、その", "え、", "　私の", "the ", "and ", "14", "運河", "明ら", "敬意", "平生", "学生", "基本", "呼ばれる", "古代", "以降、", "代り", "今度", "人、", "一方、", "一種の", "ンド", "ラテン", "ベル", "アイ", "われる", "みました。", "ほぼ", "にはい", "どうして", "とか", "ついに", "たとえば、", "きっと", "が多い。", "からの", "おれ", "あまり", "」を「", "　奥さんは", "7年", "）は", "議論", "語源", "認め", "言う", "行」の", "程度", "移民", "私はその時", "私はこの", "私の顔を見", "発達", "気の毒", "比較的", "機能", "標準", "概念", "来て", "最初", "愉快", "必ず", "彼を", "彼ら", "品詞", "単純", "助動詞", "代表", "亜綱", "事件", "主義", "世間", "フォ", "パリは", "パー", "カル", "イユ", "んですか」\n", "んでいる", "を立", "を含", "やり", "も多", "みんな", "まあ", "のために", "の『", "ね」\n", "については、", "にする", "としては、", "としては", "ところが", "ってしま", "その日", "そうに", "すれば、", "していました。", "しかし、", "これが", "けて、", "お父さん", "いくら", "いった", "あの", "』（1", "』（", "」は、", "ogra", "5年", ") ", " エ", "）・", "面目", "陸上", "議会", "語族", "語尾", "言葉の", "答えました。", "私はまた", "現象", "玄関", "状態", "特殊", "母さん", "日本語を", "手に", "性の", "彼に", "学者", "区、", "出た", "人文", "二、", "二、三", "中世", "ローマ", "シュ", "クロ", "を開", "をして", "わざわざ", "れた。", "るのは", "らしかった。", "までも", "ひと", "のである。", "のを", "にも、", "には「", "どこか", "となっている。", "という意味", "とした。", "だけの", "だけで、", "すでに", "されている", "ことに", "こそ", "いていた。", "」、「", "ograph", "195", "0万", "Ｋを", "馬鹿", "重要", "部の", "読む", "語は、", "言い", "解釈", "観光", "茎葉", "聞きました。", "終止", "私の眼", "知り", "異なる", "特別", "父が", "満足", "次第", "次の", "日本の", "方言の", "文を", "挨拶", "形態", "帰り", "定義", "学習", "場所", "信用", "以前", "ループ", "ルイ", "プロ", "パーセント", "ジョ", "サン・", "ゴケ亜綱", "グループ", "んです。", "をした", "られない", "やす", "やが", "まと", "へ入", "の間に", "の大", "の地", "の事を", "なければなら", "なお、", "ないが、", "どっち", "といいました。", "つまり", "つつ", "って来た", "だけは", "だという", "だか", "たった", "そりゃ", "せた", "しており、", "させる", "ぎり", "えてい", "うちに", "いわゆる", "いうと、", "ありました。", "あなたに", "ああ", "」の節", "」に", "s ", "＝ド＝", "連体形", "起こ", "起き", "読み", "記録", "苦し", "自分が", "自白", "聞いて", "統合", "真面目", "生れた", "状況", "済ま", "活動", "気で", "明治", "所へ", "後ろ", "強く", "小さ", "国立", "化が", "動物", "判然", "再び", "先生から", "中央", "世の中", "下宿", "三十", "一番", "ューン", "ツノゴケ類", "ステ", "アフ", "を指", "わる", "りと", "ものでは", "ものの", "まず", "はいつ", "の研究", "にかけて", "に行", "なども", "なら、", "と思いました。", "となった。", "でない", "たとえば、「", "それまで", "そこで", "じゃありません", "したのです。", "したが", "ざま", "このような", "くれた", "が「", "かる", "いずれも", "」と「", "「そう", "　私が", "ol", "ag", "9年", "4年", "199", " パリ", "黙って", "黒い", "非常に", "電報", "鎌倉", "部を", "道路", "語（", "語順", "観察", "胞子体", "第二", "空港", "目の", "琉球", "構わ", "東京へ", "書物", "書いて", "時間", "座敷", "希望", "少なく", "小供", "尊敬", "対象", "宗教", "奥さんと", "基づ", "問題を", "名称", "仮名遣い", "仕方がない", "不安", "ルク", "ラ・", "モーラ", "ドゥ", "ティー", "ップ", "セン", "ション", "シャン", "シテ", "コケ植物の", "コー", "ガル", "を取り", "を占", "を中心", "らず、", "よりも、", "やがて", "まい", "ほか", "はまだ", "はた", "はこの", "の通り", "に分け", "により、", "に基づ", "にい", "なのです。", "どうか", "どの", "といい", "とり", "とき", "ては", "っぱ", "しばらく", "し、「", "さまざま", "こっち", "が多い", "から。", "かも知れません。", "うちに、", "ography", "it", "a ", "15", " （", " of ", "）に", "音声", "陸上植物", "配偶", "連用", "語として", "置かれ", "細菌", "答えた。", "私と", "生じ", "父の病気", "点を", "歩き", "本当", "施設", "方言を", "新聞", "挙げ", "応じ", "心持が", "心のうち", "役割", "広く", "容易", "学校の", "存在する。", "奥さんを", "大きく", "大戦", "変な", "声を", "名を", "博物", "化石", "化した", "動か", "分布", "分らない", "余裕", "上げる", "上、", "ワール", "ラル", "パリを", "バスティー", "バスティーユ", "トル", "タイ", "スペ", "コミューン", "オン", "イタ", "アフリカ", "んと", "を向", "わざと", "るのを", "ることができる。", "りする", "より外に", "み込", "みた", "べく", "の方へ", "のでは", "のに", "ね」と", "によって、", "などは", "なくなった。", "どうしても", "ではなく、", "ってくれ", "っちゃ", "せた。", "するが、", "じめ", "したが、", "しかも", "しに", "されること", "さない", "が行われ", "からい", "かれた", "かって", "かしい", "おっしゃ", "」といった", "、パリ", "8年", "1年", "    ", "音節", "集』", "部に", "遠慮", "辞典", "記述", "複雑", "複合", "者は", "結構", "結婚", "簡単", "私はそれを", "私の方", "私たち", "神経", "知識", "知ら", "用いられる。", "火鉢", "深い", "気を", "次第に", "有名", "時は", "日本語は", "日本国", "文の成分", "散歩", "接続", "承知", "戦争", "思議", "心が", "広が", "嫌い", "大丈夫", "外国", "声が", "地理学\n", "合い", "叔父の", "博物館", "動き", "別に", "判所", "分の", "内の", "公用語", "先へ", "付けた", "交通", "一度", "ーム", "ライ", "フェ", "トロ", "テー", "テレ", "スタ", "シー", "んで、", "を行う", "をは", "ものである", "ものが", "もっと", "まり、", "の色", "の下", "のかと", "ねて", "にや", "ならば、", "などに", "と共", "とって", "でもある。", "ですか」\n", "であったが、", "つけ", "だったのです。", "ための", "その頃", "その代り", "そして", "せました。", "しまった。", "しかし私は", "されるようになった。", "さまざまな", "が見", "が来", "から」\n", "かという", "お前", "えない", "うど", "いよ", "」の「", "「あ", "al ", ". L", " \"", "）」など", "音を", "雑誌", "都合", "通り、", "述語", "足り", "赤い", "言語と", "規則", "見えた。", "裁判所", "茶の間", "英語の", "色々", "者の", "結果、", "結び", "終止形", "私はただ", "相談", "理由", "物語", "父や", "法を", "気は", "比べ", "様子を", "東京へ出", "日常", "文字を", "文節", "文献", "文末", "我々は", "性格", "心に", "式アクセント", "帰る", "少しも", "専門", "完全", "安心", "国の", "同一", "古い", "口蓋", "受け取", "反対", "単語", "卒業した", "区の", "化学", "勉強", "利用", "初期", "円唇", "公用", "入れ", "先刻", "兄は", "使う", "何を", "人と", "予期", "九州", "主要部", "世界大戦", "不思議", "下女", "下が", "ヴォ", "ング", "ブル", "パリ・", "サンド", "クレ", "オー", "んです」\n", "るところ", "ります。", "やは", "やはり", "ものに", "めた。", "みると、", "ましたが、", "の方が", "の人口", "のでき", "のも", "になっている", "になって、", "に帰", "に取り", "なん", "と思って", "とりわけ", "でなく、", "つい", "った時、", "ちょうど", "だが、", "だから、", "それぞれの", "するに", "すべき", "して見", "しさ", "ぐる", "が増", "お母さん", "いていた", "、その", "　母は", "　先生の", "ver", "198", "題目", "領域", "音が", "面に", "都市圏", "部屋", "過去を", "進んで", "起源", "資料", "語派", "言葉が", "要素", "行き", "自分を", "精神", "範囲", "立場", "立て", "私の頭", "的・", "的には", "発展", "留守", "生物が", "片仮名", "淋しい", "気候", "次世界大戦", "機関", "暗い", "普通の", "時代には", "時に、", "日本語が", "整備", "必要な", "往来", "平均", "平仮名", "帰って", "少ない", "室町", "宅へ", "子の", "始めた。", "大分", "多様", "城壁", "地理学。", "地域圏", "否定", "向け", "可能性", "参考", "力を", "分り", "凝と", "体を", "以上の", "仕方", "五十", "主要な", "両方", "上記", "・形容動詞", "リック", "ラス", "ミズ", "パサンド", "バー", "チャ", "セーヌ川", "スペイン", "ジャン", "ジェ", "シャル", "イタリア", "アンパサンド", "んでしょう", "を持ち", "を食", "を扱う", "われた", "るに", "よく解", "やや", "も多い。", "もので、", "ものも", "もない", "みに", "ませんが、", "まれた", "ほどの", "の中心", "の一つ", "ので、私は", "のだという", "の関係", "のだと", "に関して", "になると", "に限", "に着", "なくっちゃ", "どうも", "どうする", "との関係", "とを", "でしたから、", "っていたのです。", "ってお", "だ。", "たま", "たしか", "その後", "そのまま", "そうした", "ずつ", "これを", "きた。", "が一", "が」「", "かったのです。", "かし", "かけ", "お嬢さんを", "いたのです。", "いくつ", "」とな", "」で", "　：", "geography", "ed", "Th", "EU", "Ch", "2年", "19世紀", "186", ") - ", "  と", "）や", "）、「", "高級", "首都", "鉄道", "鈴木", "運動", "造卵", "造卵器", "通じ", "語 \n", "言語は", "言葉は", "行った", "突き", "私は先生の", "私は今", "私にも", "研究所", "相互", "用いた", "理屈", "狭い", "消滅", "気に", "極めて", "格助詞", "来て、", "末期", "書いた", "時は、", "支配", "指摘", "持ち", "抜け", "成長", "悪く", "思った", "忘れ", "形式", "家族", "女の", "多少", "多い", "変に", "地区", "同時に", "兄が", "傾向", "何でも", "代名詞", "付く", "二度", "中で", "世話", "世の", "上に", "万葉", "一人で", "ヴァン", "パリ市内", "シテ島", "を含む", "を置", "を形成", "をな", "をと", "をした。", "り込", "りを", "らっしゃ", "ようになった", "やる", "やかな", "ものであった。", "ます」\n", "ましょう", "へはい", "へは", "はたして", "の一部", "の日本語", "の境", "に近い", "に対して、", "によれば、", "になりました。", "においても", "に、「", "に過ぎ", "にその", "なるべく", "なくなった", "となり、", "と違", "と称", "とみ", "ではない", "ですが、", "てくれ", "っき", "だろうと", "だって", "それら", "そらく", "してくれ", "してお", "しも", "されており、", "されてい", "ことを", "こういった。", "がありました。", "かを", "かか", "お嬢さんが", "える。", "いつもの", "あれ", "」のように、", "」と称", "」とする", "」は「", "「そりゃ", "ion", "et ", "don", "Par", "IS", "6年", "3年", "184", ". 196", "%、", "高低", "食卓", "風に", "項目", "音楽", "音便", "静か", "階級", "長く", "重要な", "配偶体", "部、", "造精", "造精器", "近年", "軽蔑", "論じ", "談話", "語頭", "語で", "話す", "試み", "見えました。", "見られる", "要領", "葉状体", "美術館\n", "私の胸", "私に対", "私には、", "矛盾", "直接", "盛ん", "白い", "生命", "物質", "物の", "父と", "無声", "漢字の", "注釈", "求め", "気が付か", "母音の", "様子を見", "枕元", "東部", "来た。", "最後の", "書生", "書物を", "方面", "料理", "敬語", "政府", "批判", "打ち明け", "性を", "形で", "幸福", "山脈", "少なくとも", "宮殿", "実は", "学の", "始終", "大な", "外部", "地理学の", "地誌", "国際連合", "固より", "含まれ", "叔父は", "動作", "加え", "前で", "分け", "出身", "共和", "共同", "伝統", "付属", "今に", "人々", "京都", "並ぶ", "世界の", "下さい", "上げた", "一言", "・ラ", "ヴル", "ンドン", "ロシア", "レ・", "ラビア", "ニュー", "テレビ", "スの", "キリ", "われて", "わた", "ることもある。", "るような", "られている", "よ」と", "ものでした。", "ものです。", "もなく", "もしく", "もあり、", "めました。", "また、「", "ふと", "は1", "のできない", "の日", "に入って", "によると、", "に残", "に位置", "にした", "なくなりました。", "なくては", "なかろう", "なかなか", "となる", "としての", "といっしょに", "とにか", "とする。", "ではなく", "でしょう」\n", "できない", "って来た。", "っても、", "っており、", "っぽ", "だろうと思", "だが", "ただし", "そうです。", "ずに、", "するもの", "するのです。", "しまいました。", "していない", "しかしその", "ごとに", "ごとく", "ここで", "こうした", "けない", "が、「", "が集", "おそらく", "いを", "あら", "　私はその", "……」\n", "oo", "ie", "as", "Pr", "1日", "00年", "., ", " 、「", "）など", "養家", "食べ", "集団", "限り", "関連", "関東", "郊外の", "遺伝", "過ぎる", "連携", "返事", "辞書『", "買う", "語\n", "認識", "解らない", "覚え", "見る", "複数", "行」", "苦笑", "若い女", "自覚", "自立", "考えてい", "考えた", "習慣", "答える", "第二次世界大戦", "第一", "第1", "立つ", "私は彼の", "私の心", "相違", "留ま", "男でした。", "用いる。", "特定", "無理", "濁音", "母を", "様々", "来ない", "最古", "時、私は", "明らかに", "日本語と", "数を", "数は", "推測", "指示", "感情", "意志", "情報", "心のうちで", "後半", "待ち", "形質", "帰った", "左岸", "小さな", "室の", "定め", "夫婦", "大抵", "変わ", "基準", "坊さん", "呼んで", "合う", "古く", "口の", "印象", "医療", "動詞・", "力が", "創設", "割合", "副詞", "前後", "判断", "初め", "分裂", "分岐", "何遍", "何だか", "代わ", "今度は", "今の", "下り", "ード", "ヶ谷", "ヴェル", "ヴェ", "ロンドン", "ルテ", "リッ", "ラー", "ユー", "メディ", "ブール", "フランス地域圏", "フランスの", "バン", "ニュ", "ス・", "オル", "オペ", "んだから、", "を除", "を知", "られていた。", "ように思われ", "もなかった。", "まま、", "ばかりでなく、", "は ", "の方に", "の一覧", "のです」\n", "の手", "の区別", "のか、", "ね、", "に対し、", "によく", "にもな", "になり、", "に移", "に従", "に当", "なければ、", "ともい", "とともに", "であり", "つく", "ついで", "って来る", "って来ました。", "ってく", "だろう。", "それぎり", "そこへ", "そこから", "したり", "しながら、", "しながら", "しなかった。", "ご覧", "ごろ", "ごく", "ここに", "くなった", "が出", "からも", "からです。", "おも", "おう", "いても", "いつも", "いつでも", "ありませんでした。", "あなたが", "」や", "「ええ", "「あなたは", "　その", "sit", "ondon", "ni", "de ", "The ", " は", "（パリ", "驚いた", "類似", "頭を", "電報を", "電車", "離れた", "雌雄", "起る", "謙譲", "論文", "語派　：", "語彙の", "語中", "語など", "解析", "親類", "規定", "見られる。", "見た", "見える", "複数の", "行」の子音", "興味", "聞こえ", "耳に", "考え方", "美しい", "結ぶ", "経験", "組み", "祖先", "県、", "相当の", "登場", "用法", "生育", "生まれ", "理論", "然として", "然と", "漢文", "流行", "注意を", "校が", "東西", "来ました。", "有の", "最後に", "時代の", "時期", "昂奮", "日本語教育", "日本語に", "日本語では、", "教科", "掛ける", "扱われ", "手紙を書", "所得", "成り", "愛の", "性苔類", "従妹", "当時の", "当時", "引っ", "建設", "建物", "市域", "差し", "尋ねました。", "容易に", "学校文法", "始めた", "奥さんは、", "墓地", "境遇", "場合は", "基礎", "地形", "国へ帰", "四\n", "吹き", "君は", "各国", "取る", "南部", "半分", "区分", "務所", "動詞・形容詞", "切って", "出したのです。", "出版", "出して", "凱旋", "内で", "典型", "六\n", "元の", "健康", "住宅", "位の", "以来", "京阪", "交際", "五十音", "五\n", "二日", "二\n", "主語・", "主に", "世帯", "三\n", "一\n", "ー・", "ヴェルサ", "ヴェルサイユ", "ヴァンセ", "ヴァンセンヌ", "ンの", "ロン", "ルーヴル", "ルトガル", "リヨ", "ユーロ", "ポルトガル", "フランス革命", "バル", "セル", "シダ", "ゴケ綱  \n", "ゴケ亜綱  \n", "グラン", "クリ", "ギリシア", "イル＝ド＝", "アクセント核", "んでいる。", "を持つ。", "を占め", "を与え", "をもっている", "を有", "を失", "ろうと", "れて、", "るのは、", "ることがある。", "らす", "らが", "ようだ", "ものの、", "ものは、", "ものだろう", "もっとも、", "もしくは", "もあるが、", "も多く", "むず", "み、", "ますが、", "へ行く", "へと", "は、この", "はほとんど", "の種類", "の合", "のこと", "のか", "に向かって", "になると、", "に変化", "に分類", "に伴", "なのか、", "などで", "とにかく", "となった", "というのです。", "ということ", "と呼ばれる", "とその", "ではない。", "ですから、", "であること", "でなく", "づけ", "って行", "ちゃんと", "だけでした。", "だった。", "たびに", "それでいて", "それと", "その他", "その人の", "ずる", "ずにはい", "ずい", "することが", "すれば", "しまった", "しまい", "していたのです。", "ござ", "これも", "くら", "く。", "きたい", "が進", "が必要", "かく", "いっしょに", "あと", "」の節参照）。", "」のような", "」などと", "」格", "「お父さん", "「今", "「もう", "「それ", "「しかし", "「い", "ur", "re", "ondon: ", "o ", "niver", "le", "in ", "icag", "gh", "et", "Univer", "Paris", "Chicag", "78", "20世紀", "202", "25", "1860年", "驚か", "飯を食", "面倒", "遥かに", "遠く", "運命", "連用修飾語", "路を", "質問", "諸島", "誕生", "話し言葉", "話して", "話した", "評価", "証書", "言語を", "規模", "行」は", "蘚類の", "苦痛", "自分の室", "自治", "自体", "聞くのです。", "者が", "考える", "考えている", "考えて", "簡単な", "第2", "空間", "私に向", "私に取って", "私だけ", "眼の前に", "発見", "疑問", "異なる。", "由来", "現れ", "決心", "母語", "母に", "段活用", "歴史的", "正直", "機会を", "様々な", "植民", "果た", "東北", "昔の", "日本人", "方言（", "方言、", "方法", "文字の", "文化的", "文学", "敬意表現", "放送", "擦音", "換え", "接近", "接触", "掛けた", "指導", "指す", "投げ", "技術", "或る", "意見", "意に", "恐れ", "彼らの", "当初", "庭園", "床を", "年前", "平気で", "少ない。", "小学校", "対応", "家を", "家へ", "室町時代", "宅へ帰", "学校教育", "姉妹", "妙な", "女性", "外部リン", "外部リンク", "地下", "困難", "呼ばれる。", "含め", "君の", "医者は", "区画", "動く", "力で", "刑務所", "分析", "分化", "出し", "凱旋門", "内容", "八\n", "全国", "全体", "全て", "先生は、", "充分", "働き", "傍に", "例えば", "作り", "何と", "体（", "低い", "企業", "以外の", "以後", "付けて", "人文地理学", "人類", "二人称", "事のできない", "事があり", "下さい。", "七\n", "一般化", "一部", "一年", "一向", "ース", "リゼ", "ラグ", "マルヌ", "プレ", "デー", "テュ", "チエ", "サント", "クト", "オノ", "イル＝ド＝フランス地域圏", "アクセントの", "んでしょう」\n", "んでいた", "を立つ", "を持ち、", "を受けた", "を経", "を眺め", "るのか", "りで", "りした。", "らしいのです。", "よりは", "ようになり、", "ようにも", "ような事を", "よほど", "よ、", "や否", "ものが、", "もとも", "もと", "もい", "みた。", "ませんよ。", "ません」\n", "ひとつ", "は同じ", "は『", "の中を", "のであった。", "の森", "の問題", "の口", "の例", "のなか", "のち", "の3", "に違い", "に加", "に出", "に一", "なるほど", "なんです。", "どんなに", "どのくらい", "どうした", "としても", "とかいう", "という点", "でもない", "ではなかったのです。", "ではなかった。", "ではありません。", "です」\n", "である（", "つもりで", "っているの", "っています。", "っていない", "ったら", "ちっとも", "だろうか。", "たが", "その時の私は", "その後、", "そのため、", "ぜひ", "するために", "すこ", "しまう", "してもら", "し・", "しません。", "されていた", "これは、", "こうい", "けました。", "けた。", "くらいです。", "くなる", "きの", "が形成", "がなかった。", "からなる", "かと考え", "か分らない", "おっしゃる", "うち、", "いか", "あげ", "』（16", "』の", "」といって、", "」と発音", "、私は", "、それ", "　Ｋは", "y, ", "y of ", "us", "ll", "er ", "ent", "ch", "am", "Universit", "27", "000万", "000", ". London: ", " - 「", " () - ", "  を用いる", "   ", " 欧州", " 「", "Ｋの室", "）では、", "）で", "高型", "驚きました。", "顕著", "音韻論", "面白", "関係が", "開発", "開催", "量の", "重ねて", "郷里", "郵便", "遊び", "通りを", "通りに", "通り。", "通り\n", "近代以降", "近頃", "近畿", "近く", "距離", "足を", "走る", "象徴", "調子で", "誤解", "語種", "語文", "語では", "詳細", "設置", "設立", "記念", "訓読", "言語が", "言われ", "見えた", "西ヨーロッパ", "補助", "表記体系", "行為", "行の", "蒴歯", "苦しく", "花が", "色を", "色々の", "脚注", "脚注\n", "胞子嚢", "聞こえた。", "聞き返", "翌日", "罪悪", "編纂", "総称", "総合", "絶え", "紹介", "細い", "約束", "紀元", "管轄", "筆を", "私は突然", "破壊", "研究する", "眼鏡", "目に", "的である。", "発表", "病院、", "病気の", "男女", "用いられ、", "用いられ", "用いて", "特定の", "物足り", "片付", "源因", "海水", "注目", "沿岸", "河川", "汽車", "永久", "気味", "民の", "母語話者", "植物の", "東京へ帰", "本を", "月2", "書き言葉", "書斎", "普及", "明らか", "明確", "日本語研究", "日蓮", "日の", "方は", "新た", "教科書", "教師", "教える", "支え", "採用", "掛けて", "拡大", "抽象", "批評", "我慢", "感じた。", "意味が", "応用", "心得", "後で", "後から", "彼らは", "広大な", "帯び", "対立", "実を", "実に", "奥さんも", "奥さんは「", "大方", "多数", "変化を", "声で", "増加", "墓参", "場合には、", "地方の", "地域の", "地を", "地が", "四十", "命令", "周囲", "告げ", "同様の", "同士", "史\n", "句の", "古細菌", "古典", "受け身", "反映", "及び", "厭な", "単なる", "前に、", "刺戟", "分か", "出典", "出る", "出して、", "共通語", "共通祖先", "共有", "元来", "偶然", "係り", "価値", "例えば、", "何遍も", "体系 \n", "体制", "体に", "会の", "仮定", "付け加", "他に", "人間の", "人間が", "五十音図", "二人とも", "乱れ", "九月", "並立", "上記の", "一人称", "・デ", "・グ", "ワー", "ロワ", "ロス", "ル\n", "リヨン", "ラム", "メディア", "マチ", "マス", "ベット", "ブロー", "パリ都市圏", "ドル", "チェ", "ゼリゼ", "ゼニ", "センター", "ジャン＝", "シャンゼリゼ", "ギリシャ", "キャ", "カルチエ", "カナ", "オール", "エール", "エコ", "ウェ", "イス", "アラビア", "を見て", "を離", "をお", "ろしい", "れない", "る事", "りした", "らなかった", "らず", "ようとする", "やすい", "やろう", "やく", "もの。", "もなく、", "もあった", "められた", "まれる", "ほかの", "ほう", "ぶん", "ひら", "は多く", "はもう", "の間を", "の間にか", "の中に、", "のですから。", "のでしょう", "のだから、", "のうち、", "の裏", "の外", "の変", "の地域", "の光", "のに、", "のが、", "のお", "に関する地理学。", "になり", "に置", "に相当", "に応じ", "にく", "にいた", "にある。", "なければならなかった。", "なくなる", "なんです", "どうせ", "どろ", "と思います。", "といわれ", "といった。", "とても", "できるだけ", "って、その", "った私は、", "だ」「", "だ」\n", "たり、", "その中", "そのくらい", "そこを", "そうしてその", "せられ", "ずっと", "することは", "すように", "じゃありませんか」\n", "しまったのです。", "します。", "したがって", "しみ", "しなかった", "しない。", "さなかった。", "これに", "このように、", "ことである。", "こっちから", "くない", "くせ", "きません。", "が起こ", "がパリ", "からは", "か国", "かれる", "かなり", "いつの間にか", "いたい", "いずれも「", "いいえ", "』『", "』、", "」と私が", "「私の", "「地理", "「先生", "「が", "un", "se", "s.\n", "om", "man", "li", "ing", "ang", "SO", "194", "0年に", "00万", ".7", ", , ", " - 日本語", " モン", " the ", "Ｋは私", "）、パリ", "）および", "（し", "高速", "高い。", "類型", "顔をした。", "項目 \n", "静かな", "難しい", "雑司", "雑司ヶ谷", "関連項目 \n", "間に、", "酸素", "部で", "邪魔", "遠い", "違った", "道の", "進化", "進む", "通り抜", "通る", "迷惑", "込んで", "込んだ", "豊富", "読んで", "語・外来", "語法", "語には", "語である。", "言語も", "解説", "観点", "親族", "親の", "見な", "行」は 、「", "著名", "茶屋", "茎葉体", "苔類の", "色彩", "色の", "舌母音", "自然に", "自分に", "自信", "胸に", "聞こえる", "義務", "維管", "維管束", "絶対", "結ば", "終端", "終端型", "約2", "答えた", "等教育", "私はまだ", "私はついに", "私の知", "私の方が", "私の室", "私に対する", "私が、", "知っていた。", "眼に", "目的語", "発着", "疑い", "異なった", "用いられるようになった。", "用の", "生物の", "理的に", "現在は", "現在では", "現生", "獲得", "独立した", "父や母の", "点で", "漫画", "漢字を", "漢語・外来", "漢語は", "漢語の", "滅多", "済んだ", "流れ", "流が", "注釈\n", "母も", "次に", "機構", "構わない", "植民地", "根拠", "東ヨーロッパ", "未亡", "月の", "最近", "最後", "時機", "時分", "映画", "日本国外", "族の", "方言が", "持つ", "持って", "手が", "態度を", "態度は", "感ぜ", "意味する", "情を", "思った。", "念を", "忘れて", "必ずしも", "後を", "形が", "当然", "当分", "張り", "建築", "廃止", "年が", "平気", "席を立", "市長", "市街", "市内", "屋の", "宅の", "学、", "学\n", "始ま", "妹の", "好き", "好かった", "奥さんから", "奈良", "太郎", "大学の", "大部分", "大西洋", "大した", "外部リンク \n", "場で", "基本的に", "坐っている", "地理学が", "地位を", "地帯", "国民", "国内", "図書", "困る", "呑み込", "向うの", "同様に", "同じ事", "同情", "合せ", "各地の", "右岸", "口に", "取り残", "取り上げ", "及ば", "参照。", "助詞・", "加盟", "切った", "分枝", "分子", "出典\n", "再編", "先生がいった。", "信じていた。", "係り結び", "便宜", "依然として", "作品", "何度", "体言", "住む", "会話", "会社", "仮説", "以前の", "付近", "今日は", "人であった。", "京阪式アクセント", "二、三日", "二重", "二つ", "事にした。", "事業", "事は、", "九\n", "主要部終端型", "世紀末", "世代が", "不快", "上げて", "上は", "三日", "丁寧体", "一般に", "一週", "一時", "ーン", "ーツ", "・ラタン", "・貴", "・中", "・き", "・お", "ヴァル", "ル・ド・", "リュ", "ラブ", "ヨーク", "ュニ", "メイン", "マルタン", "マト", "マトペ", "ペル", "フェル", "ビジ", "ビジネ", "ヒト", "パン", "バイ", "ニューヨーク", "ナポ", "ドメイン", "データ", "デン", "テル", "ッカ", "スタン", "シア大陸", "シェ", "サン＝", "サ変", "ゴケ綱は", "ゴケ  ", "コミュニ", "ギャ", "カルチエ・ラタン", "カン", "オノマトペ", "エコール・", "エー", "ウロ", "ウラル", "インド", "アルタイ", "アイス", "んだから」\n", "んまり", "んす", "を見て、", "を見た", "を着", "を用いる。", "を果た", "を加", "を」の", "わない", "わず", "わ。", "るのも", "るのだと", "りが", "られるが、", "られており、", "ようやく", "ようという", "ようでした。", "よそ", "やりました。", "もこの", "むずかしい", "みる", "ませんでした", "まで、", "べきはず", "ひょ", "はじめ", "の境界", "の中間", "の中へ", "の上へ", "のみなら", "のうちに", "の面", "の底", "のように、", "のまま", "のぼ", "の ", "に近づ", "に立ち", "に向って、", "になっていた", "にかけて、", "に次", "に」「", "などと", "なくてはならない", "なお、「", "ない事", "なもの", "なので、", "どうでも", "どうし", "と思った。", "と共に", "ともに、", "ところを", "といった風", "という言葉", "というよりも、", "とされる。", "とくに", "では、「", "ですか」と", "ですか", "であるという", "で終", "ていると", "ていたのです。", "つつある", "つき", "っています", "って行く", "だけで", "だといって", "たしかに", "たら、", "そうい", "そろ", "せずに", "ずにはいられ", "ずいぶん", "する場合", "するため", "すなわち、", "しようという", "します", "しまいに", "していなかった。", "しむ", "さを", "さぞ", "ごとく、", "これらは", "こうして", "きょ", "が私を", "が死んだ", "が付", "がる", "から\"", "かも知れませんが、", "かも知れない", "か、または", "かと思", "かが", "えて、", "いだ", "い」「", "あんな", "あの時", "あったのです。", "』（17", "」の子音", "」と聞いた。", "「お前", "「おれ", "「先生は", "「何", "「て", "「そんな", "「じゃ", "、また", "ough", "l ", "is ", "ip", "es, ", "ct", "ce", "SOV", "Chicago", "BN", "6年に", "2007年", "24", "18世紀", ". A", ". 197", ".3", "-H", "-4", " ロ", " ベル", " 、", "Ｋはその", "Ｋと私は", "Ｋも", "）などの", "）」（", "）」という", "）」、", "（6", "（4", "鷹揚", "高等教育", "高高", "高句", "高句麗", "駄目", "風邪", "頭に", "頭が", "頃には", "音韻体系", "非常", "隣接", "際に", "陸上植物の", "長音", "鎌倉時代", "重く", "遺伝子", "選択", "適当", "達者", "過ご", "連体修飾語", "連続", "連文節", "連れ", "通常", "近郊", "近い", "辞典』", "身体を", "躊躇", "起った", "貰って", "責任", "豊かな", "警察", "談判", "語など\n", "語は「", "語」と", "語」", "話している", "詰め", "記す", "言語圏", "言い方", "解り", "親戚", "親切", "見られ", "要求", "西部", "襖を開", "複雑な", "衰退", "表音", "行政区", "行李", "行か", "衆国", "葉状性苔類", "茶碗", "苦しい", "芸術", "航空", "自然地理学", "自然な", "腹の中", "背中", "聞くと、", "聞いていた。", "者を", "考えると", "考えた。", "習得", "置かれている。", "編『", "線の", "維持", "続け", "統計", "経った", "紀元前", "答えなかった。", "筆を執", "立た", "窮屈", "移動", "科学の", "私は急に", "私は少し", "私は先生", "私はむしろ", "私はちょっと", "私の過去を", "私の名を", "私にとって", "私から", "示す", "石川", "着物を", "着いた", "眺める", "真面目に", "相手の", "発音される", "病室", "病人の", "界隈", "申し", "田一", "用言", "産業", "生物は", "生活の", "生きている", "現在、", "現代の", "現地", "現れた。", "王国", "独特", "状の", "特色", "父に", "火鉢の", "滑稽", "海岸", "流の", "永久に", "気温", "母と", "歩く", "歩いて", "正式", "様子が", "極め", "染色", "東京式アクセント", "東京の", "来るのを", "来たのです。", "本当に", "本社", "期の", "朝鮮語", "朝鮮半島", "有名な", "有難", "最古の", "曖昧", "時、先生は", "時には", "明瞭", "日本語の語彙", "日本語の文", "日本語話者", "日本人が", "日本に", "日本では", "方角", "方へ", "方、", "文脈", "文句", "文中", "数が", "故郷", "改造", "摩擦音", "掻き", "推定", "掛茶屋", "振り返", "抜き", "扱い", "打ち明ける", "戦後", "憐れ", "感じが", "恋の", "思え", "忘れる", "心理", "得る", "後で、", "待ってい", "彼は、", "彼が", "影響を受け", "強いて", "平生から", "帽子を", "帰って来た", "帝国", "市場", "差異", "崩壊", "寒い", "家が", "完全な", "宅を", "学資", "学会", "孤立", "存在する", "存在してい", "字で", "妹の夫", "好意", "好く", "奥さんとお嬢さん", "失望", "太陽", "大和", "多様な", "多い。", "場合も", "場合は、", "地誌学", "地中", "地中海", "国家の", "国々", "四国", "商業", "商人", "唯一の", "呼ぶ。", "告示", "名前", "名の", "合わせ", "合わさ", "合衆国", "台湾", "古代から", "口を利", "受け取った", "叔父を", "参考文献", "厳密", "厳しい", "原糸", "危機", "単位", "卒業証書", "卒業する", "区別が", "区に", "勢力", "務省", "前へ", "到底", "分類体系", "分けて", "分から", "出来", "再開発", "共通語の", "公園（", "全体の", "兄弟", "個別", "係助詞", "例外", "例の", "例、", "位相", "似た", "伝達", "伝え", "休み", "仰山", "以降の", "以下のように", "以上に", "代りに、", "今日でも", "人間らしく", "人間らしい", "人のように", "人も", "二人が", "事はない", "事の", "予算", "乏しい", "主な", "中華", "並ぶ。", "並べて", "並べ", "世話を", "世は", "与え", "不愉快", "上さん", "一方で、", "一部の", "一段", "一歩", "一定", "一切", "ール（", "ートル", "・ブ", "・ツ", "・ク", "・アン", "・ア", "・「", "ン\n", "レージュ", "レスト", "ルド", "リュー", "リセ", "ユーゴ", "モンテ", "メトロ", "ミズゴケ類", "ミュ", "マルタン運河", "ペリ", "フランク", "ファベット", "パリ市長", "パリ市立", "バスク", "ハ行", "ニア語、", "ニー", "ナポレ", "ドゥー", "トワール", "デル", "テーマ", "テュイル", "テュイルリー", "ティア", "ックス", "ッド・", "ダム", "ソー", "ステル", "ジー", "ジェル", "シタン", "サン・マルタン運河", "サイ", "ゴール", "コケ植物が", "グラ", "キリシタン", "オペラ", "オート", "イギリ", "アルファベット", "アメリカ合衆国", "んだから。", "んご", "ん」の", "を見ると、", "を見る", "を持たない", "を受け取", "を出して", "を中心に", "を与える", "を与えた", "をなす", "をとる", "を飲", "を述べ", "を認め", "を支", "を挙げ", "わ」\n", "ろうとする", "れなかった。", "られること", "らっしゃる", "ようとした", "ようであった。", "やみに", "やっぱ", "やっぱり", "やっと", "やか", "ものです", "ものであり、", "ものだから", "もともと", "もう少し", "も見", "もなかった", "もありました。", "もあった。", "むように", "むやみに", "まとめ", "までの", "まない", "までは", "まえ", "ほどに", "へ行って", "へ出ました。", "へ出て", "へ出た。", "へ下り", "ぶら", "は言語", "は段々", "は存在", "は今", "はパリ", "はまるで", "はほぼ", "はどう", "はありません。", "の方を向", "の人々", "のパリ」（", "のものが", "の意味", "の城壁", "のつ", "の4", "に立つ", "に次ぐ", "に属する", "に基づいて", "に向って", "に分けられる。", "に位置する。", "によると", "には、「", "になら", "については", "についての", "においては", "に陥", "に至", "に富", "に坐", "に取って", "に使われ", "に不", "にをは", "にしても", "ならば", "なのか", "などは、", "なかったのである。", "ないし", "なった。", "なた", "どこかで", "どこにも", "どこかに", "どのような", "と考えられる。", "と同じ事", "とみられる。", "ところが、", "という間", "ですから", "でしょう、", "できる。", "ています。", "ていない", "てられた", "ついでに", "って来て、", "ってる", "ってくれる", "ったのかと", "ったところ", "っきり", "だろうと思う", "たびたび", "たった一人", "たる", "たとい", "たく", "それだけ", "その頃の", "その結果", "せない", "せて、", "ずにい", "するようになった。", "するように", "すべてを", "すぎ", "じゃありませんか。", "しようと", "してくれる", "しかしそれは", "しき", "されていた。", "さらに、", "させて", "させた", "さかの", "さかのぼ", "ごとの", "ことは", "ぐるぐる", "くれました。", "くらいに", "くらいな", "くなった。", "が存在する", "ができる", "ができて", "があるが、", "があって", "があったのです。", "が開", "が強", "が広が", "が作", "がな", "がその", "から来た", "からも、", "からは、", "からいうと、", "かと疑", "かは", "およそ", "お出", "うん", "いよいよ", "いたの", "いくつかの", "いうと", "いら", "います", "いざ", "ある日", "あるが、", "あらゆる", "あたかも", "』 ", "」を付けた", "」や「", "」など、", "」といって", "」）", "」および", "「（", "「なぜ", "「き", "「いいえ", "々に", "々しい", "、「お", "、いわゆる", "　私には", "　先生と", "　二人は", "○○", "ory", "ook", "ow", "km", "im", "ig", "geography. London: ", "for", "ess.\n", "ea", "book", "ation", "angu", "University of ", "R. ", "Press.\n", "AP", "30", "2つの", "1980年代", "1970年代", "188", "179", "178", "16区", ".: ", ".0", "  の", "  (", " フランス", " p", "＝ド＝マルヌ", "＝ドニ", "＝サン", "）を著", "）」のように", "（＝", "（旧", "（、", "（5", "黙っていた。", "高速道路", "駅（1", "馳走", "飛び", "風の", "頼んで", "頼んだ。", "頭の", "音素", "音「", "集落", "障害", "関節", "関節蒴歯", "開けて", "門の", "長い間", "鉄道の", "鈴木重", "鈴木重幸", "金田一", "酸化", "配列", "鄭寧", "鄭寧に", "避暑", "選挙", "適切", "違いは", "道を", "過ぎた", "連れて", "造卵器と", "造語", "通りと", "通じて", "退屈", "述語の", "述構造", "返事が", "近世", "近くに", "込んだ。", "農村", "転車", "踏み", "起らなかった。", "賛成", "資格", "財産家", "象は", "警戒", "諸語", "調和", "説は、", "説、", "語を作", "語数", "語に", "話題", "話は", "試験", "設け", "記事", "計画", "言葉遣", "言葉に", "言葉で", "言い換え", "解明", "解らなかった。", "親しく", "見えます", "見えなかった。", "見方", "要するに", "表現する", "表面", "表情", "行」の子音は、", "行する", "蘚類と", "蔭で", "蒲団", "葉の", "落ちて", "苦笑した。", "若者言葉", "自然の", "自然と", "自転車", "自己", "膠着", "腹の中で", "肝心の", "聞こえました。", "考えていた。", "考察", "置いて", "繰り返した。", "縁側", "緯度", "緊張", "綺麗", "維管束植物", "続く", "続き", "絶えず", "統治", "統一", "約4", "系統解析", "系統の言語", "系列", "系の", "精神的に", "算数を", "筆記", "笑いながら", "笑って", "笑った。", "競技", "端に", "立っている。", "立って", "立った", "立たない", "種類の", "私は自分の", "私は父の", "私はとうとう", "私の眼に", "私の過去", "私の耳に", "私の神経", "私たちは", "硬口蓋", "研究が", "知り合い", "知らなかった。", "知っている", "眼の", "真核", "省略", "目を", "盛んに", "的に、", "百科", "百年", "病気で", "留め", "界、", "男性", "男の", "用漢字", "用意", "用を", "生育する", "生じた", "生きて", "狭母音", "特徴である。", "特に「", "物理", "熱心に", "烟草", "烈な", "点の", "漢文訓読", "滅多に", "湿原", "混同", "深く", "消費", "浮か", "派生", "活用のない", "活用のある", "法令", "気が付かずに", "正しい", "止め", "止せ", "機嫌", "橋本", "横た", "横たわる", "標準語の", "様の", "植生", "染色体", "果を", "条件", "机の上に", "本当の", "本来", "未来", "月革命", "最初から", "暮ら", "時には、", "明治時代", "明白", "日本語で", "日には", "日に", "方の", "方が、", "新たな", "断わ", "断する", "文字は", "文字が", "文字\n", "文化圏", "文型", "教えて", "提唱", "描き", "控訴", "控え", "掛けました。", "掛けた。", "振り", "挙げられる。", "抄』", "承認", "扱う。", "打ち明けて", "打つ", "所在", "所へ行", "成立した", "懸け", "懇意", "態度に", "感」「", "意味で", "想い", "悉曇", "悉く", "恐ろしい", "恋は", "性が", "急いで", "思い切って", "思い出した。", "念が", "忙しい", "必竟", "心臓", "復活", "後続", "彼と", "役割を果た", "形の", "引き移", "式の", "弁解", "弁別", "建造", "度胸", "帝政", "工業", "山里", "居城", "居住", "小石川", "対照", "家庭", "実をいうと、", "実現", "実家", "定着", "定する", "完全に", "学校、", "孤独", "存する", "嫌いな", "始めから", "始まる", "妙に", "好い心持", "大きい", "大事に", "多くは", "多数の", "外来語が", "外国人", "外国語", "外側", "変る", "増大", "基準を", "地理学は", "地理学と", "地理的な", "地に", "圏を扱う", "固有の", "図書館", "喧嘩", "喜んで", "喜び", "問い", "和製", "呼称", "周旋", "向うから", "同じく", "同音", "同時に、", "各自", "古来の", "口で", "受ける", "原糸体", "単純な", "単語の", "単独", "医者の", "区域", "北陸", "北部", "動詞・形容詞・形容動詞", "動詞の", "労働", "加盟国", "加減", "割合は", "割り", "前から", "利害", "分裂組織", "分かり", "出身者", "出来事", "出て来た", "出入", "出さ", "冷たい", "冬は", "内側", "共通の", "共同体", "入れた", "入った", "先生はまた", "先を", "兄と", "傘下に", "側面", "倫理的に", "借り", "依頼", "例の通り", "使われる。", "使い", "作さん", "何とかい", "何しろ", "体系を", "住居", "会った", "仮名遣いの", "仮名を", "以上、", "付け足", "付ける", "付き", "他言語", "仕方があり", "仏教", "今日の", "今は", "人間は", "人から", "互い", "二人の間", "二段", "事ができる", "事ができなかった。", "事情", "乾燥", "主張する", "主として", "中期", "世紀の", "世は、", "不断", "不意に", "下らない", "上野", "上述", "上昇", "上回", "上で", "三度", "一般化した。", "一般に、", "一覧", "一日", "ーズ", "ージ", "ーション", "・鈴木", "・連体形", "・わ", "ヴァル＝ド＝マルヌ", "ンテー", "レストラン", "レット", "ルジュ", "リンピ", "リンピック", "ラン・", "ラジ", "ユーラ", "ユダ", "ユダヤ", "ュータ", "ム\n", "ポン", "ボンヌ", "ボミ", "ボス", "ペリフェ", "ペリフェリック", "プログループ", "プス", "ファッ", "ファッション", "ピュータ", "ビジネス", "パリ市の", "パリ第", "パレ・", "バレ", "ハプログループ", "ハイ", "ネル", "ナー", "ナル", "ナス", "ド・フランス", "ドゥ・", "ドイツの", "トゥ", "ティ・", "ツノゴケ", "ツボミ", "ッド", "ッチ", "チョ", "タル", "セーヌ県", "セルビア", "スピ", "ジョルジュ", "ジャック", "ジェルマン", "ショー", "シャルル・ド・", "シャルル", "シン", "サ変動詞", "サントノ", "サンス", "サッカ", "ゴル", "コンピュータ", "コマチ", "クス", "ギー", "キリシタン資料", "オリンピック", "オブ", "エトワール", "ウル", "ウス", "ウォ", "イヤ", "アンリ", "アルプス", "アクセントが", "んでしょう。", "んだん", "んじゃ", "を見ました。", "を見た。", "を指す", "を出した。", "を中心に、", "をもってい", "をもって、", "をはじめ", "を重", "を通", "を買", "を聞", "を構成", "を帯び", "を吹", "をつ", "をしている", "を」「", "わせ", "れを", "るのも、", "るのに、", "るとき", "る訳", "るや否", "るべき", "るのです。", "るが、", "るい", "り付け", "られるようになった。", "られていた", "らしい。", "らは", "らと", "らした。", "らう", "ようになる。", "ようとした。", "より、", "ょう", "ゆく", "やむ", "やった", "ものとみ", "ものではなく、", "もの通り", "もその", "みて、", "ますます", "ましたから、", "まれて", "まして", "ぽつ", "ほど、", "ほとんどの", "べた。", "へ出た", "ばら", "はいずれ", "はいずれも", "はなかった。", "はな", "の音が", "の間には", "の方でも", "の方で", "の大部分", "の合字", "の事が", "の中心地", "の中から", "の一覧\n", "のではなかろう", "のではありません。", "のだそうです。", "のだ。", "のうちに、", "の類", "の都", "の発達", "の特徴", "の好い", "の声", "の場合", "の代表", "の不", "の下に", "のを、", "のひとつ", "に関しては、", "に関して、", "に過ぎなかった。", "に見られる。", "に見られる", "に応じて", "に対しても", "に向か", "に入れ", "によっては", "にはまだ", "にはならない", "になったのは", "にならない", "になっている。", "になっていました。", "になっていた。", "について述べ", "につなが", "にしてお", "においても、", "に「は", "に、私は", "に面", "に罹", "に現", "に比べ", "にのぼ", "にない", "にして、", "にした。", "なんか", "なさる", "なければなり", "な人間", "な事", "なしに", "どういう", "どちら", "と違って、", "と同じように", "と同じような", "と共に、", "となっている", "とすると、", "というより", "というような", "というほどの", "というのは", "といっても", "といっしょ", "とはい", "とど", "とされる", "でもある", "でもあった。", "ではないのです。", "ではいずれも「", "ではありません", "できない。", "できた", "であると考え", "であるため、", "でありながら、", "ていなかった。", "てて", "ってくる。", "っているのです。", "って行った。", "っそり", "っく", "ちゃい", "だろうと考え", "だろうか", "だろう」\n", "だけです。", "だけであった。", "だんだん", "だわ", "だら", "だとも", "だし、", "だか、", "だ」と", "そんな事を", "それぞれ「", "それには", "それとも", "その男", "そのくせ", "そのうち", "そうして、", "そわ", "せず、", "することを", "することもある。", "する必要", "する」「", "すなわち、「", "しました", "しているが、", "しています。", "していく", "してくれた", "したら", "したもの", "したのは", "しがる", "しかない", "し出しました。", "されてきた。", "させた。", "さっき", "さい", "さ。", "ごとくに", "ございます", "これでも", "この間の", "この姉", "この前", "ことも", "ことは、", "ことから、", "ここへ", "こういった", "けれどもその", "ければ", "くる", "が集中", "が多数", "があって、", "が、その頃", "が、私の", "が残", "が来る", "がまた", "がない。", "が『", "からない", "からである。", "から「", "かかわ", "かろう", "お父さんの", "おもに", "お前の", "いつか", "いなくなった", "いている。", "いていました。", "いえ", "ある時", "あまりに", "あなたも", "』（18", "」を意味する", "」となる。", "」とするなどの", "」といいました。", "」と呼ぶ", "」として", "」「か", "」「う", "」である。", "」(", "「私が", "「奥さん", "「は", "、と", "、そして", "、IS", "、ISBN", "、ISBN ", "、ISBN 9", "、ISBN 978", "、ISBN 978-4", "、ISBN 978-4-", "、199", "　私はまた", "　その日", "the", "ter", "st", "ought ", "la", "ical ", "e, ", "and", "Y染色体", "SV", "Ne", "8年の", "7月", "7年に", "55", "5,", "2005年", "2005", "21", "1960年代", "16世紀", "1月", "1,", ". Chicago", ".6", ".5", "\"「", "  を用いる話者", "  →", " マ", " イ", " ア", " 『", " d", "？」と", "＝サン＝ドニ", "）」など。", "）」「か", "）も", "）において", "）という", "）では", "）」などの", "）「", "） ", "（）の", "（例、", "（カ", "（い", "（『", "（S", "（18", "鼻音", "黒海", "高級住宅", "高等学校", "高橋", "高層", "驚かされた。", "馬場", "首肯", "食卓で", "食べて", "類（", "顔をして", "頭高型", "頃には、", "頃に", "音声学", "静かに", "雌雄同", "陛下", "関係を", "関係の", "関心", "間が", "開音節", "開けて、", "鉄瓶", "金魚", "金融", "金を", "野晋", "配偶体の", "都市\n", "都心", "選出", "違う", "過ぎて", "運ば", "造精器が", "通りの", "通称", "通の", "逆に", "追窮", "述べている。", "述べた", "返事の", "近づ", "込む", "農業", "辞苑", "軍人の", "軍事", "跡を", "足の", "起り", "起した。", "財産を", "議員", "警視", "論理", "論が", "誰も", "誰でも", "読んだ", "語彙量", "語彙体系", "語彙・", "語彙は、", "語彙が", "語尾の「", "語中・", "語を用い", "語を「", "語が出", "認める", "認めた", "誇り", "話をした。", "話をした", "話の", "詰めた", "訳『", "計量", "言語学\n", "言語能力", "言語として", "言葉を、", "言葉は、", "言海", "言しました。", "解決", "観点から", "観光地", "観光名", "観光名所", "観測", "親しみ", "視覚", "規範", "見られない。", "見えたのです。", "見舞", "見当", "要領を得", "要塞", "西部、", "複合語を作", "表記法", "表記の", "表記に", "表意", "行」音", "行動", "藻類", "薩隅", "著、", "葉緑", "落ち付き", "菓子", "若葉", "色（", "自身が", "自分は", "脱落", "背景", "聞かされた", "聖堂", "耳を", "考えました。", "考えていました。", "考えていた", "翻訳", "美術品", "置く", "置き", "総監", "結果が", "約8", "約5", "策略", "第二次世界大戦後", "第三", "笑い出した。", "競馬場", "立ち上が", "立地", "空港\n", "空気の", "空気", "種々の", "科学技術", "私はＫの", "私は金", "私は答えた。", "私はそんな", "私の顔を見て", "私の顔を見た。", "私の眼に映", "私の眼は", "私の予期", "社会的", "確立", "破裂", "着物", "着け", "眼を通", "眼で", "眺めた。", "真核生物", "真直", "県と", "看護", "相手に", "目的物", "監修", "的研究", "百年戦争", "発達し、", "発点", "病人", "疑惑", "異なり", "用いられている。", "用字", "生物学", "生態", "生きた", "環状", "理由を", "現在でも", "珍しく", "独り", "犯罪", "物語』", "父の病気を", "父の病気は", "父親", "父も", "照ら", "然とした", "無理に", "無声化", "無性", "点が", "漢字表記", "漢字が", "漢和", "源氏", "済まない", "淋しく", "浣腸", "流れる", "活用形", "活躍", "活花", "洋燈", "洋服", "注意を払", "泥棒", "法則", "沢山", "沈黙", "決心を", "水道", "気温が", "気分を", "気が付きました。", "気も", "気には", "毎年", "死に", "死な", "歴史的な", "正式名称", "正当", "機能を", "様子じゃ", "様式", "構造を", "構造が", "椎茸", "森林", "格子を", "枕元に坐", "東京へ行く", "東国", "机の前に", "机の", "本拠", "末から", "未来の", "期には", "服装", "有様", "有力", "最高", "最大", "書籍", "書く", "書いた。", "曲げ", "暗に", "時代に", "時頃", "時間に", "昨日", "昔から", "明るい", "旨い", "日本語の「", "日本語では", "日本人の", "日を", "日、", "施行", "方言は", "方言と", "方法を", "新しく", "断って", "文末が", "文字（", "文書", "文は、", "文は", "文では、", "文が", "数字", "敬意を表す", "教える」", "教授", "政策", "政党", "擬態", "接近させ", "接続詞", "挨拶を", "指導要領", "拡張", "押し", "抜けた", "折れ", "抑え", "打ち消", "手紙を書く", "手に持", "手の", "所属", "所は", "所に", "房州", "成分である。", "成果を", "憶い", "憲法", "憐れな", "感情が", "意味は", "想像した。", "悲しい", "悪い事を", "悪人", "恥ず", "恋は罪悪", "思いました。", "忽ち", "念を押", "忠告", "応の", "必須", "心持がしました。", "心のうちで、", "微笑", "復讐", "後舌", "後では", "待遇", "待っている", "彼の室", "彼の前に", "形成され、", "当り", "強情", "弱い", "引き取", "廻して", "建造物", "度に", "年間", "年も", "帽子", "希望する", "已然", "工場", "岩波"], "merges": [["た", "。"], ["て", "い"], ["る", "。"], ["し", "た。"], ["な", "い"], ["か", "ら"], ["し", "て"], ["私", "は"], ["っ", "て"], ["っ", "た"], ["は", "、"], ["っ", "た。"], ["の", "で"], ["す", "る"], ["そ", "の"], ["と", "い"], ["よ", "う"], ["す", "。"], ["ま", "した。"], ["で", "あ"], ["し", "た"], ["そ", "れ"], ["さ", "れ"], ["さ", "ん"], ["が", "、"], ["先", "生"], ["ので", "す。"], ["ら", "れ"], ["な", "ど"], ["とい", "う"], ["に", "は"], ["っ", "てい"], ["な", "か"], ["日", "本"], ["に", "な"], ["私", "の"], ["も", "の"], ["し", "てい"], ["こ", "と"], ["い", "て"], ["ま", "た"], ["こ", "の"], ["に", "、"], ["パ", "リ"], ["り", "、"], ["あ", "る"], ["で", "は"], ["」", "「"], ["で", "も"], ["」", "\n"], ["ん", "で"], ["そ", "う"], ["し", "か"], ["奥", "さん"], ["」", "と"], ["言", "語"], ["日本", "語"], ["と", "して"], ["ま", "せ"], ["る", "と"], [" ", "\n"], ["が", "あ"], ["よう", "に"], ["こ", "れ"], ["と", "も"], ["、", "「"], ["に", "よ"], ["な", "く"], ["なか", "った。"], ["であ", "る。"], ["た", "め"], ["って", "、"], ["」", "の"], ["し", "い"], ["ラ", "ン"], ["で", "、"], ["自", "分"], ["ませ", "ん"], ["し", "、"], ["に", "も"], ["わ", "れ"], ["け", "れ"], ["考", "え"], ["よう", "な"], ["い", "た"], ["言", "葉"], ["ま", "で"], ["しか", "し"], ["から", "、"], ["ん", "だ"], ["よ", "り"], ["の", "中"], ["なか", "った"], ["で", "き"], [" ", " "], ["し", "ょ"], ["だ", "け"], ["ろ", "う"], ["地", "理"], ["も", "、"], ["ど", "う"], ["て", "、"], ["ん", "な"], ["ら", "ない"], ["る", "の"], ["1", "9"], ["てい", "る。"], ["事", "を"], ["先生", "の"], ["ー", "ル"], ["　", "私は"], ["を", "見"], ["い", "う"], ["あ", "な"], ["で", "は、"], ["る", "こと"], ["であ", "った。"], ["しょ", "う"], ["）", "\n"], ["用", "い"], ["で", "す"], ["と", "、"], ["あな", "た"], ["た", "だ"], ["先生", "は"], ["う", "ち"], ["あ", "り"], ["てい", "る"], ["あ", "る。"], ["も", "ので"], ["で", "した。"], ["お", "嬢"], ["場", "合"], ["地理", "学"], ["フ", "ラン"], ["お嬢", "さん"], ["人", "の"], ["語", "の"], ["に", "つ"], ["と", "思"], ["時", "代"], ["こ", "う"], ["ば", "、"], ["であ", "る"], ["ほ", "ど"], ["す", "る。"], ["し", "ま"], ["方", "言"], ["私", "が"], ["私", "に"], ["に", "お"], ["ってい", "る"], ["か", "、"], ["通", "り"], ["と", "な"], ["植", "物"], ["同", "じ"], ["0", "0"], ["動", "詞"], ["研", "究"], ["ない", "。"], [".", " "], ["り", "ました。"], ["など", "の"], ["して", "、"], ["ン", "ト"], ["れ", "た"], ["それ", "を"], ["こ", "ろ"], ["自分", "の"], ["多", "く"], ["ると", "、"], ["ません", "。"], ["彼", "の"], ["フラン", "ス"], ["そ", "こ"], ["的", "な"], ["文", "字"], ["につ", "いて"], ["だ", "ろう"], ["してい", "る"], ["られ", "る"], ["ー", "ロ"], ["し", "ました。"], ["に", "対"], ["れ", "る"], ["い", "た。"], ["ら", "、"], ["ま", "す。"], ["っ", "と"], ["けれ", "ど"], ["な", "が"], ["父", "の"], ["よう", "にな"], ["な", "る"], ["ッ", "パ"], ["ら", "い"], ["は", "「"], ["に", "は、"], ["し", "く"], ["され", "る"], ["ーロ", "ッパ"], ["ヨ", "ーロッパ"], ["ま", "だ"], ["が", "でき"], ["い", "ました。"], ["意", "味"], [",", " "], ["その", "時"], ["ゴ", "ケ"], ["Ｋ", "は"], ["そう", "して"], ["お", "よ"], ["てい", "た。"], ["の", "方"], ["」", "を"], ["仮", "名"], ["の", "間"], ["され", "た"], ["け", "る"], ["学", "校"], ["は", "い"], ["え", "る"], ["）", "。"], ["私", "には"], ["東", "京"], ["存", "在"], ["世", "界"], ["た", "のです。"], ["い", "。"], ["的", "に"], ["ま", "す"], ["およ", "び"], ["日本語", "の"], ["前", "に"], ["セ", "ント"], ["と", "ころ"], ["が", "ある"], ["奥さん", "は"], ["地", "域"], ["った", "のです。"], ["受", "け"], ["少", "し"], ["によ", "って"], ["な", "ら"], ["す", "ぐ"], ["してい", "る。"], ["世", "紀"], ["の", "上"], ["にお", "いて"], ["じ", "ゃ"], ["e", " "], ["取", "り"], ["があ", "る。"], ["付", "け"], ["め", "て"], ["また", "、"], ["ませ", "んで"], ["な", "けれ"], ["ってい", "る。"], ["大", "き"], ["であ", "り、"], ["って", "来"], ["い", "る"], ["答", "え"], ["私", "を"], ["現", "在"], ["父", "は"], ["か", "り"], ["よ", "く"], ["も", "う"], ["の", "一"], ["だ", "から"], ["」", "など"], ["関", "係"], ["語", "を"], ["人", "間"], ["ので", "す"], ["で", "す。"], ["する", "こと"], ["形", "容"], ["1", "8"], ["を", "、"], ["られ", "る。"], ["ど", "こ"], ["てい", "た"], ["する", "と"], ["か", "と"], ["お", "り、"], ["問", "題"], ["」", "（"], ["）", "、"], ["け", "て"], ["語", "彙"], ["二", "人"], ["ア", "ク"], ["ので", "、"], ["しょう", "。"], ["0", "年"], ["生", "物"], ["漢", "字"], ["上", "げ"], ["を", "持"], ["ませんで", "した。"], ["の", "は"], ["なけれ", "ば"], ["なかった", "のです。"], ["と", "する"], ["され", "、"], ["」", "という"], ["母", "音"], ["の", "ように"], ["ため", "に"], ["」", "とい"], ["-", " "], ["発", "音"], ["アク", "セント"], ["んで", "す"], ["ため", "、"], ["それ", "が"], ["され", "る。"], ["Ｋ", "の"], ["見", "え"], ["彼", "は"], ["体", "系"], ["けれど", "も"], ["表", "現"], ["自", "然"], ["時", "、"], ["もの", "を"], ["だ", "と"], ["さ", "せ"], [" ", "- "], ["サ", "ン"], ["へ", "出"], ["の", "言語"], ["され", "た。"], ["方", "が"], ["られ", "た"], ["ってい", "た。"], ["か", "」\n"], ["大", "学"], ["一", "般"], ["の", "うち"], ["と", "は"], ["そ", "んな"], ["し", "ば"], ["い", "つ"], ["都", "市"], ["れ", "て"], ["気", "が"], ["必", "要"], ["ま", "る"], ["ば", "かり"], ["の", "事"], ["の", "ない"], ["知", "れ"], ["手", "紙"], ["国", "語"], ["テ", "ィ"], ["よう", "に、"], ["ま", "り"], ["く", "らい"], ["a", "n"], ["と", "う"], ["た", "と"], ["2", "0"], ["好", "い"], ["パリ", "市"], ["の", "「"], ["なく", "な"], ["コ", "ケ"], ["ほ", "と"], ["それ", "で"], ["か", "も"], ["名", "詞"], ["ん", "ど"], ["め", "る"], ["に", "か"], ["あ", "った。"], ["」", "は"], ["表", "記"], ["に", "関"], ["なく", "、"], ["っ", "ち"], ["く", "れ"], ["か", "に"], ["）", "の"], ["行", "く"], ["私は", "、"], ["様", "子"], ["一", "人"], ["ロ", "ー"], ["わ", "ざ"], ["なが", "ら、"], ["き", "た"], ["え", "ば"], ["e", "r"], ["語", "が"], ["文", "法"], ["文", "化"], ["ッ", "ク"], ["ほと", "んど"], ["い", "い"], ["o", "n"], [" ", "("], ["語", "、"], ["結", "果"], ["奥さん", "の"], ["分", "類"], ["も", "ある。"], ["の", "人"], ["な", "り"], ["と", "の"], ["であ", "った"], ["い", "に"], ["来", "た"], ["教", "育"], ["共", "通"], ["に", "ある"], ["な", "お"], ["して", "も"], ["「", "お"], ["2", "00"], ["変", "化"], ["れ", "ば、"], ["ようにな", "った。"], ["これ", "は"], ["表", "す"], ["呼", "ば"], ["シ", "ャ"], ["ア", "ン"], ["ま", "した"], ["ち", "ょ"], ["それ", "から"], ["し", "ろ"], ["実", "際"], ["始", "め"], ["ら", "の"], ["べ", "き"], ["病", "気"], ["先生", "が"], ["修", "飾"], ["以", "降"], ["べ", "て"], ["こ", "こ"], ["語", "・"], ["活", "用"], ["区", "別"], ["を", "も"], ["っ", "とも"], ["く", "な"], ["もの", "は"], ["ま", "ま"], ["の", "だ"], ["にな", "る"], ["し", "ない"], ["され", "ている。"], ["い", "った。"], ["）", "と"], ["系", "統"], ["リ", "ー"], ["よ", "。"], ["ず", "、"], ["え", "て"], ["語", "と"], ["大き", "な"], ["卒", "業"], ["コケ", "植物"], ["より", "も"], ["に", "「"], ["ってい", "た"], ["ず", "に"], ["き", "ました。"], ["か", "つ"], ["か", "。"], ["t", "h"], ["（", "1"], ["話", "を"], ["私", "も"], ["書", "き"], ["助", "詞"], ["使", "用"], ["ぞ", "れ"], ["それ", "ぞれ"], ["が", "多"], ["かも", "知れ"], ["か", "な"], ["言葉", "を"], ["思", "い"], ["地", "方"], ["以", "上"], ["今", "日"], ["リ", "カ"], ["イ", "ン"], ["れ", "ば"], ["ら", "しい"], ["によ", "る"], ["態", "度"], ["心", "持"], ["ル", "ー"], ["ュ", "ー"], ["の", "ような"], ["に", "入"], ["として", "、"], ["って", "も"], ["さ", "え"], ["事", "も"], ["セ", "ー"], ["んだ", "。"], ["を", "示"], ["してい", "た"], ["さ", "ら"], ["（", "「"], ["話", "者"], ["歴", "史"], ["普", "通"], ["打", "ち"], ["は、", "「"], ["こ", "んな"], ["」", "が"], ["音", "韻"], ["落", "ち"], ["苔", "類"], ["美", "術"], ["急", "に"], ["年", "の"], ["参", "照"], ["一", "方"], ["ヴ", "ァ"], ["タ", "ン"], ["へ", "帰"], ["の上", "に"], ["の", "は、"], ["では", "「"], ["か", "ない"], ["現", "代"], ["出", "した"], ["一", "つ"], ["シ", "ア"], ["を", "出"], ["に", "向"], ["か", "れ"], ["か", "の"], ["え", "ば、"], ["い", "わ"], ["）", "を"], ["顔", "を見"], ["用い", "る"], ["子", "音"], ["り", "返"], ["む", "しろ"], ["まる", "で"], ["な", "らない"], ["とい", "った"], ["してい", "た。"], ["え", "た"], ["a", "r"], ["部", "分"], ["過", "ぎ"], ["感", "じ"], ["形", "成"], ["引", "き"], ["他", "の"], ["事", "ができ"], ["ド", "・"], ["の", "み"], ["にな", "った"], ["い", "は"], ["気", "の"], ["位", "置"], ["ス", "ト"], ["ま", "れ"], ["は", "ず"], ["ね", "。"], ["な", "の"], ["か", "い"], ["あ", "った"], ["d", " "], ["英", "語"], ["聞", "いた。"], ["経", "済"], ["突", "然"], ["デ", "ィ"], ["ア", "ル"], ["を", "表す"], ["に", "見"], ["に", "立"], ["なが", "ら"], ["つ", "も"], ["ってい", "ました。"], ["顔", "を"], ["母", "の"], ["来", "る"], ["形容", "詞"], ["体", "の"], ["も", "っとも"], ["で", "しょう。"], ["ご", "と"], ["t", " "], ["Ｋ", "に"], ["説", "明"], ["胞", "子"], ["比", "較"], ["多く", "の"], ["使", "われ"], ["ル", "・"], ["られ", "た。"], ["や", "、"], ["など", "を"], ["な", "ぜ"], ["と", "考え"], ["と", "した"], ["でも", "、"], ["だ", "った"], ["た", "い"], ["それ", "は"], ["けれど", "も、"], ["」", "などの"], ["1", "0"], ["）", "が"], ["行", "った。"], ["後", "の"], ["広", "場"], ["常", "に"], ["叔", "父"], ["区", "）\n"], ["全", "く"], ["人", "が"], ["事", "は"], ["主", "要"], ["中", "心"], ["ー", "ト"], ["パリ", "の"], ["に対", "する"], ["され", "て"], ["があ", "った。"], ["い", "で"], ["い", "く"], ["あり", "ません"], ["あなた", "の"], ["i", "s"], [":", " "], ["調", "子"], ["語", "は"], ["相", "手"], ["構", "造"], ["新", "しい"], ["可", "能"], ["前", "の"], ["事", "に"], ["セー", "ヌ"], ["を", "受け"], ["ら", "く"], ["また", "は"], ["に", "分"], ["と", "同じ"], ["ちょ", "っと"], ["だ", "の"], ["く", "、"], ["があ", "り"], ["が", "ない"], ["あなた", "は"], ["聞", "か"], ["江", "戸"], ["掛", "け"], ["外", "来"], ["国", "際"], ["出", "した。"], ["今", "まで"], ["ッ", "ト"], ["ジ", "ャ"], ["め", "た"], ["の", "ある"], ["ず", "れ"], ["から", "見"], ["あ", "り、"], ["　", "先生は"], ["1", "6"], ["近", "代"], ["若", "い"], ["社", "会"], ["時", "に"], ["成", "分"], ["形容", "動詞"], ["向", "う"], ["分", "野"], ["出", "す"], ["何", "も"], ["マ", "ル"], ["ジ", "ュ"], ["に関", "する"], ["に", "いる"], ["ない", "と"], ["で", "しょう"], ["つも", "り"], ["す", "べて"], ["か", "った"], ["か", "え"], ["いて", "、"], ["あり", "ません。"], ["r", "a"], ["o", "r"], ["間", "に"], ["過", "去"], ["自", "由"], ["父", "さん"], ["思", "われ"], ["強", "い"], ["外", "に"], ["地", "球"], ["信", "じ"], ["何", "か"], ["リ", "ア"], ["ェ", "ル"], ["を", "「"], ["も", "し"], ["の", "もの"], ["にな", "った。"], ["である", "が、"], ["て", "も"], ["っ", "しょ"], ["そこ", "に"], ["かつ", "て"], ["お嬢さん", "の"], ["い", "の"], ["々", "の"], ["i", "n"], ["19", "7"], ["1", "7"], ["辞", "書"], ["行", "われ"], ["蘚", "類"], ["種", "類"], ["眼", "を"], ["生", "活"], ["気が", "付"], ["後", "に"], ["年", "に"], ["先生", "と"], ["るの", "が"], ["に対", "して"], ["ない", "という"], ["であ", "ると"], ["てい", "ました。"], ["つ", "の"], ["し", "ゃ"], ["かえ", "って"], ["「", "私は"], ["記", "号"], ["目", "的"], ["用", "語"], ["特", "徴"], ["物", "を"], ["大", "陸"], ["同", "様"], ["先生", "に"], ["ン", "ヌ"], ["イ", "ル"], ["られ", "ている。"], ["ら", "しく"], ["さら", "に"], ["e", "s"], ["a", "l"], ["違", "い"], ["連", "体"], ["繰", "り返"], ["立", "ち"], ["種", "の"], ["用い", "られる"], ["独", "立"], ["特", "に"], ["時", "の"], ["文", "の"], ["数", "の"], ["以", "下"], ["事", "実"], ["ン", "・"], ["ツ", "ノ"], ["ゴケ", "綱"], ["ら", "なかった。"], ["の", "時"], ["にお", "ける"], ["と思", "い"], ["た", "び"], ["があ", "り、"], ["か", "」と"], ["i", "c"], ["0年", "代"], ["Ｋ", "と"], ["（", "）\n"], ["西", "洋"], ["決", "して"], ["母", "は"], ["悪", "い"], ["事", "が"], ["ール", "・"], ["ヴ", "ィ"], ["ジ", "ア"], ["の中", "に"], ["ど", "んな"], ["それ", "ほど"], ["その", "上"], ["1", "3"], ["長", "い"], ["聞", "こ"], ["美術", "館"], ["細", "胞"], ["注", "意"], ["想", "像"], ["平", "安"], ["家", "の"], ["口", "を"], ["医", "者"], ["仮名", "遣"], ["二", "人の"], ["モ", "ン"], ["メ", "リカ"], ["を", "行"], ["を", "得"], ["り", "に"], ["もので", "ある。"], ["もの", "と"], ["も", "ある"], ["ま", "った"], ["は", "その"], ["の中", "で"], ["の", "前に"], ["の", "パリ"], ["など", "が"], ["ない", "のです。"], ["ない", "の"], ["でき", "る"], ["で", "「"], ["っ", "しゃ"], ["たと", "えば"], ["た", "ち"], ["その時", "の"], ["い", "ずれ"], ["高", "等"], ["身", "体"], ["聞", "いた"], ["科", "学"], ["知", "らない"], ["無", "論"], ["江戸", "時代"], ["気", "分"], ["死", "ぬ"], ["構", "成"], ["最", "も"], ["平安", "時代"], ["学", "問"], ["地", "位"], ["合", "わ"], ["公", "園"], ["先生", "を"], ["二人", "は"], ["下", "さ"], ["リ", "ン"], ["ア", "メリカ"], ["を持", "つ"], ["わ", "け"], ["ら", "しか"], ["へ", "行"], ["の", "音"], ["とい", "って"], ["で", "した"], ["それ", "に"], ["じゃ", "ない"], ["」の", "ように"], ["1", "2"], ["）", "」「"], ["間", "の"], ["郊", "外"], ["述", "べ"], ["記", "憶"], ["私は", "その"], ["相", "当"], ["機", "会"], ["文", "章"], ["扱", "う"], ["子", "供"], ["奥さん", "に"], ["切", "り"], ["中", "国"], ["上", "の"], ["シ", "ョ"], ["ゴケ", "類"], ["を", "与"], ["られ", "て"], ["ゆ", "る"], ["にな", "って"], ["など", "、"], ["という", "。"], ["で", "の"], ["った", "の"], ["そう", "いう"], ["し", "が"], ["これ", "ら"], ["が", "多く"], ["お嬢さん", "は"], ["い", "、"], ["あ", "た"], ["」", "、"], ["o", "g"], ["o", "f"], ["e", "n"], ["Ｋ", "が"], ["調", "査"], ["話", "し"], ["葉", "状"], ["落ち", "付"], ["生", "き"], ["漢", "語"], ["意", "識"], ["思", "う"], ["影", "響"], ["尋", "ね"], ["場合", "、"], ["地", "の"], ["呼", "ぶ"], ["中", "に"], ["丁", "寧"], ["ー", "ラ"], ["レ", "ー"], ["ド", "イ"], ["タ", "ー"], ["コ", "ミ"], ["んだ", "から"], ["を示", "す"], ["を", "する"], ["よ", "」\n"], ["へ", "の"], ["のです", "が、"], ["によ", "り"], ["について", "、"], ["と思", "う"], ["とう", "とう"], ["とい", "って、"], ["せ", "る"], ["く", "に"], ["ができ", "る。"], ["ある", "いは"], ["　", "父は"], ["―", "―"], ["g", "e"], [".", "\n"], [" ", " \n"], ["音", "の"], ["財", "産"], ["聞", "き"], ["組", "織"], ["母", "が"], ["段", "々"], ["文", "体"], ["打ち", "明"], ["手", "を"], ["成", "立"], ["心", "配"], ["呼ば", "れ"], ["友", "達"], ["出", "て"], ["出", "しました。"], ["何", "とも"], ["以", "外"], ["仕", "方が"], ["人", "を"], ["人", "に"], ["中", "国語"], ["丈", "夫"], ["ー", "ク"], ["フ", "ァ"], ["ドイ", "ツ"], ["テ", "ン"], ["コ", "ン"], ["んで", "い"], ["に", "近"], ["に", "属"], ["っしょ", "に"], ["それ", "でも"], ["そ", "り"], ["する", "と、"], ["これ", "らの"], ["け", "た"], ["い", "てい"], ["a", "t"], ["\"", " "], ["＝", "ド"], ["高", "い"], ["革", "命"], ["返", "事を"], ["病", "院"], ["異", "な"], ["田", "舎"], ["理", "解"], ["時", "々"], ["手紙", "を"], ["性", "質"], ["後", "、"], ["子", "を"], ["始", "めて"], ["取", "って"], ["半", "島"], ["修飾", "語"], ["主", "語"], ["上", "が"], ["マ", "ン"], ["バ", "ス"], ["ギ", "リ"], ["なければ", "ならない"], ["な", "わ"], ["とな", "る。"], ["ち", "ら"], ["ち", "ゃ"], ["ただ", "し、"], ["た", "ない"], ["しば", "しば"], ["さ", "ま"], ["か", "った。"], ["え", "た。"], ["い", "ている"], ["「", "え"], ["of", " "], ["19", "6"], ["連", "合"], ["言語", "学"], ["言語", "の"], ["行", "政"], ["自分", "で"], ["自", "身"], ["聞", "く"], ["環", "境"], ["現在", "の"], ["欧", "州"], ["来", "の"], ["朝", "鮮"], ["早", "く"], ["心", "を"], ["奥さん", "が"], ["大", "変"], ["呼", "び"], ["参照", "）。"], ["何", "の"], ["人", "口"], ["二", "十"], ["世", "代"], ["フ", "ィ"], ["ニ", "ア"], ["ア", "ジア"], ["を", "用いる"], ["り", "の"], ["ほ", "か、"], ["は", "ない"], ["ので", "しょう。"], ["の", "が"], ["にな", "る。"], ["に", "して"], ["ため", "に、"], ["そう", "な"], ["せ", "て"], ["し", "よう"], ["これ", "から"], ["こう", "いう"], ["ぐ", "らい"], ["き", "、"], ["が", "存在"], ["い", "と"], ["」とい", "った。"], ["…", "…"], ["p", "h"], ["o", "u"], ["1", "1"], [")", "\n"], ["）", "は、"], ["覚", "悟"], ["若", "者"], ["能", "力"], ["笑", "い"], ["私は", "すぐ"], ["眺", "め"], ["発", "生"], ["民", "族"], ["死", "んだ"], ["政", "治"], ["我", "々"], ["思", "想"], ["心", "の"], ["広", "い"], ["国", "家"], ["何", "にも"], ["人", "は"], ["主", "張"], ["下", "に"], ["一", "の"], ["ル", "ト"], ["ラン", "ド"], ["ヨーロッパ", "の"], ["ビ", "ア"], ["ること", "が"], ["られ", "、"], ["のです", "から、"], ["において", "、"], ["なわ", "ち"], ["な", "さ"], ["とも", "に"], ["す", "なわち"], ["す", "で"], ["こと", "が"], ["く", "れる"], ["があ", "った"], ["が、", "その"], ["え", "、"], ["　", "私の"], ["th", "e "], ["an", "d "], ["1", "4"], ["運", "河"], ["明", "ら"], ["敬", "意"], ["平", "生"], ["学", "生"], ["基", "本"], ["呼ば", "れる"], ["古", "代"], ["以降", "、"], ["代", "り"], ["今", "度"], ["人", "、"], ["一方", "、"], ["一", "種の"], ["ン", "ド"], ["ラ", "テン"], ["ベ", "ル"], ["ア", "イ"], ["われ", "る"], ["み", "ました。"], ["ほ", "ぼ"], ["には", "い"], ["どう", "して"], ["と", "か"], ["つ", "いに"], ["たと", "えば、"], ["き", "っと"], ["が多", "い。"], ["から", "の"], ["お", "れ"], ["あ", "まり"], ["」を", "「"], ["　", "奥さんは"], ["7", "年"], ["）", "は"], ["議", "論"], ["語", "源"], ["認", "め"], ["言", "う"], ["行", "」の"], ["程", "度"], ["移", "民"], ["私は", "その時"], ["私は", "この"], ["私の", "顔を見"], ["発", "達"], ["気の", "毒"], ["比較", "的"], ["機", "能"], ["標", "準"], ["概", "念"], ["来", "て"], ["最", "初"], ["愉", "快"], ["必", "ず"], ["彼", "を"], ["彼", "ら"], ["品", "詞"], ["単", "純"], ["助", "動詞"], ["代", "表"], ["亜", "綱"], ["事", "件"], ["主", "義"], ["世", "間"], ["フ", "ォ"], ["パリ", "は"], ["パ", "ー"], ["カ", "ル"], ["イ", "ユ"], ["んです", "か」\n"], ["んで", "いる"], ["を", "立"], ["を", "含"], ["や", "り"], ["も", "多"], ["み", "んな"], ["ま", "あ"], ["の", "ために"], ["の", "『"], ["ね", "」\n"], ["について", "は、"], ["に", "する"], ["として", "は、"], ["として", "は"], ["ところ", "が"], ["って", "しま"], ["その", "日"], ["そう", "に"], ["す", "れば、"], ["してい", "ました。"], ["しか", "し、"], ["これ", "が"], ["け", "て、"], ["お", "父さん"], ["いく", "ら"], ["い", "った"], ["あ", "の"], ["』", "（1"], ["』", "（"], ["」", "は、"], ["og", "ra"], ["5", "年"], [")", " "], [" ", "エ"], ["）", "・"], ["面", "目"], ["陸", "上"], ["議", "会"], ["語", "族"], ["語", "尾"], ["言葉", "の"], ["答え", "ました。"], ["私は", "また"], ["現", "象"], ["玄", "関"], ["状", "態"], ["特", "殊"], ["母", "さん"], ["日本語", "を"], ["手", "に"], ["性", "の"], ["彼", "に"], ["学", "者"], ["区", "、"], ["出", "た"], ["人", "文"], ["二", "、"], ["二、", "三"], ["中", "世"], ["ロー", "マ"], ["シ", "ュ"], ["ク", "ロ"], ["を", "開"], ["を", "して"], ["わざ", "わざ"], ["れ", "た。"], ["るの", "は"], ["らしか", "った。"], ["ま", "でも"], ["ひ", "と"], ["ので", "ある。"], ["の", "を"], ["にも", "、"], ["には", "「"], ["どこ", "か"], ["とな", "っている。"], ["という", "意味"], ["と", "した。"], ["だけ", "の"], ["だけ", "で、"], ["すで", "に"], ["され", "ている"], ["こと", "に"], ["こ", "そ"], ["い", "ていた。"], ["」", "、「"], ["ogra", "ph"], ["19", "5"], ["0", "万"], ["Ｋ", "を"], ["馬", "鹿"], ["重", "要"], ["部", "の"], ["読", "む"], ["語", "は、"], ["言", "い"], ["解", "釈"], ["観", "光"], ["茎", "葉"], ["聞", "きました。"], ["終", "止"], ["私の", "眼"], ["知", "り"], ["異", "なる"], ["特", "別"], ["父", "が"], ["満", "足"], ["次", "第"], ["次", "の"], ["日本", "の"], ["方言", "の"], ["文", "を"], ["挨", "拶"], ["形", "態"], ["帰", "り"], ["定", "義"], ["学", "習"], ["場", "所"], ["信", "用"], ["以", "前"], ["ルー", "プ"], ["ル", "イ"], ["プ", "ロ"], ["パー", "セント"], ["ジ", "ョ"], ["サン", "・"], ["ゴケ", "亜綱"], ["グ", "ループ"], ["んで", "す。"], ["を", "した"], ["られ", "ない"], ["や", "す"], ["や", "が"], ["ま", "と"], ["へ", "入"], ["の間", "に"], ["の", "大"], ["の", "地"], ["の", "事を"], ["なければ", "なら"], ["なお", "、"], ["ない", "が、"], ["ど", "っち"], ["とい", "いました。"], ["つ", "まり"], ["つ", "つ"], ["って来", "た"], ["だけ", "は"], ["だ", "という"], ["だ", "か"], ["た", "った"], ["そり", "ゃ"], ["せ", "た"], ["して", "おり、"], ["させ", "る"], ["ぎ", "り"], ["え", "てい"], ["うち", "に"], ["いわ", "ゆる"], ["いう", "と、"], ["あり", "ました。"], ["あなた", "に"], ["あ", "あ"], ["」の", "節"], ["」", "に"], ["s", " "], ["＝ド", "＝"], ["連体", "形"], ["起", "こ"], ["起", "き"], ["読", "み"], ["記", "録"], ["苦", "し"], ["自分", "が"], ["自", "白"], ["聞", "いて"], ["統", "合"], ["真", "面目"], ["生", "れた"], ["状", "況"], ["済", "ま"], ["活", "動"], ["気", "で"], ["明", "治"], ["所", "へ"], ["後", "ろ"], ["強", "く"], ["小", "さ"], ["国", "立"], ["化", "が"], ["動", "物"], ["判", "然"], ["再", "び"], ["先生", "から"], ["中", "央"], ["世", "の中"], ["下", "宿"], ["三", "十"], ["一", "番"], ["ュー", "ン"], ["ツノ", "ゴケ類"], ["ス", "テ"], ["ア", "フ"], ["を", "指"], ["わ", "る"], ["り", "と"], ["もので", "は"], ["もの", "の"], ["ま", "ず"], ["はい", "つ"], ["の", "研究"], ["にか", "けて"], ["に", "行"], ["など", "も"], ["な", "ら、"], ["と思", "いました。"], ["とな", "った。"], ["で", "ない"], ["たとえば", "、「"], ["それ", "まで"], ["そこ", "で"], ["じゃ", "ありません"], ["した", "のです。"], ["した", "が"], ["ざ", "ま"], ["この", "ような"], ["く", "れた"], ["が", "「"], ["か", "る"], ["いずれ", "も"], ["」と", "「"], ["「", "そう"], ["　", "私が"], ["o", "l"], ["a", "g"], ["9", "年"], ["4", "年"], ["19", "9"], [" ", "パリ"], ["黙", "って"], ["黒", "い"], ["非", "常に"], ["電", "報"], ["鎌", "倉"], ["部", "を"], ["道", "路"], ["語", "（"], ["語", "順"], ["観", "察"], ["胞子", "体"], ["第", "二"], ["空", "港"], ["目", "の"], ["琉", "球"], ["構", "わ"], ["東京", "へ"], ["書", "物"], ["書", "いて"], ["時", "間"], ["座", "敷"], ["希", "望"], ["少", "なく"], ["小", "供"], ["尊", "敬"], ["対", "象"], ["宗", "教"], ["奥さん", "と"], ["基", "づ"], ["問題", "を"], ["名", "称"], ["仮名遣", "い"], ["仕方が", "ない"], ["不", "安"], ["ル", "ク"], ["ラ", "・"], ["モ", "ーラ"], ["ド", "ゥ"], ["ティ", "ー"], ["ッ", "プ"], ["セ", "ン"], ["ショ", "ン"], ["シャ", "ン"], ["シ", "テ"], ["コケ植物", "の"], ["コ", "ー"], ["ガ", "ル"], ["を", "取り"], ["を", "占"], ["を", "中心"], ["ら", "ず、"], ["より", "も、"], ["やが", "て"], ["ま", "い"], ["ほ", "か"], ["は", "まだ"], ["は", "た"], ["は", "この"], ["の", "通り"], ["に分", "け"], ["によ", "り、"], ["に", "基づ"], ["に", "い"], ["な", "のです。"], ["どう", "か"], ["ど", "の"], ["とい", "い"], ["と", "り"], ["と", "き"], ["て", "は"], ["っ", "ぱ"], ["しば", "らく"], ["し", "、「"], ["さま", "ざま"], ["こ", "っち"], ["が多", "い"], ["から", "。"], ["かも知れ", "ません。"], ["うち", "に、"], ["ograph", "y"], ["i", "t"], ["a", " "], ["1", "5"], [" ", "（"], [" ", "of "], ["）", "に"], ["音", "声"], ["陸上", "植物"], ["配", "偶"], ["連", "用"], ["語", "として"], ["置", "かれ"], ["細", "菌"], ["答え", "た。"], ["私", "と"], ["生", "じ"], ["父の", "病気"], ["点", "を"], ["歩", "き"], ["本", "当"], ["施", "設"], ["方言", "を"], ["新", "聞"], ["挙", "げ"], ["応", "じ"], ["心持", "が"], ["心", "のうち"], ["役", "割"], ["広", "く"], ["容", "易"], ["学校", "の"], ["存在", "する。"], ["奥さん", "を"], ["大き", "く"], ["大", "戦"], ["変", "な"], ["声", "を"], ["名", "を"], ["博", "物"], ["化", "石"], ["化", "した"], ["動", "か"], ["分", "布"], ["分", "らない"], ["余", "裕"], ["上げ", "る"], ["上", "、"], ["ワ", "ール"], ["ラ", "ル"], ["パリ", "を"], ["バス", "ティー"], ["バスティー", "ユ"], ["ト", "ル"], ["タ", "イ"], ["ス", "ペ"], ["コミ", "ューン"], ["オ", "ン"], ["イ", "タ"], ["アフ", "リカ"], ["ん", "と"], ["を", "向"], ["わざ", "と"], ["るの", "を"], ["ること", "ができる。"], ["り", "する"], ["より", "外に"], ["み", "込"], ["み", "た"], ["べ", "く"], ["の方", "へ"], ["ので", "は"], ["の", "に"], ["ね", "」と"], ["によ", "って、"], ["など", "は"], ["なくな", "った。"], ["どう", "しても"], ["では", "なく、"], ["って", "くれ"], ["っち", "ゃ"], ["せ", "た。"], ["する", "が、"], ["じ", "め"], ["した", "が、"], ["しか", "も"], ["し", "に"], ["され", "ること"], ["さ", "ない"], ["が", "行われ"], ["から", "い"], ["か", "れた"], ["か", "って"], ["か", "しい"], ["お", "っしゃ"], ["」とい", "った"], ["、", "パリ"], ["8", "年"], ["1", "年"], ["  ", "  "], ["音", "節"], ["集", "』"], ["部", "に"], ["遠", "慮"], ["辞", "典"], ["記", "述"], ["複", "雑"], ["複", "合"], ["者", "は"], ["結", "構"], ["結", "婚"], ["簡", "単"], ["私は", "それを"], ["私の", "方"], ["私", "たち"], ["神", "経"], ["知", "識"], ["知", "ら"], ["用い", "られる。"], ["火", "鉢"], ["深", "い"], ["気", "を"], ["次第", "に"], ["有", "名"], ["時", "は"], ["日本語", "は"], ["日本", "国"], ["文の", "成分"], ["散", "歩"], ["接", "続"], ["承", "知"], ["戦", "争"], ["思", "議"], ["心", "が"], ["広", "が"], ["嫌", "い"], ["大", "丈夫"], ["外", "国"], ["声", "が"], ["地理学", "\n"], ["合", "い"], ["叔", "父の"], ["博物", "館"], ["動", "き"], ["別", "に"], ["判", "所"], ["分", "の"], ["内", "の"], ["公", "用語"], ["先", "へ"], ["付け", "た"], ["交", "通"], ["一", "度"], ["ー", "ム"], ["ラ", "イ"], ["フ", "ェ"], ["ト", "ロ"], ["テ", "ー"], ["テ", "レ"], ["ス", "タ"], ["シ", "ー"], ["んで", "、"], ["を行", "う"], ["を", "は"], ["もので", "ある"], ["もの", "が"], ["も", "っと"], ["ま", "り、"], ["の", "色"], ["の", "下"], ["の", "かと"], ["ね", "て"], ["に", "や"], ["なら", "ば、"], ["など", "に"], ["と", "共"], ["と", "って"], ["でも", "ある。"], ["です", "か」\n"], ["であった", "が、"], ["つ", "け"], ["だ", "ったのです。"], ["ため", "の"], ["その", "頃"], ["その", "代り"], ["そ", "して"], ["せ", "ました。"], ["しま", "った。"], ["しかし", "私は"], ["される", "ようになった。"], ["さまざま", "な"], ["が", "見"], ["が", "来"], ["から", "」\n"], ["か", "という"], ["お", "前"], ["え", "ない"], ["う", "ど"], ["い", "よ"], ["」の", "「"], ["「", "あ"], ["al", " "], [". ", "L"], [" ", "\""], ["）", "」など"], ["音", "を"], ["雑", "誌"], ["都", "合"], ["通", "り、"], ["述", "語"], ["足", "り"], ["赤", "い"], ["言語", "と"], ["規", "則"], ["見え", "た。"], ["裁", "判所"], ["茶", "の間"], ["英", "語の"], ["色", "々"], ["者", "の"], ["結果", "、"], ["結", "び"], ["終止", "形"], ["私は", "ただ"], ["相", "談"], ["理", "由"], ["物", "語"], ["父", "や"], ["法", "を"], ["気", "は"], ["比", "べ"], ["様子", "を"], ["東京", "へ出"], ["日", "常"], ["文字", "を"], ["文", "節"], ["文", "献"], ["文", "末"], ["我々", "は"], ["性", "格"], ["心", "に"], ["式", "アクセント"], ["帰", "る"], ["少し", "も"], ["専", "門"], ["完", "全"], ["安", "心"], ["国", "の"], ["同", "一"], ["古", "い"], ["口", "蓋"], ["受け", "取"], ["反", "対"], ["単", "語"], ["卒業", "した"], ["区", "の"], ["化", "学"], ["勉", "強"], ["利", "用"], ["初", "期"], ["円", "唇"], ["公", "用"], ["入", "れ"], ["先", "刻"], ["兄", "は"], ["使", "う"], ["何", "を"], ["人", "と"], ["予", "期"], ["九", "州"], ["主要", "部"], ["世界", "大戦"], ["不", "思議"], ["下", "女"], ["下", "が"], ["ヴ", "ォ"], ["ン", "グ"], ["ブ", "ル"], ["パリ", "・"], ["サン", "ド"], ["ク", "レ"], ["オ", "ー"], ["んです", "」\n"], ["ると", "ころ"], ["り", "ます。"], ["や", "は"], ["やは", "り"], ["もの", "に"], ["め", "た。"], ["み", "ると、"], ["ました", "が、"], ["の方", "が"], ["の人", "口"], ["ので", "き"], ["の", "も"], ["にな", "っている"], ["にな", "って、"], ["に", "帰"], ["に", "取り"], ["な", "ん"], ["と思", "って"], ["とり", "わけ"], ["で", "なく、"], ["つ", "い"], ["った", "時、"], ["ちょ", "うど"], ["だ", "が、"], ["だ", "から、"], ["それぞれ", "の"], ["する", "に"], ["す", "べき"], ["して", "見"], ["し", "さ"], ["ぐ", "る"], ["が", "増"], ["お", "母さん"], ["い", "ていた"], ["、", "その"], ["　", "母は"], ["　", "先生の"], ["v", "er"], ["19", "8"], ["題", "目"], ["領", "域"], ["音", "が"], ["面", "に"], ["都市", "圏"], ["部", "屋"], ["過去", "を"], ["進", "んで"], ["起", "源"], ["資", "料"], ["語", "派"], ["言葉", "が"], ["要", "素"], ["行", "き"], ["自分", "を"], ["精", "神"], ["範", "囲"], ["立", "場"], ["立", "て"], ["私の", "頭"], ["的", "・"], ["的", "には"], ["発", "展"], ["留", "守"], ["生物", "が"], ["片", "仮名"], ["淋", "しい"], ["気", "候"], ["次", "世界大戦"], ["機", "関"], ["暗", "い"], ["普通", "の"], ["時代", "には"], ["時", "に、"], ["日本語", "が"], ["整", "備"], ["必要", "な"], ["往", "来"], ["平", "均"], ["平", "仮名"], ["帰", "って"], ["少", "ない"], ["室", "町"], ["宅", "へ"], ["子", "の"], ["始め", "た。"], ["大", "分"], ["多", "様"], ["城", "壁"], ["地理学", "。"], ["地域", "圏"], ["否", "定"], ["向", "け"], ["可能", "性"], ["参", "考"], ["力", "を"], ["分", "り"], ["凝", "と"], ["体", "を"], ["以上", "の"], ["仕", "方"], ["五", "十"], ["主要", "な"], ["両", "方"], ["上", "記"], ["・", "形容動詞"], ["リ", "ック"], ["ラ", "ス"], ["ミ", "ズ"], ["パ", "サンド"], ["バ", "ー"], ["チ", "ャ"], ["セーヌ", "川"], ["スペ", "イン"], ["ジャ", "ン"], ["ジ", "ェ"], ["シャ", "ル"], ["イタ", "リア"], ["アン", "パサンド"], ["んで", "しょう"], ["を持", "ち"], ["を", "食"], ["を", "扱う"], ["われ", "た"], ["る", "に"], ["よく", "解"], ["や", "や"], ["も多", "い。"], ["もので", "、"], ["もの", "も"], ["も", "ない"], ["み", "に"], ["ません", "が、"], ["ま", "れた"], ["ほど", "の"], ["の中", "心"], ["の一", "つ"], ["ので、", "私は"], ["のだ", "という"], ["の", "関係"], ["の", "だと"], ["に関", "して"], ["にな", "ると"], ["に", "限"], ["に", "着"], ["なく", "っちゃ"], ["どう", "も"], ["どう", "する"], ["との", "関係"], ["と", "を"], ["でした", "から、"], ["ってい", "たのです。"], ["って", "お"], ["だ", "。"], ["た", "ま"], ["た", "しか"], ["その", "後"], ["その", "まま"], ["そう", "した"], ["ず", "つ"], ["これ", "を"], ["き", "た。"], ["が", "一"], ["が", "」「"], ["か", "ったのです。"], ["か", "し"], ["か", "け"], ["お嬢さん", "を"], ["いた", "のです。"], ["いく", "つ"], ["」と", "な"], ["」", "で"], ["　", "："], ["ge", "ography"], ["e", "d"], ["T", "h"], ["E", "U"], ["C", "h"], ["2", "年"], ["19", "世紀"], ["18", "6"], [")", " - "], ["  ", "と"], ["）", "や"], ["）", "、「"], ["高", "級"], ["首", "都"], ["鉄", "道"], ["鈴", "木"], ["運", "動"], ["造", "卵"], ["造卵", "器"], ["通", "じ"], ["語", " \n"], ["言語", "は"], ["言葉", "は"], ["行", "った"], ["突", "き"], ["私は", "先生の"], ["私は", "今"], ["私", "にも"], ["研究", "所"], ["相", "互"], ["用", "いた"], ["理", "屈"], ["狭", "い"], ["消", "滅"], ["気", "に"], ["極", "めて"], ["格", "助詞"], ["来", "て、"], ["末", "期"], ["書", "いた"], ["時", "は、"], ["支", "配"], ["指", "摘"], ["持", "ち"], ["抜", "け"], ["成", "長"], ["悪", "く"], ["思", "った"], ["忘", "れ"], ["形", "式"], ["家", "族"], ["女", "の"], ["多", "少"], ["多", "い"], ["変", "に"], ["地", "区"], ["同", "時に"], ["兄", "が"], ["傾", "向"], ["何", "でも"], ["代", "名詞"], ["付", "く"], ["二", "度"], ["中", "で"], ["世", "話"], ["世", "の"], ["上", "に"], ["万", "葉"], ["一人", "で"], ["ヴァ", "ン"], ["パリ市", "内"], ["シテ", "島"], ["を含", "む"], ["を", "置"], ["を", "形成"], ["を", "な"], ["を", "と"], ["を", "した。"], ["り", "込"], ["り", "を"], ["ら", "っしゃ"], ["ようにな", "った"], ["や", "る"], ["や", "かな"], ["もので", "あった。"], ["ます", "」\n"], ["ま", "しょう"], ["へ", "はい"], ["へ", "は"], ["はた", "して"], ["の一", "部"], ["の", "日本語"], ["の", "境"], ["に近", "い"], ["に対", "して、"], ["によ", "れば、"], ["にな", "りました。"], ["において", "も"], ["に、", "「"], ["に", "過ぎ"], ["に", "その"], ["なる", "べく"], ["なくな", "った"], ["とな", "り、"], ["と", "違"], ["と", "称"], ["と", "み"], ["では", "ない"], ["です", "が、"], ["て", "くれ"], ["っ", "き"], ["だろう", "と"], ["だ", "って"], ["それ", "ら"], ["そ", "らく"], ["して", "くれ"], ["して", "お"], ["し", "も"], ["されて", "おり、"], ["され", "てい"], ["こと", "を"], ["こう", "いった。"], ["があ", "りました。"], ["か", "を"], ["か", "か"], ["お嬢さん", "が"], ["え", "る。"], ["いつ", "もの"], ["あ", "れ"], ["」の", "ように、"], ["」と", "称"], ["」と", "する"], ["」", "は「"], ["「", "そりゃ"], ["i", "on"], ["e", "t "], ["d", "on"], ["P", "ar"], ["I", "S"], ["6", "年"], ["3", "年"], ["18", "4"], [". ", "196"], ["%", "、"], ["高", "低"], ["食", "卓"], ["風", "に"], ["項", "目"], ["音", "楽"], ["音", "便"], ["静", "か"], ["階", "級"], ["長", "く"], ["重要", "な"], ["配偶", "体"], ["部", "、"], ["造", "精"], ["造精", "器"], ["近", "年"], ["軽", "蔑"], ["論", "じ"], ["談", "話"], ["語", "頭"], ["語", "で"], ["話", "す"], ["試", "み"], ["見え", "ました。"], ["見", "られる"], ["要", "領"], ["葉状", "体"], ["美術館", "\n"], ["私の", "胸"], ["私に", "対"], ["私に", "は、"], ["矛", "盾"], ["直", "接"], ["盛", "ん"], ["白", "い"], ["生", "命"], ["物", "質"], ["物", "の"], ["父", "と"], ["無", "声"], ["漢字", "の"], ["注", "釈"], ["求", "め"], ["気が付", "か"], ["母音", "の"], ["様子", "を見"], ["枕", "元"], ["東", "部"], ["来", "た。"], ["最", "後の"], ["書", "生"], ["書", "物を"], ["方", "面"], ["料", "理"], ["敬", "語"], ["政", "府"], ["批", "判"], ["打ち明", "け"], ["性", "を"], ["形", "で"], ["幸", "福"], ["山", "脈"], ["少なく", "とも"], ["宮", "殿"], ["実", "は"], ["学", "の"], ["始", "終"], ["大", "な"], ["外", "部"], ["地理学", "の"], ["地", "誌"], ["国際", "連合"], ["固", "より"], ["含", "まれ"], ["叔", "父は"], ["動", "作"], ["加", "え"], ["前", "で"], ["分", "け"], ["出", "身"], ["共", "和"], ["共", "同"], ["伝", "統"], ["付", "属"], ["今", "に"], ["人", "々"], ["京", "都"], ["並", "ぶ"], ["世界", "の"], ["下さ", "い"], ["上げ", "た"], ["一", "言"], ["・", "ラ"], ["ヴ", "ル"], ["ンド", "ン"], ["ロ", "シア"], ["レ", "・"], ["ラ", "ビア"], ["ニ", "ュー"], ["テレ", "ビ"], ["ス", "の"], ["キ", "リ"], ["われ", "て"], ["わ", "た"], ["ること", "もある。"], ["る", "ような"], ["られ", "ている"], ["よ", "」と"], ["もので", "した。"], ["も", "のです。"], ["も", "なく"], ["も", "しく"], ["も", "あり、"], ["め", "ました。"], ["また", "、「"], ["ふ", "と"], ["は", "1"], ["のでき", "ない"], ["の", "日"], ["に入", "って"], ["によ", "ると、"], ["に", "残"], ["に", "位置"], ["に", "した"], ["なくな", "りました。"], ["なく", "ては"], ["なか", "ろう"], ["なか", "なか"], ["とな", "る"], ["として", "の"], ["とい", "っしょに"], ["と", "にか"], ["と", "する。"], ["では", "なく"], ["でしょう", "」\n"], ["でき", "ない"], ["って来", "た。"], ["って", "も、"], ["って", "おり、"], ["っ", "ぽ"], ["だろう", "と思"], ["だ", "が"], ["ただ", "し"], ["そう", "です。"], ["ず", "に、"], ["する", "もの"], ["する", "のです。"], ["しま", "いました。"], ["してい", "ない"], ["しかし", "その"], ["ごと", "に"], ["ごと", "く"], ["ここ", "で"], ["こう", "した"], ["け", "ない"], ["が、", "「"], ["が", "集"], ["お", "そらく"], ["い", "を"], ["あ", "ら"], ["　私は", "その"], ["……", "」\n"], ["o", "o"], ["i", "e"], ["a", "s"], ["P", "r"], ["1", "日"], ["00", "年"], [".", ", "], [" ", "、「"], ["）", "など"], ["養", "家"], ["食", "べ"], ["集", "団"], ["限", "り"], ["関", "連"], ["関", "東"], ["郊外", "の"], ["遺", "伝"], ["過ぎ", "る"], ["連", "携"], ["返", "事"], ["辞書", "『"], ["買", "う"], ["語", "\n"], ["認", "識"], ["解", "らない"], ["覚", "え"], ["見", "る"], ["複", "数"], ["行", "」"], ["苦", "笑"], ["若い", "女"], ["自", "覚"], ["自", "立"], ["考え", "てい"], ["考え", "た"], ["習", "慣"], ["答", "える"], ["第二", "次世界大戦"], ["第", "一"], ["第", "1"], ["立", "つ"], ["私は", "彼の"], ["私の", "心"], ["相", "違"], ["留", "ま"], ["男", "でした。"], ["用い", "る。"], ["特", "定"], ["無", "理"], ["濁", "音"], ["母", "を"], ["様", "々"], ["来", "ない"], ["最", "古"], ["時、", "私は"], ["明ら", "かに"], ["日本語", "と"], ["数", "を"], ["数", "は"], ["推", "測"], ["指", "示"], ["感", "情"], ["意", "志"], ["情", "報"], ["心のうち", "で"], ["後", "半"], ["待", "ち"], ["形", "質"], ["帰", "った"], ["左", "岸"], ["小さ", "な"], ["室", "の"], ["定", "め"], ["夫", "婦"], ["大", "抵"], ["変", "わ"], ["基", "準"], ["坊", "さん"], ["呼", "んで"], ["合", "う"], ["古", "く"], ["口", "の"], ["印", "象"], ["医", "療"], ["動詞", "・"], ["力", "が"], ["創", "設"], ["割", "合"], ["副", "詞"], ["前", "後"], ["判", "断"], ["初", "め"], ["分", "裂"], ["分", "岐"], ["何", "遍"], ["何", "だか"], ["代", "わ"], ["今度", "は"], ["今", "の"], ["下", "り"], ["ー", "ド"], ["ヶ", "谷"], ["ヴ", "ェル"], ["ヴ", "ェ"], ["ロ", "ンドン"], ["ル", "テ"], ["リ", "ッ"], ["ラ", "ー"], ["ユ", "ー"], ["メ", "ディ"], ["ブ", "ール"], ["フランス", "地域圏"], ["フランス", "の"], ["バ", "ン"], ["ニ", "ュ"], ["ス", "・"], ["オ", "ル"], ["オ", "ペ"], ["んだ", "から、"], ["を", "除"], ["を", "知"], ["られ", "ていた。"], ["ように", "思われ"], ["も", "なかった。"], ["まま", "、"], ["ばかり", "でなく、"], ["は", " "], ["の方", "に"], ["の一", "覧"], ["のです", "」\n"], ["の", "手"], ["の", "区別"], ["の", "か、"], ["ね", "、"], ["に対", "し、"], ["によ", "く"], ["にも", "な"], ["にな", "り、"], ["に", "移"], ["に", "従"], ["に", "当"], ["なけれ", "ば、"], ["とも", "い"], ["と", "ともに"], ["であ", "り"], ["つ", "く"], ["つ", "いで"], ["って来", "る"], ["って来", "ました。"], ["って", "く"], ["だろう", "。"], ["それ", "ぎり"], ["そこ", "へ"], ["そこ", "から"], ["した", "り"], ["し", "ながら、"], ["し", "ながら"], ["し", "なかった。"], ["ご", "覧"], ["ご", "ろ"], ["ご", "く"], ["ここ", "に"], ["くな", "った"], ["が", "出"], ["から", "も"], ["から", "です。"], ["お", "も"], ["お", "う"], ["いて", "も"], ["いつ", "も"], ["いつ", "でも"], ["あり", "ませんでした。"], ["あなた", "が"], ["」", "や"], ["「え", "え"], ["「", "あなたは"], ["　", "その"], ["s", "it"], ["on", "don"], ["n", "i"], ["d", "e "], ["Th", "e "], [" ", "は"], ["（", "パリ"], ["驚", "いた"], ["類", "似"], ["頭", "を"], ["電報", "を"], ["電", "車"], ["離", "れた"], ["雌", "雄"], ["起", "る"], ["謙", "譲"], ["論", "文"], ["語派", "　："], ["語彙", "の"], ["語", "中"], ["語", "など"], ["解", "析"], ["親", "類"], ["規", "定"], ["見", "られる。"], ["見", "た"], ["見", "える"], ["複", "数の"], ["行」の", "子音"], ["興", "味"], ["聞こ", "え"], ["耳", "に"], ["考え", "方"], ["美", "しい"], ["結", "ぶ"], ["経", "験"], ["組", "み"], ["祖", "先"], ["県", "、"], ["相当", "の"], ["登", "場"], ["用", "法"], ["生", "育"], ["生", "まれ"], ["理", "論"], ["然", "として"], ["然", "と"], ["漢", "文"], ["流", "行"], ["注意", "を"], ["校", "が"], ["東", "西"], ["来", "ました。"], ["有", "の"], ["最", "後に"], ["時代", "の"], ["時", "期"], ["昂", "奮"], ["日本語", "教育"], ["日本語", "に"], ["日本語", "では、"], ["教", "科"], ["掛", "ける"], ["扱", "われ"], ["手紙を", "書"], ["所", "得"], ["成", "り"], ["愛", "の"], ["性", "苔類"], ["従", "妹"], ["当", "時の"], ["当", "時"], ["引", "っ"], ["建", "設"], ["建", "物"], ["市", "域"], ["差", "し"], ["尋ね", "ました。"], ["容易", "に"], ["学校", "文法"], ["始め", "た"], ["奥さん", "は、"], ["墓", "地"], ["境", "遇"], ["場合", "は"], ["基", "礎"], ["地", "形"], ["国", "へ帰"], ["四", "\n"], ["吹", "き"], ["君", "は"], ["各", "国"], ["取", "る"], ["南", "部"], ["半", "分"], ["区", "分"], ["務", "所"], ["動詞・", "形容詞"], ["切", "って"], ["出した", "のです。"], ["出", "版"], ["出", "して"], ["凱", "旋"], ["内", "で"], ["典", "型"], ["六", "\n"], ["元", "の"], ["健", "康"], ["住", "宅"], ["位", "の"], ["以", "来"], ["京", "阪"], ["交", "際"], ["五十", "音"], ["五", "\n"], ["二", "日"], ["二", "\n"], ["主", "語・"], ["主", "に"], ["世", "帯"], ["三", "\n"], ["一", "\n"], ["ー", "・"], ["ヴェル", "サ"], ["ヴェルサ", "イユ"], ["ヴァン", "セ"], ["ヴァンセ", "ンヌ"], ["ン", "の"], ["ロ", "ン"], ["ルー", "ヴル"], ["ルト", "ガル"], ["リ", "ヨ"], ["ユ", "ーロ"], ["ポ", "ルトガル"], ["フランス", "革命"], ["バ", "ル"], ["セ", "ル"], ["シ", "ダ"], ["ゴケ綱", "  \n"], ["ゴケ亜綱", "  \n"], ["グ", "ラン"], ["ク", "リ"], ["ギリ", "シア"], ["イル", "＝ド＝"], ["アクセント", "核"], ["んでい", "る。"], ["を持つ", "。"], ["を占", "め"], ["を与", "え"], ["をも", "っている"], ["を", "有"], ["を", "失"], ["ろう", "と"], ["れ", "て、"], ["るの", "は、"], ["ること", "がある。"], ["ら", "す"], ["ら", "が"], ["よう", "だ"], ["ものの", "、"], ["もの", "は、"], ["もの", "だろう"], ["もっとも", "、"], ["もしく", "は"], ["もある", "が、"], ["も", "多く"], ["む", "ず"], ["み", "、"], ["ます", "が、"], ["へ", "行く"], ["へ", "と"], ["は、", "この"], ["は", "ほとんど"], ["の", "種類"], ["の", "合"], ["の", "こと"], ["の", "か"], ["に向", "かって"], ["にな", "ると、"], ["に", "変化"], ["に", "分類"], ["に", "伴"], ["なの", "か、"], ["など", "で"], ["とにか", "く"], ["とな", "った"], ["という", "のです。"], ["という", "こと"], ["と", "呼ばれる"], ["と", "その"], ["では", "ない。"], ["です", "から、"], ["であ", "ること"], ["で", "なく"], ["づ", "け"], ["って", "行"], ["ちゃ", "んと"], ["だけ", "でした。"], ["だ", "った。"], ["たび", "に"], ["それで", "いて"], ["それ", "と"], ["その", "他"], ["その", "人の"], ["ず", "る"], ["ず", "にはい"], ["ず", "い"], ["すること", "が"], ["す", "れば"], ["しま", "った"], ["しま", "い"], ["してい", "たのです。"], ["ご", "ざ"], ["これ", "も"], ["く", "ら"], ["く", "。"], ["きた", "い"], ["が", "進"], ["が", "必要"], ["か", "く"], ["い", "っしょに"], ["あ", "と"], ["」の節", "参照）。"], ["」の", "ような"], ["」など", "と"], ["」", "格"], ["「お", "父さん"], ["「", "今"], ["「", "もう"], ["「", "それ"], ["「", "しかし"], ["「", "い"], ["u", "r"], ["r", "e"], ["ondon", ": "], ["o", " "], ["ni", "ver"], ["l", "e"], ["in", " "], ["ic", "ag"], ["g", "h"], ["e", "t"], ["U", "niver"], ["Par", "is"], ["Ch", "icag"], ["7", "8"], ["20", "世紀"], ["20", "2"], ["2", "5"], ["186", "0年"], ["驚", "か"], ["飯", "を食"], ["面", "倒"], ["遥", "かに"], ["遠", "く"], ["運", "命"], ["連用", "修飾語"], ["路", "を"], ["質", "問"], ["諸", "島"], ["誕", "生"], ["話し", "言葉"], ["話", "して"], ["話", "した"], ["評", "価"], ["証", "書"], ["言語", "を"], ["規", "模"], ["行", "」は"], ["蘚類", "の"], ["苦", "痛"], ["自分の", "室"], ["自", "治"], ["自", "体"], ["聞く", "のです。"], ["者", "が"], ["考え", "る"], ["考え", "ている"], ["考え", "て"], ["簡単", "な"], ["第", "2"], ["空", "間"], ["私に", "向"], ["私に", "取って"], ["私", "だけ"], ["眼", "の前に"], ["発", "見"], ["疑", "問"], ["異な", "る。"], ["由", "来"], ["現", "れ"], ["決", "心"], ["母", "語"], ["母", "に"], ["段", "活用"], ["歴史", "的"], ["正", "直"], ["機会", "を"], ["様々", "な"], ["植", "民"], ["果", "た"], ["東", "北"], ["昔", "の"], ["日本", "人"], ["方言", "（"], ["方言", "、"], ["方", "法"], ["文字", "の"], ["文化", "的"], ["文", "学"], ["敬意", "表現"], ["放", "送"], ["擦", "音"], ["換", "え"], ["接", "近"], ["接", "触"], ["掛け", "た"], ["指", "導"], ["指", "す"], ["投", "げ"], ["技", "術"], ["或", "る"], ["意", "見"], ["意", "に"], ["恐", "れ"], ["彼", "らの"], ["当", "初"], ["庭", "園"], ["床", "を"], ["年", "前"], ["平", "気で"], ["少", "ない。"], ["小", "学校"], ["対", "応"], ["家", "を"], ["家", "へ"], ["室町", "時代"], ["宅", "へ帰"], ["学校", "教育"], ["姉", "妹"], ["妙", "な"], ["女", "性"], ["外部", "リン"], ["外部リン", "ク"], ["地", "下"], ["困", "難"], ["呼ばれ", "る。"], ["含", "め"], ["君", "の"], ["医者", "は"], ["区", "画"], ["動", "く"], ["力", "で"], ["刑", "務所"], ["分", "析"], ["分", "化"], ["出", "し"], ["凱旋", "門"], ["内", "容"], ["八", "\n"], ["全", "国"], ["全", "体"], ["全", "て"], ["先生", "は、"], ["充", "分"], ["働", "き"], ["傍", "に"], ["例", "えば"], ["作", "り"], ["何", "と"], ["体", "（"], ["低", "い"], ["企", "業"], ["以外", "の"], ["以", "後"], ["付け", "て"], ["人文", "地理学"], ["人", "類"], ["二人", "称"], ["事", "のできない"], ["事", "があり"], ["下さ", "い。"], ["七", "\n"], ["一般", "化"], ["一", "部"], ["一", "年"], ["一", "向"], ["ー", "ス"], ["リ", "ゼ"], ["ラ", "グ"], ["マル", "ヌ"], ["プ", "レ"], ["デ", "ー"], ["テ", "ュ"], ["チ", "エ"], ["サ", "ント"], ["ク", "ト"], ["オ", "ノ"], ["イル＝ド＝", "フランス地域圏"], ["アクセント", "の"], ["んでしょう", "」\n"], ["んで", "いた"], ["を立", "つ"], ["を持ち", "、"], ["を受け", "た"], ["を", "経"], ["を", "眺め"], ["るの", "か"], ["り", "で"], ["り", "した。"], ["らしい", "のです。"], ["より", "は"], ["ようにな", "り、"], ["ように", "も"], ["ような", "事を"], ["よ", "ほど"], ["よ", "、"], ["や", "否"], ["もの", "が、"], ["も", "とも"], ["も", "と"], ["も", "い"], ["み", "た。"], ["ません", "よ。"], ["ません", "」\n"], ["ひと", "つ"], ["は", "同じ"], ["は", "『"], ["の中", "を"], ["ので", "あった。"], ["の", "森"], ["の", "問題"], ["の", "口"], ["の", "例"], ["の", "なか"], ["の", "ち"], ["の", "3"], ["に", "違い"], ["に", "加"], ["に", "出"], ["に", "一"], ["なる", "ほど"], ["な", "んです。"], ["どんな", "に"], ["どの", "くらい"], ["どう", "した"], ["として", "も"], ["とか", "いう"], ["という", "点"], ["でも", "ない"], ["では", "なかったのです。"], ["では", "なかった。"], ["では", "ありません。"], ["です", "」\n"], ["である", "（"], ["つもり", "で"], ["ってい", "るの"], ["ってい", "ます。"], ["ってい", "ない"], ["った", "ら"], ["ち", "っとも"], ["だろう", "か。"], ["た", "が"], ["その時の", "私は"], ["その", "後、"], ["その", "ため、"], ["ぜ", "ひ"], ["する", "ために"], ["す", "こ"], ["しま", "う"], ["しても", "ら"], ["し", "・"], ["し", "ません。"], ["され", "ていた"], ["これ", "は、"], ["こう", "い"], ["け", "ました。"], ["け", "た。"], ["くらい", "です。"], ["く", "なる"], ["き", "の"], ["が", "形成"], ["が", "なかった。"], ["から", "なる"], ["かと", "考え"], ["か", "分らない"], ["おっしゃ", "る"], ["うち", "、"], ["い", "か"], ["あ", "げ"], ["』（1", "6"], ["』", "の"], ["」とい", "って、"], ["」と", "発音"], ["、", "私は"], ["、", "それ"], ["　", "Ｋは"], ["y", ", "], ["y", " of "], ["u", "s"], ["l", "l"], ["er", " "], ["en", "t"], ["c", "h"], ["a", "m"], ["Univer", "sit"], ["2", "7"], ["00", "0万"], ["00", "0"], [". L", "ondon: "], [" - ", "「"], [" (", ") - "], ["  ", "を用いる"], ["  ", " "], [" ", "欧州"], [" ", "「"], ["Ｋの", "室"], ["）", "では、"], ["）", "で"], ["高", "型"], ["驚", "きました。"], ["顕", "著"], ["音韻", "論"], ["面", "白"], ["関係", "が"], ["開", "発"], ["開", "催"], ["量", "の"], ["重", "ねて"], ["郷", "里"], ["郵", "便"], ["遊", "び"], ["通り", "を"], ["通り", "に"], ["通り", "。"], ["通り", "\n"], ["近代", "以降"], ["近", "頃"], ["近", "畿"], ["近", "く"], ["距", "離"], ["足", "を"], ["走", "る"], ["象", "徴"], ["調子", "で"], ["誤", "解"], ["語", "種"], ["語", "文"], ["語", "では"], ["詳", "細"], ["設", "置"], ["設", "立"], ["記", "念"], ["訓", "読"], ["言語", "が"], ["言", "われ"], ["見え", "た"], ["西", "ヨーロッパ"], ["補", "助"], ["表記", "体系"], ["行", "為"], ["行", "の"], ["蒴", "歯"], ["苦", "しく"], ["花", "が"], ["色", "を"], ["色", "々の"], ["脚", "注"], ["脚注", "\n"], ["胞子", "嚢"], ["聞こ", "えた。"], ["聞き", "返"], ["翌", "日"], ["罪", "悪"], ["編", "纂"], ["総", "称"], ["総", "合"], ["絶", "え"], ["紹", "介"], ["細", "い"], ["約", "束"], ["紀", "元"], ["管", "轄"], ["筆", "を"], ["私は", "突然"], ["破", "壊"], ["研究", "する"], ["眼", "鏡"], ["目", "に"], ["的", "である。"], ["発", "表"], ["病院", "、"], ["病気", "の"], ["男", "女"], ["用い", "られ、"], ["用い", "られ"], ["用", "いて"], ["特定", "の"], ["物", "足り"], ["片", "付"], ["源", "因"], ["海", "水"], ["注", "目"], ["沿", "岸"], ["河", "川"], ["汽", "車"], ["永", "久"], ["気", "味"], ["民", "の"], ["母語", "話者"], ["植物", "の"], ["東京", "へ帰"], ["本", "を"], ["月", "2"], ["書き", "言葉"], ["書", "斎"], ["普", "及"], ["明ら", "か"], ["明", "確"], ["日本語", "研究"], ["日", "蓮"], ["日", "の"], ["方", "は"], ["新", "た"], ["教科", "書"], ["教", "師"], ["教", "える"], ["支", "え"], ["採", "用"], ["掛", "けて"], ["拡", "大"], ["抽", "象"], ["批", "評"], ["我", "慢"], ["感じ", "た。"], ["意味", "が"], ["応", "用"], ["心", "得"], ["後", "で"], ["後", "から"], ["彼ら", "は"], ["広", "大な"], ["帯", "び"], ["対", "立"], ["実", "を"], ["実", "に"], ["奥さん", "も"], ["奥さん", "は「"], ["大", "方"], ["多", "数"], ["変化", "を"], ["声", "で"], ["増", "加"], ["墓", "参"], ["場合", "には、"], ["地方", "の"], ["地域", "の"], ["地", "を"], ["地", "が"], ["四", "十"], ["命", "令"], ["周", "囲"], ["告", "げ"], ["同様", "の"], ["同", "士"], ["史", "\n"], ["句", "の"], ["古", "細菌"], ["古", "典"], ["受け", "身"], ["反", "映"], ["及", "び"], ["厭", "な"], ["単", "なる"], ["前", "に、"], ["刺", "戟"], ["分", "か"], ["出", "典"], ["出", "る"], ["出", "して、"], ["共通", "語"], ["共通", "祖先"], ["共", "有"], ["元", "来"], ["偶", "然"], ["係", "り"], ["価", "値"], ["例", "えば、"], ["何遍", "も"], ["体系", " \n"], ["体", "制"], ["体", "に"], ["会", "の"], ["仮", "定"], ["付け", "加"], ["他", "に"], ["人間", "の"], ["人間", "が"], ["五十音", "図"], ["二人", "とも"], ["乱", "れ"], ["九", "月"], ["並", "立"], ["上記", "の"], ["一人", "称"], ["・", "デ"], ["・", "グ"], ["ワ", "ー"], ["ロ", "ワ"], ["ロ", "ス"], ["ル", "\n"], ["リヨ", "ン"], ["ラ", "ム"], ["メディ", "ア"], ["マ", "チ"], ["マ", "ス"], ["ベ", "ット"], ["ブ", "ロー"], ["パリ", "都市圏"], ["ド", "ル"], ["チ", "ェ"], ["ゼ", "リゼ"], ["ゼ", "ニ"], ["セン", "ター"], ["ジャン", "＝"], ["シャン", "ゼリゼ"], ["ギリ", "シャ"], ["キ", "ャ"], ["カル", "チエ"], ["カ", "ナ"], ["オ", "ール"], ["エ", "ール"], ["エ", "コ"], ["ウ", "ェ"], ["イ", "ス"], ["ア", "ラビア"], ["を見", "て"], ["を", "離"], ["を", "お"], ["ろ", "しい"], ["れ", "ない"], ["る", "事"], ["り", "した"], ["ら", "なかった"], ["ら", "ず"], ["よう", "とする"], ["やす", "い"], ["や", "ろう"], ["や", "く"], ["もの", "。"], ["も", "なく、"], ["も", "あった"], ["め", "られた"], ["ま", "れる"], ["ほ", "かの"], ["ほ", "う"], ["ぶ", "ん"], ["ひ", "ら"], ["は", "多く"], ["は", "もう"], ["の間", "を"], ["の間", "にか"], ["の中", "に、"], ["のです", "から。"], ["ので", "しょう"], ["のだ", "から、"], ["のうち", "、"], ["の", "裏"], ["の", "外"], ["の", "変"], ["の", "地域"], ["の", "光"], ["の", "に、"], ["の", "が、"], ["の", "お"], ["に関する", "地理学。"], ["にな", "り"], ["に", "置"], ["に", "相当"], ["に", "応じ"], ["に", "く"], ["に", "いた"], ["に", "ある。"], ["なければなら", "なかった。"], ["なく", "なる"], ["な", "んです"], ["どう", "せ"], ["ど", "ろ"], ["と思い", "ます。"], ["とい", "われ"], ["とい", "った。"], ["と", "ても"], ["できる", "だけ"], ["って、", "その"], ["った", "私は、"], ["だ", "」「"], ["だ", "」\n"], ["た", "り、"], ["その", "中"], ["その", "くらい"], ["そこ", "を"], ["そうして", "その"], ["せ", "られ"], ["ず", "っと"], ["すること", "は"], ["す", "ように"], ["じゃありません", "か」\n"], ["しま", "ったのです。"], ["しま", "す。"], ["したが", "って"], ["し", "み"], ["し", "なかった"], ["し", "ない。"], ["さ", "なかった。"], ["これ", "に"], ["この", "ように、"], ["こと", "である。"], ["こっち", "から"], ["く", "ない"], ["く", "せ"], ["き", "ません。"], ["が", "起こ"], ["が", "パリ"], ["から", "は"], ["か", "国"], ["か", "れる"], ["か", "なり"], ["いつ", "の間にか"], ["いた", "い"], ["いずれも", "「"], ["いい", "え"], ["』", "『"], ["』", "、"], ["」と", "私が"], ["「", "私の"], ["「", "地理"], ["「", "先生"], ["「", "が"], ["u", "n"], ["s", "e"], ["s", ".\n"], ["o", "m"], ["m", "an"], ["l", "i"], ["in", "g"], ["an", "g"], ["S", "O"], ["19", "4"], ["0年", "に"], ["00", "万"], [".", "7"], [", ", ", "], [" - ", "日本語"], [" ", "モン"], [" ", "the "], ["Ｋは", "私"], ["）、", "パリ"], ["）", "および"], ["（", "し"], ["高", "速"], ["高", "い。"], ["類", "型"], ["顔を", "した。"], ["項目", " \n"], ["静", "かな"], ["難", "しい"], ["雑", "司"], ["雑司", "ヶ谷"], ["関連", "項目 \n"], ["間", "に、"], ["酸", "素"], ["部", "で"], ["邪", "魔"], ["遠", "い"], ["違", "った"], ["道", "の"], ["進", "化"], ["進", "む"], ["通り", "抜"], ["通", "る"], ["迷", "惑"], ["込", "んで"], ["込", "んだ"], ["豊", "富"], ["読", "んで"], ["語・", "外来"], ["語", "法"], ["語", "には"], ["語", "である。"], ["言語", "も"], ["解", "説"], ["観", "点"], ["親", "族"], ["親", "の"], ["見", "な"], ["行」は", " 、「"], ["著", "名"], ["茶", "屋"], ["茎葉", "体"], ["苔類", "の"], ["色", "彩"], ["色", "の"], ["舌", "母音"], ["自然", "に"], ["自分", "に"], ["自", "信"], ["胸", "に"], ["聞こ", "える"], ["義", "務"], ["維", "管"], ["維管", "束"], ["絶", "対"], ["結", "ば"], ["終", "端"], ["終端", "型"], ["約", "2"], ["答え", "た"], ["等", "教育"], ["私は", "まだ"], ["私は", "ついに"], ["私の", "知"], ["私の", "方が"], ["私の", "室"], ["私に対", "する"], ["私", "が、"], ["知", "っていた。"], ["眼", "に"], ["目的", "語"], ["発", "着"], ["疑", "い"], ["異な", "った"], ["用いられる", "ようになった。"], ["用", "の"], ["生物", "の"], ["理", "的に"], ["現在", "は"], ["現在", "では"], ["現", "生"], ["獲", "得"], ["独立", "した"], ["父や", "母の"], ["点", "で"], ["漫", "画"], ["漢字", "を"], ["漢", "語・外来"], ["漢", "語は"], ["漢", "語の"], ["滅", "多"], ["済", "んだ"], ["流", "れ"], ["流", "が"], ["注釈", "\n"], ["母", "も"], ["次", "に"], ["機", "構"], ["構わ", "ない"], ["植民", "地"], ["根", "拠"], ["東", "ヨーロッパ"], ["未", "亡"], ["月", "の"], ["最", "近"], ["最", "後"], ["時", "機"], ["時", "分"], ["映", "画"], ["日本国", "外"], ["族", "の"], ["方言", "が"], ["持", "つ"], ["持", "って"], ["手", "が"], ["態度", "を"], ["態度", "は"], ["感", "ぜ"], ["意味", "する"], ["情", "を"], ["思", "った。"], ["念", "を"], ["忘", "れて"], ["必ず", "しも"], ["後", "を"], ["形", "が"], ["当", "然"], ["当", "分"], ["張", "り"], ["建", "築"], ["廃", "止"], ["年", "が"], ["平", "気"], ["席", "を立"], ["市", "長"], ["市", "街"], ["市", "内"], ["屋", "の"], ["宅", "の"], ["学", "、"], ["学", "\n"], ["始", "ま"], ["妹", "の"], ["好", "き"], ["好", "かった"], ["奥さん", "から"], ["奈", "良"], ["太", "郎"], ["大学", "の"], ["大", "部分"], ["大", "西洋"], ["大", "した"], ["外部リンク", " \n"], ["場", "で"], ["基本", "的に"], ["坐", "っている"], ["地理学", "が"], ["地位", "を"], ["地", "帯"], ["国", "民"], ["国", "内"], ["図", "書"], ["困", "る"], ["呑", "み込"], ["向う", "の"], ["同様", "に"], ["同じ", "事"], ["同", "情"], ["合", "せ"], ["各", "地の"], ["右", "岸"], ["口", "に"], ["取り", "残"], ["取り", "上げ"], ["及", "ば"], ["参照", "。"], ["助詞", "・"], ["加", "盟"], ["切", "った"], ["分", "枝"], ["分", "子"], ["出典", "\n"], ["再", "編"], ["先生が", "いった。"], ["信じ", "ていた。"], ["係り", "結び"], ["便", "宜"], ["依", "然として"], ["作", "品"], ["何", "度"], ["体", "言"], ["住", "む"], ["会", "話"], ["会", "社"], ["仮", "説"], ["以", "前の"], ["付", "近"], ["今日", "は"], ["人", "であった。"], ["京阪", "式アクセント"], ["二、三", "日"], ["二", "重"], ["二", "つ"], ["事に", "した。"], ["事", "業"], ["事", "は、"], ["九", "\n"], ["主要部", "終端型"], ["世紀", "末"], ["世代", "が"], ["不", "快"], ["上げ", "て"], ["上", "は"], ["三", "日"], ["丁寧", "体"], ["一般", "に"], ["一", "週"], ["一", "時"], ["ー", "ン"], ["ー", "ツ"], ["・ラ", "タン"], ["・", "貴"], ["・", "中"], ["・", "き"], ["・", "お"], ["ヴァ", "ル"], ["ル・", "ド・"], ["リ", "ュ"], ["ラ", "ブ"], ["ヨ", "ーク"], ["ュ", "ニ"], ["メ", "イン"], ["マル", "タン"], ["マ", "ト"], ["マト", "ペ"], ["ペ", "ル"], ["フ", "ェル"], ["ビ", "ジ"], ["ビジ", "ネ"], ["ヒ", "ト"], ["パ", "ン"], ["バ", "イ"], ["ニュー", "ヨーク"], ["ナ", "ポ"], ["ド", "メイン"], ["デー", "タ"], ["デ", "ン"], ["テ", "ル"], ["ッ", "カ"], ["ス", "タン"], ["シア", "大陸"], ["シ", "ェ"], ["サン", "＝"], ["サ", "変"], ["ゴケ綱", "は"], ["ゴケ", "  "], ["コミ", "ュニ"], ["ギ", "ャ"], ["カルチエ", "・ラタン"], ["カ", "ン"], ["オノ", "マトペ"], ["エコ", "ール・"], ["エ", "ー"], ["ウ", "ロ"], ["ウ", "ラル"], ["イン", "ド"], ["アル", "タイ"], ["アイ", "ス"], ["んだから", "」\n"], ["ん", "まり"], ["ん", "す"], ["を見", "て、"], ["を見", "た"], ["を", "着"], ["を", "用いる。"], ["を", "果た"], ["を", "加"], ["を", "」の"], ["わ", "ない"], ["わ", "ず"], ["わ", "。"], ["るの", "も"], ["るの", "だと"], ["り", "が"], ["られる", "が、"], ["られて", "おり、"], ["よう", "やく"], ["よう", "という"], ["よう", "でした。"], ["よ", "そ"], ["や", "りました。"], ["も", "この"], ["むず", "かしい"], ["み", "る"], ["ませんで", "した"], ["ま", "で、"], ["べき", "はず"], ["ひ", "ょ"], ["は", "じめ"], ["の境", "界"], ["の中", "間"], ["の中", "へ"], ["の上", "へ"], ["のみ", "なら"], ["のうち", "に"], ["の", "面"], ["の", "底"], ["の", "ように、"], ["の", "まま"], ["の", "ぼ"], ["の", " "], ["に近", "づ"], ["に立", "ち"], ["に向", "って、"], ["にな", "っていた"], ["にか", "けて、"], ["に", "次"], ["に", "」「"], ["など", "と"], ["なくては", "ならない"], ["なお", "、「"], ["ない", "事"], ["な", "もの"], ["な", "ので、"], ["どう", "でも"], ["どう", "し"], ["と思", "った。"], ["と共", "に"], ["とも", "に、"], ["ところ", "を"], ["といった", "風"], ["という", "言葉"], ["という", "よりも、"], ["と", "される。"], ["と", "くに"], ["では、", "「"], ["です", "か」と"], ["です", "か"], ["である", "という"], ["で", "終"], ["てい", "ると"], ["てい", "たのです。"], ["つつ", "ある"], ["つ", "き"], ["ってい", "ます"], ["って", "行く"], ["だけ", "で"], ["だ", "といって"], ["たしか", "に"], ["た", "ら、"], ["そう", "い"], ["そ", "ろ"], ["せ", "ずに"], ["ずにはい", "られ"], ["ずい", "ぶん"], ["する", "場合"], ["する", "ため"], ["すなわち", "、"], ["しよう", "という"], ["しま", "す"], ["しま", "いに"], ["してい", "なかった。"], ["し", "む"], ["さ", "を"], ["さ", "ぞ"], ["ごと", "く、"], ["これら", "は"], ["こう", "して"], ["き", "ょ"], ["が", "私を"], ["が", "死んだ"], ["が", "付"], ["が", "る"], ["から", "\""], ["かも知れ", "ませんが、"], ["かも知れ", "ない"], ["か、", "または"], ["か", "と思"], ["か", "が"], ["え", "て、"], ["い", "だ"], ["い", "」「"], ["あ", "んな"], ["あ", "の時"], ["あ", "ったのです。"], ["』（1", "7"], ["」の", "子音"], ["」と", "聞いた。"], ["「お", "前"], ["「お", "れ"], ["「", "先生は"], ["「", "何"], ["「", "て"], ["「", "そんな"], ["「", "じゃ"], ["、", "また"], ["ou", "gh"], ["l", " "], ["is", " "], ["i", "p"], ["es", ", "], ["c", "t"], ["c", "e"], ["SO", "V"], ["Chicag", "o"], ["B", "N"], ["6", "年に"], ["200", "7年"], ["2", "4"], ["18", "世紀"], [". ", "A"], [". ", "197"], [".", "3"], ["-", "H"], ["-", "4"], [" ", "ロ"], [" ", "ベル"], [" ", "、"], ["Ｋは", "その"], ["Ｋと", "私は"], ["Ｋ", "も"], ["）", "などの"], ["）", "」（"], ["）", "」という"], ["）", "」、"], ["（", "6"], ["（", "4"], ["鷹", "揚"], ["高等", "教育"], ["高", "高"], ["高", "句"], ["高句", "麗"], ["駄", "目"], ["風", "邪"], ["頭", "に"], ["頭", "が"], ["頃", "には"], ["音韻", "体系"], ["非", "常"], ["隣", "接"], ["際", "に"], ["陸上植物", "の"], ["長", "音"], ["鎌倉", "時代"], ["重", "く"], ["遺伝", "子"], ["選", "択"], ["適", "当"], ["達", "者"], ["過", "ご"], ["連体", "修飾語"], ["連", "続"], ["連", "文節"], ["連", "れ"], ["通", "常"], ["近", "郊"], ["近", "い"], ["辞典", "』"], ["身体", "を"], ["躊", "躇"], ["起", "った"], ["貰", "って"], ["責", "任"], ["豊", "かな"], ["警", "察"], ["談", "判"], ["語など", "\n"], ["語", "は「"], ["語", "」と"], ["語", "」"], ["話", "している"], ["詰", "め"], ["記", "す"], ["言語", "圏"], ["言い", "方"], ["解", "り"], ["親", "戚"], ["親", "切"], ["見", "られ"], ["要", "求"], ["西", "部"], ["襖", "を開"], ["複雑", "な"], ["衰", "退"], ["表", "音"], ["行政", "区"], ["行", "李"], ["行", "か"], ["衆", "国"], ["葉状", "性苔類"], ["茶", "碗"], ["苦", "しい"], ["芸", "術"], ["航", "空"], ["自然", "地理学"], ["自然", "な"], ["腹", "の中"], ["背", "中"], ["聞く", "と、"], ["聞", "いていた。"], ["者", "を"], ["考え", "ると"], ["考え", "た。"], ["習", "得"], ["置かれ", "ている。"], ["編", "『"], ["線", "の"], ["維", "持"], ["続", "け"], ["統", "計"], ["経", "った"], ["紀元", "前"], ["答え", "なかった。"], ["筆を", "執"], ["立", "た"], ["窮", "屈"], ["移", "動"], ["科学", "の"], ["私は", "急に"], ["私は", "少し"], ["私は", "先生"], ["私は", "むしろ"], ["私は", "ちょっと"], ["私の", "過去を"], ["私の", "名を"], ["私に", "とって"], ["私", "から"], ["示", "す"], ["石", "川"], ["着", "物を"], ["着", "いた"], ["眺", "める"], ["真面目", "に"], ["相手", "の"], ["発音", "される"], ["病", "室"], ["病", "人の"], ["界", "隈"], ["申", "し"], ["田", "一"], ["用", "言"], ["産", "業"], ["生物", "は"], ["生活", "の"], ["生き", "ている"], ["現在", "、"], ["現代", "の"], ["現", "地"], ["現", "れた。"], ["王", "国"], ["独", "特"], ["状", "の"], ["特", "色"], ["父", "に"], ["火鉢", "の"], ["滑", "稽"], ["海", "岸"], ["流", "の"], ["永久", "に"], ["気", "温"], ["母", "と"], ["歩", "く"], ["歩", "いて"], ["正", "式"], ["様子", "が"], ["極", "め"], ["染", "色"], ["東京", "式アクセント"], ["東京", "の"], ["来", "るのを"], ["来", "たのです。"], ["本当", "に"], ["本", "社"], ["期", "の"], ["朝鮮", "語"], ["朝鮮", "半島"], ["有名", "な"], ["有", "難"], ["最古", "の"], ["曖", "昧"], ["時、", "先生は"], ["時", "には"], ["明", "瞭"], ["日本語の", "語彙"], ["日本語の", "文"], ["日本語", "話者"], ["日本", "人が"], ["日本", "に"], ["日本", "では"], ["方", "角"], ["方", "へ"], ["方", "、"], ["文", "脈"], ["文", "句"], ["文", "中"], ["数", "が"], ["故", "郷"], ["改", "造"], ["摩", "擦音"], ["掻", "き"], ["推", "定"], ["掛", "茶屋"], ["振", "り返"], ["抜", "き"], ["扱", "い"], ["打ち明", "ける"], ["戦", "後"], ["憐", "れ"], ["感じ", "が"], ["恋", "の"], ["思", "え"], ["忘", "れる"], ["心", "理"], ["得", "る"], ["後", "で、"], ["待", "ってい"], ["彼", "は、"], ["彼", "が"], ["影響", "を受け"], ["強", "いて"], ["平生", "から"], ["帽", "子を"], ["帰", "って来た"], ["帝", "国"], ["市", "場"], ["差", "異"], ["崩", "壊"], ["寒", "い"], ["家", "が"], ["完全", "な"], ["宅", "を"], ["学", "資"], ["学", "会"], ["孤", "立"], ["存在", "する"], ["存在", "してい"], ["字", "で"], ["妹の", "夫"], ["好", "意"], ["好", "く"], ["奥さんと", "お嬢さん"], ["失", "望"], ["太", "陽"], ["大", "和"], ["多様", "な"], ["多", "い。"], ["場合", "も"], ["場合", "は、"], ["地誌", "学"], ["地", "中"], ["地中", "海"], ["国", "家の"], ["国", "々"], ["四", "国"], ["商", "業"], ["商", "人"], ["唯", "一の"], ["呼ぶ", "。"], ["告", "示"], ["名", "前"], ["名", "の"], ["合わ", "せ"], ["合わ", "さ"], ["合", "衆国"], ["台", "湾"], ["古代", "から"], ["口を", "利"], ["受け取", "った"], ["叔父", "を"], ["参考", "文献"], ["厳", "密"], ["厳", "しい"], ["原", "糸"], ["危", "機"], ["単", "位"], ["卒業", "証書"], ["卒業", "する"], ["区別", "が"], ["区", "に"], ["勢", "力"], ["務", "省"], ["前", "へ"], ["到", "底"], ["分類", "体系"], ["分", "けて"], ["分", "から"], ["出", "来"], ["再", "開発"], ["共通", "語の"], ["公園", "（"], ["全", "体の"], ["兄", "弟"], ["個", "別"], ["係", "助詞"], ["例", "外"], ["例", "の"], ["例", "、"], ["位", "相"], ["似", "た"], ["伝", "達"], ["伝", "え"], ["休", "み"], ["仰", "山"], ["以降", "の"], ["以下", "のように"], ["以上", "に"], ["代り", "に、"], ["今日", "でも"], ["人間", "らしく"], ["人間", "らしい"], ["人の", "ように"], ["人", "も"], ["二人", "が"], ["事は", "ない"], ["事", "の"], ["予", "算"], ["乏", "しい"], ["主", "な"], ["中", "華"], ["並ぶ", "。"], ["並", "べて"], ["並", "べ"], ["世", "話を"], ["世", "は"], ["与", "え"], ["不", "愉快"], ["上", "さん"], ["一方", "で、"], ["一", "部の"], ["一", "段"], ["一", "歩"], ["一", "定"], ["一", "切"], ["ール", "（"], ["ート", "ル"], ["・", "ブ"], ["・", "ツ"], ["・", "ク"], ["・", "アン"], ["・", "ア"], ["・", "「"], ["ン", "\n"], ["レー", "ジュ"], ["レ", "スト"], ["ル", "ド"], ["リ", "ュー"], ["リ", "セ"], ["ユー", "ゴ"], ["モン", "テ"], ["メ", "トロ"], ["ミズ", "ゴケ類"], ["ミ", "ュ"], ["マルタン", "運河"], ["ペ", "リ"], ["フラン", "ク"], ["ファ", "ベット"], ["パリ市", "長"], ["パリ市", "立"], ["バス", "ク"], ["ハ", "行"], ["ニア", "語、"], ["ニ", "ー"], ["ナポ", "レ"], ["ドゥ", "ー"], ["ト", "ワール"], ["デ", "ル"], ["テー", "マ"], ["テュ", "イル"], ["テュイル", "リー"], ["ティ", "ア"], ["ック", "ス"], ["ッ", "ド・"], ["ダ", "ム"], ["ソ", "ー"], ["ステ", "ル"], ["ジ", "ー"], ["ジ", "ェル"], ["シ", "タン"], ["サン・", "マルタン運河"], ["サ", "イ"], ["ゴ", "ール"], ["コケ植物", "が"], ["グ", "ラ"], ["キリ", "シタン"], ["オペ", "ラ"], ["オ", "ート"], ["イ", "ギリ"], ["アル", "ファベット"], ["アメリカ", "合衆国"], ["んだから", "。"], ["ん", "ご"], ["ん", "」の"], ["を見", "ると、"], ["を見", "る"], ["を持", "たない"], ["を受け", "取"], ["を出", "して"], ["を中心", "に"], ["を与", "える"], ["を与", "えた"], ["をな", "す"], ["をと", "る"], ["を", "飲"], ["を", "述べ"], ["を", "認め"], ["を", "支"], ["を", "挙げ"], ["わ", "」\n"], ["ろう", "とする"], ["れ", "なかった。"], ["られ", "ること"], ["らっしゃ", "る"], ["よう", "とした"], ["よう", "であった。"], ["や", "みに"], ["や", "っぱ"], ["やっぱ", "り"], ["や", "っと"], ["や", "か"], ["もので", "す"], ["もので", "あり、"], ["もの", "だから"], ["もとも", "と"], ["もう", "少し"], ["も", "見"], ["も", "なかった"], ["も", "ありました。"], ["も", "あった。"], ["む", "ように"], ["む", "やみに"], ["まと", "め"], ["まで", "の"], ["ま", "ない"], ["ま", "では"], ["ま", "え"], ["ほど", "に"], ["へ行", "って"], ["へ出", "ました。"], ["へ出", "て"], ["へ出", "た。"], ["へ", "下り"], ["ぶ", "ら"], ["は", "言語"], ["は", "段々"], ["は", "存在"], ["は", "今"], ["は", "パリ"], ["は", "まるで"], ["は", "ほぼ"], ["は", "どう"], ["は", "ありません。"], ["の方", "を向"], ["の人", "々"], ["のパリ", "」（"], ["のもの", "が"], ["の", "意味"], ["の", "城壁"], ["の", "つ"], ["の", "4"], ["に立", "つ"], ["に次", "ぐ"], ["に属", "する"], ["に基づ", "いて"], ["に向", "って"], ["に分け", "られる。"], ["に位置", "する。"], ["によ", "ると"], ["には、", "「"], ["にな", "ら"], ["について", "は"], ["について", "の"], ["において", "は"], ["に", "陥"], ["に", "至"], ["に", "富"], ["に", "坐"], ["に", "取って"], ["に", "使われ"], ["に", "不"], ["に", "をは"], ["に", "しても"], ["なら", "ば"], ["なの", "か"], ["など", "は、"], ["なかった", "のである。"], ["ない", "し"], ["な", "った。"], ["な", "た"], ["どこか", "で"], ["どこ", "にも"], ["どこ", "かに"], ["ど", "のような"], ["と考え", "られる。"], ["と同じ", "事"], ["とみ", "られる。"], ["ところ", "が、"], ["という", "間"], ["です", "から"], ["でしょう", "、"], ["でき", "る。"], ["てい", "ます。"], ["てい", "ない"], ["て", "られた"], ["ついで", "に"], ["って来", "て、"], ["って", "る"], ["って", "くれる"], ["ったの", "かと"], ["った", "ところ"], ["っき", "り"], ["だろう", "と思う"], ["たび", "たび"], ["たった", "一人"], ["た", "る"], ["た", "とい"], ["た", "く"], ["それ", "だけ"], ["その頃", "の"], ["その", "結果"], ["せ", "ない"], ["せ", "て、"], ["ずに", "い"], ["する", "ようになった。"], ["する", "ように"], ["すべて", "を"], ["す", "ぎ"], ["じゃありません", "か。"], ["しよう", "と"], ["して", "くれる"], ["しかし", "それは"], ["し", "き"], ["され", "ていた。"], ["さら", "に、"], ["させ", "て"], ["させ", "た"], ["さ", "かの"], ["さかの", "ぼ"], ["ご", "との"], ["こと", "は"], ["ぐる", "ぐる"], ["くれ", "ました。"], ["くらい", "に"], ["くらい", "な"], ["くな", "った。"], ["が存在", "する"], ["ができ", "る"], ["ができ", "て"], ["がある", "が、"], ["があ", "って"], ["があ", "ったのです。"], ["が", "開"], ["が", "強"], ["が", "広が"], ["が", "作"], ["が", "な"], ["が", "その"], ["から", "来た"], ["から", "も、"], ["から", "は、"], ["から", "いうと、"], ["かと", "疑"], ["か", "は"], ["およ", "そ"], ["お", "出"], ["う", "ん"], ["いよ", "いよ"], ["いた", "の"], ["いくつ", "かの"], ["いう", "と"], ["い", "ら"], ["い", "ます"], ["い", "ざ"], ["ある", "日"], ["ある", "が、"], ["あら", "ゆる"], ["あた", "かも"], ["』", " "], ["」を", "付けた"], ["」や", "「"], ["」など", "、"], ["」とい", "って"], ["」", "）"], ["」", "および"], ["「", "（"], ["「", "なぜ"], ["「", "き"], ["「", "いいえ"], ["々", "に"], ["々", "しい"], ["、「", "お"], ["、", "いわゆる"], ["　", "私には"], ["　", "先生と"], ["　", "二人は"], ["○", "○"], ["or", "y"], ["oo", "k"], ["o", "w"], ["k", "m"], ["i", "m"], ["i", "g"], ["geography", ". London: "], ["f", "or"], ["es", "s.\n"], ["e", "a"], ["b", "ook"], ["at", "ion"], ["ang", "u"], ["Universit", "y of "], ["R", ". "], ["Pr", "ess.\n"], ["A", "P"], ["3", "0"], ["2", "つの"], ["198", "0年代"], ["197", "0年代"], ["18", "8"], ["17", "9"], ["17", "8"], ["16", "区"], [".", ": "], [".", "0"], ["  ", "の"], ["  ", "("], [" ", "フランス"], [" ", "p"], ["＝ド＝", "マルヌ"], ["＝ド", "ニ"], ["＝", "サン"], ["）を", "著"], ["）", "」のように"], ["（", "＝"], ["（", "旧"], ["（", "、"], ["（", "5"], ["黙", "っていた。"], ["高速", "道路"], ["駅", "（1"], ["馳", "走"], ["飛", "び"], ["風", "の"], ["頼", "んで"], ["頼", "んだ。"], ["頭", "の"], ["音", "素"], ["音", "「"], ["集", "落"], ["障", "害"], ["関", "節"], ["関節", "蒴歯"], ["開", "けて"], ["門", "の"], ["長い", "間"], ["鉄道", "の"], ["鈴木", "重"], ["鈴木重", "幸"], ["金", "田一"], ["酸", "化"], ["配", "列"], ["鄭", "寧"], ["鄭寧", "に"], ["避", "暑"], ["選", "挙"], ["適", "切"], ["違", "いは"], ["道", "を"], ["過ぎ", "た"], ["連", "れて"], ["造卵器", "と"], ["造", "語"], ["通り", "と"], ["通じ", "て"], ["退", "屈"], ["述", "語の"], ["述", "構造"], ["返", "事が"], ["近", "世"], ["近", "くに"], ["込", "んだ。"], ["農", "村"], ["転", "車"], ["踏", "み"], ["起", "らなかった。"], ["賛", "成"], ["資", "格"], ["財産", "家"], ["象", "は"], ["警", "戒"], ["諸", "語"], ["調", "和"], ["説", "は、"], ["説", "、"], ["語を", "作"], ["語", "数"], ["語", "に"], ["話", "題"], ["話", "は"], ["試", "験"], ["設", "け"], ["記", "事"], ["計", "画"], ["言葉", "遣"], ["言葉", "に"], ["言葉", "で"], ["言い", "換え"], ["解", "明"], ["解", "らなかった。"], ["親", "しく"], ["見え", "ます"], ["見え", "なかった。"], ["見", "方"], ["要", "するに"], ["表現", "する"], ["表", "面"], ["表", "情"], ["行」の子音", "は、"], ["行", "する"], ["蘚類", "と"], ["蔭", "で"], ["蒲", "団"], ["葉", "の"], ["落ち", "て"], ["苦笑", "した。"], ["若者", "言葉"], ["自然", "の"], ["自然", "と"], ["自", "転車"], ["自", "己"], ["膠", "着"], ["腹", "の中で"], ["肝", "心の"], ["聞こえ", "ました。"], ["考え", "ていた。"], ["考", "察"], ["置", "いて"], ["繰り返", "した。"], ["縁", "側"], ["緯", "度"], ["緊", "張"], ["綺", "麗"], ["維管束", "植物"], ["続", "く"], ["続", "き"], ["絶え", "ず"], ["統", "治"], ["統", "一"], ["約", "4"], ["系統", "解析"], ["系統", "の言語"], ["系", "列"], ["系", "の"], ["精神", "的に"], ["算", "数を"], ["筆", "記"], ["笑い", "ながら"], ["笑", "って"], ["笑", "った。"], ["競", "技"], ["端", "に"], ["立", "っている。"], ["立", "って"], ["立", "った"], ["立", "たない"], ["種類", "の"], ["私は", "自分の"], ["私は", "父の"], ["私は", "とうとう"], ["私の眼", "に"], ["私の", "過去"], ["私の", "耳に"], ["私の", "神経"], ["私たち", "は"], ["硬", "口蓋"], ["研究", "が"], ["知り", "合い"], ["知", "らなかった。"], ["知", "っている"], ["眼", "の"], ["真", "核"], ["省", "略"], ["目", "を"], ["盛ん", "に"], ["的", "に、"], ["百", "科"], ["百", "年"], ["病気", "で"], ["留", "め"], ["界", "、"], ["男", "性"], ["男", "の"], ["用", "漢字"], ["用", "意"], ["用", "を"], ["生育", "する"], ["生じ", "た"], ["生き", "て"], ["狭", "母音"], ["特徴", "である。"], ["特", "に「"], ["物", "理"], ["熱", "心に"], ["烟", "草"], ["烈", "な"], ["点", "の"], ["漢文", "訓読"], ["滅多", "に"], ["湿", "原"], ["混", "同"], ["深", "く"], ["消", "費"], ["浮", "か"], ["派", "生"], ["活用", "のない"], ["活用", "のある"], ["法", "令"], ["気が付か", "ずに"], ["正", "しい"], ["止", "め"], ["止", "せ"], ["機", "嫌"], ["橋", "本"], ["横", "た"], ["横た", "わる"], ["標準", "語の"], ["様", "の"], ["植", "生"], ["染色", "体"], ["果", "を"], ["条", "件"], ["机", "の上に"], ["本当", "の"], ["本", "来"], ["未", "来"], ["月", "革命"], ["最初", "から"], ["暮", "ら"], ["時", "には、"], ["明治", "時代"], ["明", "白"], ["日本語", "で"], ["日", "には"], ["日", "に"], ["方", "の"], ["方", "が、"], ["新た", "な"], ["断", "わ"], ["断", "する"], ["文字", "は"], ["文字", "が"], ["文字", "\n"], ["文化", "圏"], ["文", "型"], ["教", "えて"], ["提", "唱"], ["描", "き"], ["控", "訴"], ["控", "え"], ["掛け", "ました。"], ["掛け", "た。"], ["振", "り"], ["挙げ", "られる。"], ["抄", "』"], ["承", "認"], ["扱う", "。"], ["打ち明", "けて"], ["打", "つ"], ["所", "在"], ["所", "へ行"], ["成立", "した"], ["懸", "け"], ["懇", "意"], ["態度", "に"], ["感", "」「"], ["意味", "で"], ["想", "い"], ["悉", "曇"], ["悉", "く"], ["恐", "ろしい"], ["恋", "は"], ["性", "が"], ["急", "いで"], ["思い", "切って"], ["思い", "出した。"], ["念", "が"], ["忙", "しい"], ["必", "竟"], ["心", "臓"], ["復", "活"], ["後", "続"], ["彼", "と"], ["役割", "を果た"], ["形", "の"], ["引き", "移"], ["式", "の"], ["弁", "解"], ["弁", "別"], ["建", "造"], ["度", "胸"], ["帝", "政"], ["工", "業"], ["山", "里"], ["居", "城"], ["居", "住"], ["小", "石川"], ["対", "照"], ["家", "庭"], ["実を", "いうと、"], ["実", "現"], ["実", "家"], ["定", "着"], ["定", "する"], ["完全", "に"], ["学校", "、"], ["孤", "独"], ["存", "する"], ["嫌い", "な"], ["始め", "から"], ["始", "まる"], ["妙", "に"], ["好い", "心持"], ["大き", "い"], ["大", "事に"], ["多く", "は"], ["多", "数の"], ["外来", "語が"], ["外国", "人"], ["外", "国語"], ["外", "側"], ["変", "る"], ["増", "大"], ["基準", "を"], ["地理学", "は"], ["地理学", "と"], ["地理", "的な"], ["地", "に"], ["圏", "を扱う"], ["固", "有の"], ["図書", "館"], ["喧", "嘩"], ["喜", "んで"], ["喜", "び"], ["問", "い"], ["和", "製"], ["呼", "称"], ["周", "旋"], ["向う", "から"], ["同じ", "く"], ["同", "音"], ["同", "時に、"], ["各", "自"], ["古", "来の"], ["口", "で"], ["受", "ける"], ["原糸", "体"], ["単純", "な"], ["単", "語の"], ["単", "独"], ["医者", "の"], ["区", "域"], ["北", "陸"], ["北", "部"], ["動詞・形容詞", "・形容動詞"], ["動詞", "の"], ["労", "働"], ["加盟", "国"], ["加", "減"], ["割合", "は"], ["割", "り"], ["前", "から"], ["利", "害"], ["分裂", "組織"], ["分", "かり"], ["出身", "者"], ["出来", "事"], ["出て", "来た"], ["出", "入"], ["出", "さ"], ["冷", "たい"], ["冬", "は"], ["内", "側"], ["共通", "の"], ["共同", "体"], ["入", "れた"], ["入", "った"], ["先生は", "また"], ["先", "を"], ["兄", "と"], ["傘", "下に"], ["側", "面"], ["倫", "理的に"], ["借", "り"], ["依", "頼"], ["例", "の通り"], ["使われ", "る。"], ["使", "い"], ["作", "さん"], ["何と", "かい"], ["何", "しろ"], ["体系", "を"], ["住", "居"], ["会", "った"], ["仮名遣", "いの"], ["仮名", "を"], ["以上", "、"], ["付け", "足"], ["付", "ける"], ["付", "き"], ["他", "言語"], ["仕方", "があり"], ["仏", "教"], ["今日", "の"], ["今", "は"], ["人間", "は"], ["人", "から"], ["互", "い"], ["二人の", "間"], ["二", "段"], ["事ができ", "る"], ["事ができ", "なかった。"], ["事", "情"], ["乾", "燥"], ["主張", "する"], ["主", "として"], ["中", "期"], ["世紀", "の"], ["世", "は、"], ["不", "断"], ["不", "意に"], ["下", "らない"], ["上", "野"], ["上", "述"], ["上", "昇"], ["上", "回"], ["上", "で"], ["三", "度"], ["一般化", "した。"], ["一般", "に、"], ["一", "覧"], ["一", "日"], ["ー", "ズ"], ["ー", "ジ"], ["ー", "ション"], ["・", "鈴木"], ["・", "連体形"], ["・", "わ"], ["ヴァル", "＝ド＝マルヌ"], ["ン", "テー"], ["レスト", "ラン"], ["レ", "ット"], ["ル", "ジュ"], ["リン", "ピ"], ["リンピ", "ック"], ["ラン", "・"], ["ラ", "ジ"], ["ユ", "ーラ"], ["ユ", "ダ"], ["ユダ", "ヤ"], ["ュー", "タ"], ["ム", "\n"], ["ポ", "ン"], ["ボ", "ンヌ"], ["ボ", "ミ"], ["ボ", "ス"], ["ペリ", "フェ"], ["ペリフェ", "リック"], ["プロ", "グループ"], ["プ", "ス"], ["ファ", "ッ"], ["ファッ", "ション"], ["ピ", "ュータ"], ["ビジネ", "ス"], ["パリ市", "の"], ["パリ", "第"], ["パ", "レ・"], ["バ", "レ"], ["ハ", "プログループ"], ["ハ", "イ"], ["ネ", "ル"], ["ナ", "ー"], ["ナ", "ル"], ["ナ", "ス"], ["ド・", "フランス"], ["ドゥ", "・"], ["ドイツ", "の"], ["ト", "ゥ"], ["ティ", "・"], ["ツノ", "ゴケ"], ["ツ", "ボミ"], ["ッ", "ド"], ["ッ", "チ"], ["チ", "ョ"], ["タ", "ル"], ["セーヌ", "県"], ["セル", "ビア"], ["ス", "ピ"], ["ジョ", "ルジュ"], ["ジャ", "ック"], ["ジェル", "マン"], ["ショ", "ー"], ["シャル", "ル・ド・"], ["シャル", "ル"], ["シ", "ン"], ["サ変", "動詞"], ["サント", "ノ"], ["サン", "ス"], ["サ", "ッカ"], ["ゴ", "ル"], ["コン", "ピュータ"], ["コ", "マチ"], ["ク", "ス"], ["ギ", "ー"], ["キリシタン", "資料"], ["オ", "リンピック"], ["オ", "ブ"], ["エ", "トワール"], ["ウ", "ル"], ["ウ", "ス"], ["ウ", "ォ"], ["イ", "ヤ"], ["アン", "リ"], ["アル", "プス"], ["アクセント", "が"], ["んで", "しょう。"], ["んだ", "ん"], ["ん", "じゃ"], ["を見", "ました。"], ["を見", "た。"], ["を指", "す"], ["を出", "した。"], ["を中心", "に、"], ["をも", "ってい"], ["をも", "って、"], ["をは", "じめ"], ["を", "重"], ["を", "通"], ["を", "買"], ["を", "聞"], ["を", "構成"], ["を", "帯び"], ["を", "吹"], ["を", "つ"], ["を", "している"], ["を", "」「"], ["わ", "せ"], ["れ", "を"], ["るの", "も、"], ["るの", "に、"], ["ると", "き"], ["る", "訳"], ["る", "や否"], ["る", "べき"], ["る", "のです。"], ["る", "が、"], ["る", "い"], ["り", "付け"], ["られる", "ようになった。"], ["られ", "ていた"], ["らしい", "。"], ["ら", "は"], ["ら", "と"], ["ら", "した。"], ["ら", "う"], ["ようにな", "る。"], ["よう", "とした。"], ["よ", "り、"], ["ょ", "う"], ["ゆ", "く"], ["や", "む"], ["や", "った"], ["ものと", "み"], ["ものでは", "なく、"], ["もの", "通り"], ["も", "その"], ["み", "て、"], ["ます", "ます"], ["ました", "から、"], ["ま", "れて"], ["ま", "して"], ["ぽ", "つ"], ["ほど", "、"], ["ほとんど", "の"], ["べ", "た。"], ["へ出", "た"], ["ば", "ら"], ["はい", "ずれ"], ["はいずれ", "も"], ["は", "なかった。"], ["は", "な"], ["の音", "が"], ["の間", "には"], ["の方", "でも"], ["の方", "で"], ["の大", "部分"], ["の合", "字"], ["の事", "が"], ["の中心", "地"], ["の中", "から"], ["の一覧", "\n"], ["のでは", "なかろう"], ["のでは", "ありません。"], ["のだ", "そうです。"], ["のだ", "。"], ["のうち", "に、"], ["の", "類"], ["の", "都"], ["の", "発達"], ["の", "特徴"], ["の", "好い"], ["の", "声"], ["の", "場合"], ["の", "代表"], ["の", "不"], ["の", "下に"], ["の", "を、"], ["の", "ひとつ"], ["に関して", "は、"], ["に関", "して、"], ["に過ぎ", "なかった。"], ["に見", "られる。"], ["に見", "られる"], ["に応じ", "て"], ["に対", "しても"], ["に向", "か"], ["に入", "れ"], ["によって", "は"], ["には", "まだ"], ["には", "ならない"], ["になった", "のは"], ["にな", "らない"], ["にな", "っている。"], ["にな", "っていました。"], ["にな", "っていた。"], ["について", "述べ"], ["につ", "なが"], ["にして", "お"], ["において", "も、"], ["に「", "は"], ["に、", "私は"], ["に", "面"], ["に", "罹"], ["に", "現"], ["に", "比べ"], ["に", "のぼ"], ["に", "ない"], ["に", "して、"], ["に", "した。"], ["なん", "か"], ["なさ", "る"], ["なければ", "なり"], ["な", "人間"], ["な", "事"], ["な", "しに"], ["どう", "いう"], ["ど", "ちら"], ["と違", "って、"], ["と同じ", "ように"], ["と同じ", "ような"], ["と共", "に、"], ["とな", "っている"], ["とする", "と、"], ["という", "より"], ["という", "ような"], ["という", "ほどの"], ["という", "のは"], ["とい", "っても"], ["とい", "っしょ"], ["と", "はい"], ["と", "ど"], ["と", "される"], ["でも", "ある"], ["でも", "あった。"], ["では", "ないのです。"], ["では", "いずれも「"], ["では", "ありません"], ["でき", "ない。"], ["でき", "た"], ["であると", "考え"], ["である", "ため、"], ["であり", "ながら、"], ["てい", "なかった。"], ["て", "て"], ["ってく", "る。"], ["っている", "のです。"], ["って", "行った。"], ["っ", "そり"], ["っ", "く"], ["ちゃ", "い"], ["だろう", "と考え"], ["だろう", "か"], ["だろう", "」\n"], ["だけ", "です。"], ["だけ", "であった。"], ["だ", "んだん"], ["だ", "わ"], ["だ", "ら"], ["だ", "とも"], ["だ", "し、"], ["だ", "か、"], ["だ", "」と"], ["そんな", "事を"], ["それぞれ", "「"], ["それ", "には"], ["それ", "とも"], ["その", "男"], ["その", "くせ"], ["その", "うち"], ["そう", "して、"], ["そ", "わ"], ["せ", "ず、"], ["すること", "を"], ["すること", "もある。"], ["する", "必要"], ["する", "」「"], ["すなわち", "、「"], ["しま", "した"], ["している", "が、"], ["してい", "ます。"], ["してい", "く"], ["して", "くれた"], ["した", "ら"], ["した", "もの"], ["した", "のは"], ["しが", "る"], ["しか", "ない"], ["し", "出しました。"], ["されて", "きた。"], ["させ", "た。"], ["さ", "っき"], ["さ", "い"], ["さ", "。"], ["ごと", "くに"], ["ござ", "います"], ["これ", "でも"], ["この", "間の"], ["この", "姉"], ["この", "前"], ["こと", "も"], ["こと", "は、"], ["こと", "から、"], ["ここ", "へ"], ["こう", "いった"], ["けれども", "その"], ["けれ", "ば"], ["く", "る"], ["が集", "中"], ["が多", "数"], ["があ", "って、"], ["が、その", "頃"], ["が、", "私の"], ["が", "残"], ["が", "来る"], ["が", "また"], ["が", "ない。"], ["が", "『"], ["から", "ない"], ["から", "である。"], ["から", "「"], ["かか", "わ"], ["か", "ろう"], ["お父さん", "の"], ["おも", "に"], ["お", "前の"], ["いつ", "か"], ["い", "なくなった"], ["い", "ている。"], ["い", "ていました。"], ["い", "え"], ["ある", "時"], ["あまり", "に"], ["あなた", "も"], ["』（", "18"], ["」を", "意味する"], ["」とな", "る。"], ["」とする", "などの"], ["」とい", "いました。"], ["」と", "呼ぶ"], ["」と", "して"], ["」「", "か"], ["」「", "う"], ["」", "である。"], ["」", "("], ["「", "私が"], ["「", "奥さん"], ["「", "は"], ["、", "と"], ["、", "そして"], ["、", "IS"], ["、IS", "BN"], ["、ISBN", " "], ["、ISBN ", "9"], ["、ISBN 9", "78"], ["、ISBN 978", "-4"], ["、ISBN 978-4", "-"], ["、", "199"], ["　私は", "また"], ["　", "その日"], ["th", "e"], ["t", "er"], ["s", "t"], ["ough", "t "], ["l", "a"], ["ic", "al "], ["e", ", "], ["an", "d"], ["Y", "染色体"], ["S", "V"], ["N", "e"], ["8", "年の"], ["7", "月"], ["7", "年に"], ["5", "5"], ["5", ","], ["200", "5年"], ["200", "5"], ["2", "1"], ["196", "0年代"], ["16", "世紀"], ["1", "月"], ["1", ","], [". ", "Chicago"], [".", "6"], [".", "5"], ["\"", "「"], ["  を用いる", "話者"], ["  ", "→"], [" ", "マ"], [" ", "イ"], [" ", "ア"], [" ", "『"], [" ", "d"], ["？", "」と"], ["＝サン", "＝ドニ"], ["）」など", "。"], ["）」「", "か"], ["）", "も"], ["）", "において"], ["）", "という"], ["）", "では"], ["）", "」などの"], ["）", "「"], ["）", " "], ["（", "）の"], ["（", "例、"], ["（", "カ"], ["（", "い"], ["（", "『"], ["（", "S"], ["（", "18"], ["鼻", "音"], ["黒", "海"], ["高級", "住宅"], ["高等", "学校"], ["高", "橋"], ["高", "層"], ["驚か", "された。"], ["馬", "場"], ["首", "肯"], ["食卓", "で"], ["食", "べて"], ["類", "（"], ["顔を", "して"], ["頭", "高型"], ["頃", "には、"], ["頃", "に"], ["音声", "学"], ["静", "かに"], ["雌雄", "同"], ["陛", "下"], ["関係", "を"], ["関係", "の"], ["関", "心"], ["間", "が"], ["開", "音節"], ["開", "けて、"], ["鉄", "瓶"], ["金", "魚"], ["金", "融"], ["金", "を"], ["野", "晋"], ["配偶", "体の"], ["都市", "\n"], ["都", "心"], ["選", "出"], ["違", "う"], ["過ぎ", "て"], ["運", "ば"], ["造精器", "が"], ["通り", "の"], ["通", "称"], ["通", "の"], ["逆", "に"], ["追", "窮"], ["述べ", "ている。"], ["述べ", "た"], ["返事", "の"], ["近", "づ"], ["込", "む"], ["農", "業"], ["辞", "苑"], ["軍", "人の"], ["軍", "事"], ["跡", "を"], ["足", "の"], ["起", "り"], ["起", "した。"], ["財産", "を"], ["議", "員"], ["警", "視"], ["論", "理"], ["論", "が"], ["誰", "も"], ["誰", "でも"], ["読", "んだ"], ["語彙", "量"], ["語彙", "体系"], ["語彙", "・"], ["語彙", "は、"], ["語彙", "が"], ["語尾", "の「"], ["語中", "・"], ["語を", "用い"], ["語を", "「"], ["語が", "出"], ["認", "める"], ["認", "めた"], ["誇", "り"], ["話を", "した。"], ["話を", "した"], ["話", "の"], ["詰", "めた"], ["訳", "『"], ["計", "量"], ["言語学", "\n"], ["言語", "能力"], ["言語", "として"], ["言葉", "を、"], ["言葉", "は、"], ["言", "海"], ["言", "しました。"], ["解", "決"], ["観点", "から"], ["観光", "地"], ["観光", "名"], ["観光名", "所"], ["観", "測"], ["親", "しみ"], ["視", "覚"], ["規", "範"], ["見られ", "ない。"], ["見え", "たのです。"], ["見", "舞"], ["見", "当"], ["要領", "を得"], ["要", "塞"], ["西", "部、"], ["複合", "語を作"], ["表記", "法"], ["表記", "の"], ["表記", "に"], ["表", "意"], ["行」", "音"], ["行", "動"], ["藻", "類"], ["薩", "隅"], ["著", "、"], ["葉", "緑"], ["落ち付", "き"], ["菓", "子"], ["若", "葉"], ["色", "（"], ["自身", "が"], ["自分", "は"], ["脱", "落"], ["背", "景"], ["聞か", "された"], ["聖", "堂"], ["耳", "を"], ["考え", "ました。"], ["考え", "ていました。"], ["考え", "ていた"], ["翻", "訳"], ["美術", "品"], ["置", "く"], ["置", "き"], ["総", "監"], ["結果", "が"], ["約", "8"], ["約", "5"], ["策", "略"], ["第二次世界大戦", "後"], ["第", "三"], ["笑い", "出した。"], ["競", "馬場"], ["立ち", "上が"], ["立", "地"], ["空港", "\n"], ["空", "気の"], ["空", "気"], ["種", "々の"], ["科学", "技術"], ["私は", "Ｋの"], ["私は", "金"], ["私は", "答えた。"], ["私は", "そんな"], ["私の顔を見", "て"], ["私の顔を見", "た。"], ["私の眼に", "映"], ["私の眼", "は"], ["私の", "予期"], ["社会", "的"], ["確", "立"], ["破", "裂"], ["着", "物"], ["着", "け"], ["眼を", "通"], ["眼", "で"], ["眺め", "た。"], ["真核", "生物"], ["真", "直"], ["県", "と"], ["看", "護"], ["相手", "に"], ["目的", "物"], ["監", "修"], ["的", "研究"], ["百年", "戦争"], ["発達", "し、"], ["発", "点"], ["病", "人"], ["疑", "惑"], ["異", "なり"], ["用い", "られている。"], ["用", "字"], ["生物", "学"], ["生", "態"], ["生", "きた"], ["環", "状"], ["理由", "を"], ["現在", "でも"], ["珍", "しく"], ["独", "り"], ["犯", "罪"], ["物語", "』"], ["父の病気", "を"], ["父の病気", "は"], ["父", "親"], ["父", "も"], ["照", "ら"], ["然", "とした"], ["無理", "に"], ["無声", "化"], ["無", "性"], ["点", "が"], ["漢字", "表記"], ["漢字", "が"], ["漢", "和"], ["源", "氏"], ["済ま", "ない"], ["淋", "しく"], ["浣", "腸"], ["流", "れる"], ["活用", "形"], ["活", "躍"], ["活", "花"], ["洋", "燈"], ["洋", "服"], ["注意を", "払"], ["泥", "棒"], ["法", "則"], ["沢", "山"], ["沈", "黙"], ["決", "心を"], ["水", "道"], ["気温", "が"], ["気分", "を"], ["気が付", "きました。"], ["気", "も"], ["気", "には"], ["毎", "年"], ["死", "に"], ["死", "な"], ["歴史", "的な"], ["正式", "名称"], ["正", "当"], ["機能", "を"], ["様子", "じゃ"], ["様", "式"], ["構造", "を"], ["構造", "が"], ["椎", "茸"], ["森", "林"], ["格", "子を"], ["枕元", "に坐"], ["東京へ", "行く"], ["東", "国"], ["机", "の前に"], ["机", "の"], ["本", "拠"], ["末", "から"], ["未", "来の"], ["期", "には"], ["服", "装"], ["有", "様"], ["有", "力"], ["最", "高"], ["最", "大"], ["書", "籍"], ["書", "く"], ["書", "いた。"], ["曲", "げ"], ["暗", "に"], ["時代", "に"], ["時", "頃"], ["時", "間に"], ["昨", "日"], ["昔", "から"], ["明", "るい"], ["旨", "い"], ["日本語の", "「"], ["日本語", "では"], ["日本", "人の"], ["日", "を"], ["日", "、"], ["施", "行"], ["方言", "は"], ["方言", "と"], ["方", "法を"], ["新", "しく"], ["断", "って"], ["文末", "が"], ["文字", "（"], ["文", "書"], ["文", "は、"], ["文", "は"], ["文", "では、"], ["文", "が"], ["数", "字"], ["敬意", "を表す"], ["教える", "」"], ["教", "授"], ["政", "策"], ["政", "党"], ["擬", "態"], ["接近", "させ"], ["接続", "詞"], ["挨拶", "を"], ["指導", "要領"], ["拡", "張"], ["押", "し"], ["抜", "けた"], ["折", "れ"], ["抑", "え"], ["打ち", "消"], ["手紙を書", "く"], ["手に", "持"], ["手", "の"], ["所", "属"], ["所", "は"], ["所", "に"], ["房", "州"], ["成分", "である。"], ["成", "果を"], ["憶", "い"], ["憲", "法"], ["憐れ", "な"], ["感情", "が"], ["意味", "は"], ["想像", "した。"], ["悲", "しい"], ["悪い", "事を"], ["悪", "人"], ["恥", "ず"], ["恋は", "罪悪"], ["思", "いました。"], ["忽", "ち"], ["念を", "押"], ["忠", "告"], ["応", "の"], ["必", "須"], ["心持が", "しました。"], ["心のうち", "で、"], ["微", "笑"], ["復", "讐"], ["後", "舌"], ["後", "では"], ["待", "遇"], ["待", "っている"], ["彼の", "室"], ["彼の", "前に"], ["形成", "され、"], ["当", "り"], ["強", "情"], ["弱", "い"], ["引き", "取"], ["廻", "して"], ["建造", "物"], ["度", "に"], ["年", "間"], ["年", "も"], ["帽", "子"], ["希望", "する"], ["已", "然"], ["工", "場"], ["岩", "波"]], "history": [{"rank": -1, "pair": ["", ""], "new_token": "", "pair_count": 0, "vocab_size": 2689, "corpus_tokens": 303783, "compression_chars_per_token": 1.0, "demo_tokens": ["東", "京", "大", "学", "で", "自", "然", "言", "語", "処", "理", "を", "研", "究", "し", "て", "い", "ま", "す", "。"]}, {"rank": 0, "pair": ["た", "。"], "new_token": "た。", "pair_count": 3386, "vocab_size": 2690, "corpus_tokens": 300397, "compression_chars_per_token": 1.0113, "demo_tokens": ["東", "京", "大", "学", "で", "自", "然", "言", "語", "処", "理", "を", "研", "究", "し", "て", "い", "ま", "す", "。"]}, {"rank": 1, "pair": ["て", "い"], "new_token": "てい", "pair_count": 1759, "vocab_size": 2691, "corpus_tokens": 298638, "compression_chars_per_token": 1.0172, "demo_tokens": ["東", "京", "大", "学", "で", "自", "然", "言", "語", "処", "理", "を", "研", "究", "し", "てい", "ま", "す", "。"]}, {"rank": 2, "pair": ["る", "。"], "new_token": "る。", "pair_count": 1494, "vocab_size": 2692, "corpus_tokens": 297144, "compression_chars_per_token": 1.0223, "demo_tokens": ["東", "京", "大", "学", "で", "自", "然", "言", "語", "処", "理", "を", "研", "究", "し", "てい", "ま", "す", "。"]}, {"rank": 3, "pair": ["し", "た。"], "new_token": "した。", "pair_count": 1433, "vocab_size": 2693, "corpus_tokens": 295711, "compression_chars_per_token": 1.0273, "demo_tokens": ["東", "京", "大", "学", "で", "自", "然", "言", "語", "処", "理", "を", "研", "究", "し", "てい", "ま", "す", "。"]}, {"rank": 4, "pair": ["な", "い"], "new_token": "ない", "pair_count": 1301, "vocab_size": 2694, "corpus_tokens": 294410, "compression_chars_per_token": 1.0318, "demo_tokens": ["東", "京", "大", "学", "で", "自", "然", "言", "語", "処", "理", "を", "研", "究", "し", "てい", "ま", "す", "。"]}, {"rank": 5, "pair": ["か", "ら"], "new_token": "から", "pair_count": 1262, "vocab_size": 2695, "corpus_tokens": 293148, "compression_chars_per_token": 1.0363, "demo_tokens": ["東", "京", "大", "学", "で", "自", "然", "言", "語", "処", "理", "を", "研", "究", "し", "てい", "ま", "す", "。"]}, {"rank": 6, "pair": ["し", "て"], "new_token": "して", "pair_count": 1240, "vocab_size": 2696, "corpus_tokens": 291908, "compression_chars_per_token": 1.0407, "demo_tokens": ["東", "京", "大", "学", "で", "自", "然", "言", "語", "処", "理", "を", "研", "究", "し", "てい", "ま", "す", "。"]}, {"rank": 7, "pair": ["私", "は"], "new_token": "私は", "pair_count": 1231, "vocab_size": 2697, "corpus_tokens": 290677, "compression_chars_per_token": 1.0451, "demo_tokens": ["東", "京", "大", "学", "で", "自", "然", "言", "語", "処", "理", "を", "研", "究", "し", "てい", "ま", "す", "。"]}, {"rank": 8, "pair": ["っ", "て"], "new_token": "って", "pair_count": 1191, "vocab_size": 2698, "corpus_tokens": 289486, "compression_chars_per_token": 1.0494, "demo_tokens": ["東", "京", "大", "学", "で", "自", "然", "言", "語", "処", "理", "を", "研", "究", "し", "てい", "ま", "す", "。"]}, {"rank": 9, "pair": ["っ", "た"], "new_token": "った", "pair_count": 1167, "vocab_size": 2699, "corpus_tokens": 288319, "compression_chars_per_token": 1.0536, "demo_tokens": ["東", "京", "大", "学", "で", "自", "然", "言", "語", "処", "理", "を", "研", "究", "し", "てい", "ま", "す", "。"]}, {"rank": 10, "pair": ["は", "、"], "new_token": "は、", "pair_count": 1139, "vocab_size": 2700, "corpus_tokens": 287180, "compression_chars_per_token": 1.0578, "demo_tokens": ["東", "京", "大", "学", "で", "自", "然", "言", "語", "処", "理", "を", "研", "究", "し", "てい", "ま", "す", "。"]}, {"rank": 11, "pair": ["っ", "た。"], "new_token": "った。", "pair_count": 1089, "vocab_size": 2701, "corpus_tokens": 286091, "compression_chars_per_token": 1.0618, "demo_tokens": ["東", "京", "大", "学", "で", "自", "然", "言", "語", "処", "理", "を", "研", "究", "し", "てい", "ま", "す", "。"]}, {"rank": 12, "pair": ["の", "で"], "new_token": "ので", "pair_count": 1052, "vocab_size": 2702, "corpus_tokens": 285039, "compression_chars_per_token": 1.0658, "demo_tokens": ["東", "京", "大", "学", "で", "自", "然", "言", "語", "処", "理", "を", "研", "究", "し", "てい", "ま", "す", "。"]}, {"rank": 13, "pair": ["す", "る"], "new_token": "する", "pair_count": 1023, "vocab_size": 2703, "corpus_tokens": 284016, "compression_chars_per_token": 1.0696, "demo_tokens": ["東", "京", "大", "学", "で", "自", "然", "言", "語", "処", "理", "を", "研", "究", "し", "てい", "ま", "す", "。"]}, {"rank": 14, "pair": ["そ", "の"], "new_token": "その", "pair_count": 902, "vocab_size": 2704, "corpus_tokens": 283114, "compression_chars_per_token": 1.073, "demo_tokens": ["東", "京", "大", "学", "で", "自", "然", "言", "語", "処", "理", "を", "研", "究", "し", "てい", "ま", "す", "。"]}, {"rank": 15, "pair": ["と", "い"], "new_token": "とい", "pair_count": 881, "vocab_size": 2705, "corpus_tokens": 282233, "compression_chars_per_token": 1.0764, "demo_tokens": ["東", "京", "大", "学", "で", "自", "然", "言", "語", "処", "理", "を", "研", "究", "し", "てい", "ま", "す", "。"]}, {"rank": 16, "pair": ["よ", "う"], "new_token": "よう", "pair_count": 876, "vocab_size": 2706, "corpus_tokens": 281357, "compression_chars_per_token": 1.0797, "demo_tokens": ["東", "京", "大", "学", "で", "自", "然", "言", "語", "処", "理", "を", "研", "究", "し", "てい", "ま", "す", "。"]}, {"rank": 17, "pair": ["す", "。"], "new_token": "す。", "pair_count": 854, "vocab_size": 2707, "corpus_tokens": 280503, "compression_chars_per_token": 1.083, "demo_tokens": ["東", "京", "大", "学", "で", "自", "然", "言", "語", "処", "理", "を", "研", "究", "し", "てい", "ま", "す。"]}, {"rank": 18, "pair": ["ま", "した。"], "new_token": "ました。", "pair_count": 829, "vocab_size": 2708, "corpus_tokens": 279674, "compression_chars_per_token": 1.0862, "demo_tokens": ["東", "京", "大", "学", "で", "自", "然", "言", "語", "処", "理", "を", "研", "究", "し", "てい", "ま", "す。"]}, {"rank": 19, "pair": ["で", "あ"], "new_token": "であ", "pair_count": 822, "vocab_size": 2709, "corpus_tokens": 278852, "compression_chars_per_token": 1.0894, "demo_tokens": ["東", "京", "大", "学", "で", "自", "然", "言", "語", "処", "理", "を", "研", "究", "し", "てい", "ま", "す。"]}, {"rank": 64, "pair": ["と", "も"], "new_token": "とも", "pair_count": 285, "vocab_size": 2754, "corpus_tokens": 258143, "compression_chars_per_token": 1.1768, "demo_tokens": ["東", "京", "大", "学", "で", "自", "然", "言語", "処", "理", "を", "研", "究", "してい", "ま", "す。"]}, {"rank": 128, "pair": ["あ", "る。"], "new_token": "ある。", "pair_count": 159, "vocab_size": 2818, "corpus_tokens": 245043, "compression_chars_per_token": 1.2397, "demo_tokens": ["東", "京", "大", "学", "で", "自", "然", "言語", "処", "理", "を", "研", "究", "してい", "ま", "す。"]}, {"rank": 192, "pair": ["父", "の"], "new_token": "父の", "pair_count": 119, "vocab_size": 2882, "corpus_tokens": 236153, "compression_chars_per_token": 1.2864, "demo_tokens": ["東", "京", "大", "学", "で", "自", "然", "言語", "処", "理", "を", "研究", "してい", "ます。"]}, {"rank": 256, "pair": ["また", "、"], "new_token": "また、", "pair_count": 94, "vocab_size": 2946, "corpus_tokens": 229373, "compression_chars_per_token": 1.3244, "demo_tokens": ["東京", "大", "学", "で", "自", "然", "言語", "処", "理", "を", "研究", "してい", "ます。"]}, {"rank": 320, "pair": ["され", "る。"], "new_token": "される。", "pair_count": 80, "vocab_size": 3010, "corpus_tokens": 223881, "compression_chars_per_token": 1.3569, "demo_tokens": ["東京", "大", "学", "で", "自", "然", "言語", "処", "理", "を", "研究", "してい", "ます。"]}, {"rank": 384, "pair": ["っ", "ち"], "new_token": "っち", "pair_count": 67, "vocab_size": 3074, "corpus_tokens": 219196, "compression_chars_per_token": 1.3859, "demo_tokens": ["東京", "大学", "で", "自然", "言語", "処", "理", "を", "研究", "してい", "ます。"]}, {"rank": 448, "pair": ["区", "別"], "new_token": "区別", "pair_count": 58, "vocab_size": 3138, "corpus_tokens": 215168, "compression_chars_per_token": 1.4118, "demo_tokens": ["東京", "大学", "で", "自然", "言語", "処", "理", "を", "研究", "してい", "ます。"]}, {"rank": 512, "pair": ["さ", "ら"], "new_token": "さら", "pair_count": 51, "vocab_size": 3202, "corpus_tokens": 211701, "compression_chars_per_token": 1.435, "demo_tokens": ["東京", "大学", "で", "自然", "言語", "処", "理", "を", "研究", "してい", "ます。"]}, {"rank": 576, "pair": ["か", "い"], "new_token": "かい", "pair_count": 45, "vocab_size": 3266, "corpus_tokens": 208656, "compression_chars_per_token": 1.4559, "demo_tokens": ["東京", "大学", "で", "自然", "言語", "処", "理", "を", "研究", "してい", "ます。"]}, {"rank": 640, "pair": ["あなた", "の"], "new_token": "あなたの", "pair_count": 41, "vocab_size": 3330, "corpus_tokens": 205950, "compression_chars_per_token": 1.475, "demo_tokens": ["東京", "大学", "で", "自然", "言語", "処", "理", "を", "研究", "してい", "ます。"]}, {"rank": 704, "pair": ["過", "去"], "new_token": "過去", "pair_count": 37, "vocab_size": 3394, "corpus_tokens": 203458, "compression_chars_per_token": 1.4931, "demo_tokens": ["東京", "大学", "で", "自然", "言語", "処", "理", "を", "研究", "してい", "ます。"]}, {"rank": 768, "pair": ["種", "の"], "new_token": "種の", "pair_count": 34, "vocab_size": 3458, "corpus_tokens": 201154, "compression_chars_per_token": 1.5102, "demo_tokens": ["東京", "大学", "で", "自然", "言語", "処", "理", "を", "研究", "してい", "ます。"]}, {"rank": 832, "pair": ["でき", "る"], "new_token": "できる", "pair_count": 32, "vocab_size": 3522, "corpus_tokens": 199051, "compression_chars_per_token": 1.5262, "demo_tokens": ["東京", "大学", "で", "自然", "言語", "処", "理", "を", "研究", "してい", "ます。"]}, {"rank": 896, "pair": ["そう", "いう"], "new_token": "そういう", "pair_count": 30, "vocab_size": 3586, "corpus_tokens": 197087, "compression_chars_per_token": 1.5414, "demo_tokens": ["東京", "大学", "で", "自然", "言語", "処", "理", "を", "研究", "してい", "ます。"]}, {"rank": 960, "pair": ["友", "達"], "new_token": "友達", "pair_count": 28, "vocab_size": 3650, "corpus_tokens": 195234, "compression_chars_per_token": 1.556, "demo_tokens": ["東京", "大学", "で", "自然", "言語", "処", "理", "を", "研究", "してい", "ます。"]}, {"rank": 1024, "pair": ["連", "合"], "new_token": "連合", "pair_count": 26, "vocab_size": 3714, "corpus_tokens": 193481, "compression_chars_per_token": 1.5701, "demo_tokens": ["東京", "大学", "で", "自然", "言語", "処", "理", "を", "研究", "してい", "ます。"]}, {"rank": 1088, "pair": ["国", "家"], "new_token": "国家", "pair_count": 25, "vocab_size": 3778, "corpus_tokens": 191834, "compression_chars_per_token": 1.5836, "demo_tokens": ["東京", "大学", "で", "自然", "言語", "処", "理", "を", "研究", "してい", "ます。"]}, {"rank": 1152, "pair": ["語", "源"], "new_token": "語源", "pair_count": 23, "vocab_size": 3842, "corpus_tokens": 190274, "compression_chars_per_token": 1.5966, "demo_tokens": ["東京", "大学", "で", "自然", "言語", "処", "理", "を", "研究", "してい", "ます。"]}, {"rank": 1216, "pair": ["」", "は、"], "new_token": "」は、", "pair_count": 23, "vocab_size": 3906, "corpus_tokens": 188802, "compression_chars_per_token": 1.609, "demo_tokens": ["東京", "大学", "で", "自然", "言語", "処", "理", "を", "研究", "してい", "ます。"]}, {"rank": 1280, "pair": ["読", "む"], "new_token": "読む", "pair_count": 21, "vocab_size": 3970, "corpus_tokens": 187395, "compression_chars_per_token": 1.6211, "demo_tokens": ["東京", "大学", "で", "自然", "言語", "処", "理", "を", "研究", "してい", "ます。"]}, {"rank": 1344, "pair": ["うち", "に"], "new_token": "うちに", "pair_count": 21, "vocab_size": 4034, "corpus_tokens": 186051, "compression_chars_per_token": 1.6328, "demo_tokens": ["東京", "大学", "で", "自然", "言語", "処", "理", "を", "研究", "してい", "ます。"]}, {"rank": 1408, "pair": ["じゃ", "ありません"], "new_token": "じゃありません", "pair_count": 20, "vocab_size": 4098, "corpus_tokens": 184763, "compression_chars_per_token": 1.6442, "demo_tokens": ["東京", "大学", "で", "自然", "言語", "処", "理", "を", "研究", "してい", "ます。"]}, {"rank": 1472, "pair": ["ガ", "ル"], "new_token": "ガル", "pair_count": 19, "vocab_size": 4162, "corpus_tokens": 183530, "compression_chars_per_token": 1.6552, "demo_tokens": ["東京", "大学", "で", "自然", "言語", "処", "理", "を", "研究", "してい", "ます。"]}, {"rank": 1536, "pair": ["学校", "の"], "new_token": "学校の", "pair_count": 18, "vocab_size": 4226, "corpus_tokens": 182340, "compression_chars_per_token": 1.666, "demo_tokens": ["東京", "大学", "で", "自然", "言語", "処", "理", "を", "研究", "してい", "ます。"]}, {"rank": 1600, "pair": ["」とい", "った"], "new_token": "」といった", "pair_count": 18, "vocab_size": 4290, "corpus_tokens": 181188, "compression_chars_per_token": 1.6766, "demo_tokens": ["東京", "大学", "で", "自然", "言語", "処", "理", "を", "研究", "してい", "ます。"]}, {"rank": 1664, "pair": ["ス", "タ"], "new_token": "スタ", "pair_count": 17, "vocab_size": 4354, "corpus_tokens": 180100, "compression_chars_per_token": 1.6867, "demo_tokens": ["東京", "大学", "で", "自然", "言語", "処", "理", "を", "研究", "してい", "ます。"]}, {"rank": 1728, "pair": ["私は", "ただ"], "new_token": "私はただ", "pair_count": 16, "vocab_size": 4418, "corpus_tokens": 179032, "compression_chars_per_token": 1.6968, "demo_tokens": ["東京", "大学", "で", "自然", "言語", "処", "理", "を", "研究", "してい", "ます。"]}, {"rank": 1792, "pair": ["もの", "に"], "new_token": "ものに", "pair_count": 16, "vocab_size": 4482, "corpus_tokens": 178008, "compression_chars_per_token": 1.7066, "demo_tokens": ["東京", "大学", "で", "自然", "言語", "処", "理", "を", "研究", "してい", "ます。"]}, {"rank": 1856, "pair": ["機", "関"], "new_token": "機関", "pair_count": 15, "vocab_size": 4546, "corpus_tokens": 177014, "compression_chars_per_token": 1.7162, "demo_tokens": ["東京", "大学", "で", "自然", "言語", "処", "理", "を", "研究", "してい", "ます。"]}, {"rank": 1920, "pair": ["ま", "れた"], "new_token": "まれた", "pair_count": 15, "vocab_size": 4610, "corpus_tokens": 176054, "compression_chars_per_token": 1.7255, "demo_tokens": ["東京", "大学", "で", "自然", "言語", "処", "理", "を", "研究", "してい", "ます。"]}, {"rank": 1984, "pair": ["突", "き"], "new_token": "突き", "pair_count": 14, "vocab_size": 4674, "corpus_tokens": 175109, "compression_chars_per_token": 1.7348, "demo_tokens": ["東京", "大学", "で", "自然", "言語", "処", "理", "を", "研究", "してい", "ます。"]}, {"rank": 2048, "pair": ["へ", "は"], "new_token": "へは", "pair_count": 14, "vocab_size": 4738, "corpus_tokens": 174213, "compression_chars_per_token": 1.7437, "demo_tokens": ["東京", "大学", "で", "自然", "言語", "処", "理", "を", "研究", "してい", "ます。"]}, {"rank": 2112, "pair": ["長", "く"], "new_token": "長く", "pair_count": 13, "vocab_size": 4802, "corpus_tokens": 173326, "compression_chars_per_token": 1.7527, "demo_tokens": ["東京", "大学", "で", "自然", "言語", "処", "理", "を", "研究", "してい", "ます。"]}, {"rank": 2176, "pair": ["含", "まれ"], "new_token": "含まれ", "pair_count": 13, "vocab_size": 4866, "corpus_tokens": 172494, "compression_chars_per_token": 1.7611, "demo_tokens": ["東京", "大学", "で", "自然", "言語", "処", "理", "を", "研究", "してい", "ます。"]}, {"rank": 2240, "pair": ["って", "も、"], "new_token": "っても、", "pair_count": 13, "vocab_size": 4930, "corpus_tokens": 171662, "compression_chars_per_token": 1.7697, "demo_tokens": ["東京", "大学", "で", "自然", "言語", "処", "理", "を", "研究", "してい", "ます。"]}, {"rank": 2304, "pair": ["第", "1"], "new_token": "第1", "pair_count": 12, "vocab_size": 4994, "corpus_tokens": 170862, "compression_chars_per_token": 1.7779, "demo_tokens": ["東京", "大学", "で", "自然", "言語", "処", "理", "を", "研究", "してい", "ます。"]}, {"rank": 2368, "pair": ["ヴ", "ェ"], "new_token": "ヴェ", "pair_count": 12, "vocab_size": 5058, "corpus_tokens": 170094, "compression_chars_per_token": 1.786, "demo_tokens": ["東京", "大学", "で", "自然", "言語", "処", "理", "を", "研究", "してい", "ます。"]}, {"rank": 2432, "pair": ["お", "う"], "new_token": "おう", "pair_count": 12, "vocab_size": 5122, "corpus_tokens": 169326, "compression_chars_per_token": 1.7941, "demo_tokens": ["東京", "大学", "で", "自然", "言語", "処", "理", "を", "研究", "してい", "ます。"]}, {"rank": 2496, "pair": ["最", "後に"], "new_token": "最後に", "pair_count": 11, "vocab_size": 5186, "corpus_tokens": 168607, "compression_chars_per_token": 1.8017, "demo_tokens": ["東京", "大学", "で", "自然", "言語", "処", "理", "を", "研究", "してい", "ます。"]}, {"rank": 2560, "pair": ["主", "に"], "new_token": "主に", "pair_count": 11, "vocab_size": 5250, "corpus_tokens": 167903, "compression_chars_per_token": 1.8093, "demo_tokens": ["東京", "大学", "で", "自然", "言語", "処", "理", "を", "研究", "してい", "ます。"]}, {"rank": 2624, "pair": ["なの", "か、"], "new_token": "なのか、", "pair_count": 11, "vocab_size": 5314, "corpus_tokens": 167199, "compression_chars_per_token": 1.8169, "demo_tokens": ["東京", "大学", "で", "自然", "言語", "処", "理", "を", "研究", "してい", "ます。"]}, {"rank": 2688, "pair": ["20", "世紀"], "new_token": "20世紀", "pair_count": 11, "vocab_size": 5378, "corpus_tokens": 166495, "compression_chars_per_token": 1.8246, "demo_tokens": ["東京", "大学", "で", "自然", "言語", "処", "理", "を", "研究", "してい", "ます。"]}, {"rank": 2752, "pair": ["敬意", "表現"], "new_token": "敬意表現", "pair_count": 10, "vocab_size": 5442, "corpus_tokens": 165852, "compression_chars_per_token": 1.8317, "demo_tokens": ["東京", "大学", "で", "自然", "言語", "処", "理", "を", "研究", "してい", "ます。"]}, {"rank": 2816, "pair": ["以", "後"], "new_token": "以後", "pair_count": 10, "vocab_size": 5506, "corpus_tokens": 165212, "compression_chars_per_token": 1.8387, "demo_tokens": ["東京", "大学", "で", "自然", "言語", "処", "理", "を", "研究", "してい", "ます。"]}, {"rank": 2880, "pair": ["に", "加"], "new_token": "に加", "pair_count": 10, "vocab_size": 5570, "corpus_tokens": 164572, "compression_chars_per_token": 1.8459, "demo_tokens": ["東京", "大学", "で", "自然", "言語", "処", "理", "を", "研究", "してい", "ます。"]}, {"rank": 2944, "pair": ["en", "t"], "new_token": "ent", "pair_count": 10, "vocab_size": 5634, "corpus_tokens": 163932, "compression_chars_per_token": 1.8531, "demo_tokens": ["東京", "大学", "で", "自然", "言語", "処", "理", "を", "研究", "してい", "ます。"]}, {"rank": 3008, "pair": ["色", "々の"], "new_token": "色々の", "pair_count": 9, "vocab_size": 5698, "corpus_tokens": 163343, "compression_chars_per_token": 1.8598, "demo_tokens": ["東京", "大学", "で", "自然", "言語", "処", "理", "を", "研究", "してい", "ます。"]}, {"rank": 3072, "pair": ["拡", "大"], "new_token": "拡大", "pair_count": 9, "vocab_size": 5762, "corpus_tokens": 162767, "compression_chars_per_token": 1.8664, "demo_tokens": ["東京", "大学", "で", "自然", "言語", "処", "理", "を", "研究", "してい", "ます。"]}, {"rank": 3136, "pair": ["付け", "加"], "new_token": "付け加", "pair_count": 9, "vocab_size": 5826, "corpus_tokens": 162191, "compression_chars_per_token": 1.873, "demo_tokens": ["東京", "大学", "で", "自然", "言語", "処", "理", "を", "研究", "してい", "ます。"]}, {"rank": 3200, "pair": ["は", "多く"], "new_token": "は多く", "pair_count": 9, "vocab_size": 5890, "corpus_tokens": 161615, "compression_chars_per_token": 1.8797, "demo_tokens": ["東京", "大学", "で", "自然", "言語", "処", "理", "を", "研究", "してい", "ます。"]}, {"rank": 3264, "pair": ["が", "パリ"], "new_token": "がパリ", "pair_count": 9, "vocab_size": 5954, "corpus_tokens": 161039, "compression_chars_per_token": 1.8864, "demo_tokens": ["東京", "大学", "で", "自然", "言語", "処", "理", "を", "研究", "してい", "ます。"]}, {"rank": 3328, "pair": ["語", "法"], "new_token": "語法", "pair_count": 8, "vocab_size": 6018, "corpus_tokens": 160499, "compression_chars_per_token": 1.8927, "demo_tokens": ["東京", "大学", "で", "自然", "言語", "処", "理", "を", "研究", "してい", "ます。"]}, {"rank": 3392, "pair": ["流", "が"], "new_token": "流が", "pair_count": 8, "vocab_size": 6082, "corpus_tokens": 159987, "compression_chars_per_token": 1.8988, "demo_tokens": ["東京", "大学", "で", "自然", "言語", "処", "理", "を", "研究", "してい", "ます。"]}, {"rank": 3456, "pair": ["地位", "を"], "new_token": "地位を", "pair_count": 8, "vocab_size": 6146, "corpus_tokens": 159475, "compression_chars_per_token": 1.9049, "demo_tokens": ["東京", "大学", "で", "自然", "言語", "処", "理", "を", "研究", "してい", "ます。"]}, {"rank": 3520, "pair": ["・", "貴"], "new_token": "・貴", "pair_count": 8, "vocab_size": 6210, "corpus_tokens": 158963, "compression_chars_per_token": 1.911, "demo_tokens": ["東京", "大学", "で", "自然", "言語", "処", "理", "を", "研究", "してい", "ます。"]}, {"rank": 3584, "pair": ["られて", "おり、"], "new_token": "られており、", "pair_count": 8, "vocab_size": 6274, "corpus_tokens": 158451, "compression_chars_per_token": 1.9172, "demo_tokens": ["東京", "大学", "で", "自然", "言語", "処", "理", "を", "研究", "してい", "ます。"]}, {"rank": 3648, "pair": ["た", "ら、"], "new_token": "たら、", "pair_count": 8, "vocab_size": 6338, "corpus_tokens": 157939, "compression_chars_per_token": 1.9234, "demo_tokens": ["東京", "大学", "で", "自然", "言語", "処", "理", "を", "研究", "してい", "ます。"]}, {"rank": 3712, "pair": ["-", "H"], "new_token": "-H", "pair_count": 8, "vocab_size": 6402, "corpus_tokens": 157427, "compression_chars_per_token": 1.9297, "demo_tokens": ["東京", "大学", "で", "自然", "言語", "処", "理", "を", "研究", "してい", "ます。"]}, {"rank": 3776, "pair": ["親", "切"], "new_token": "親切", "pair_count": 7, "vocab_size": 6466, "corpus_tokens": 156977, "compression_chars_per_token": 1.9352, "demo_tokens": ["東京", "大学", "で", "自然", "言語", "処", "理", "を", "研究", "してい", "ます。"]}, {"rank": 3840, "pair": ["産", "業"], "new_token": "産業", "pair_count": 7, "vocab_size": 6530, "corpus_tokens": 156529, "compression_chars_per_token": 1.9407, "demo_tokens": ["東京", "大学", "で", "自然", "言語", "処", "理", "を", "研究", "してい", "ます。"]}, {"rank": 3904, "pair": ["打ち明", "ける"], "new_token": "打ち明ける", "pair_count": 7, "vocab_size": 6594, "corpus_tokens": 156081, "compression_chars_per_token": 1.9463, "demo_tokens": ["東京", "大学", "で", "自然", "言語", "処", "理", "を", "研究", "してい", "ます。"]}, {"rank": 3968, "pair": ["参考", "文献"], "new_token": "参考文献", "pair_count": 7, "vocab_size": 6658, "corpus_tokens": 155633, "compression_chars_per_token": 1.9519, "demo_tokens": ["東京", "大学", "で", "自然", "言語", "処", "理", "を", "研究", "してい", "ます。"]}, {"rank": 4032, "pair": ["ール", "（"], "new_token": "ール（", "pair_count": 7, "vocab_size": 6722, "corpus_tokens": 155185, "compression_chars_per_token": 1.9576, "demo_tokens": ["東京", "大学", "で", "自然", "言語", "処", "理", "を", "研究", "してい", "ます。"]}, {"rank": 4096, "pair": ["を中心", "に"], "new_token": "を中心に", "pair_count": 7, "vocab_size": 6786, "corpus_tokens": 154737, "compression_chars_per_token": 1.9632, "demo_tokens": ["東京", "大学", "で", "自然", "言語", "処", "理", "を", "研究", "してい", "ます。"]}, {"rank": 4160, "pair": ["に属", "する"], "new_token": "に属する", "pair_count": 7, "vocab_size": 6850, "corpus_tokens": 154289, "compression_chars_per_token": 1.9689, "demo_tokens": ["東京", "大学", "で", "自然", "言語", "処", "理", "を", "研究", "してい", "ます。"]}, {"rank": 4224, "pair": ["す", "ぎ"], "new_token": "すぎ", "pair_count": 7, "vocab_size": 6914, "corpus_tokens": 153841, "compression_chars_per_token": 1.9747, "demo_tokens": ["東京", "大学", "で", "自然", "言語", "処", "理", "を", "研究", "してい", "ます。"]}, {"rank": 4288, "pair": ["、「", "お"], "new_token": "、「お", "pair_count": 7, "vocab_size": 6978, "corpus_tokens": 153393, "compression_chars_per_token": 1.9804, "demo_tokens": ["東京", "大学", "で", "自然", "言語", "処", "理", "を", "研究", "してい", "ます。"]}, {"rank": 4352, "pair": ["鉄道", "の"], "new_token": "鉄道の", "pair_count": 6, "vocab_size": 7042, "corpus_tokens": 152974, "compression_chars_per_token": 1.9858, "demo_tokens": ["東京", "大学", "で", "自然", "言語", "処", "理", "を", "研究", "してい", "ます。"]}, {"rank": 4416, "pair": ["蘚類", "と"], "new_token": "蘚類と", "pair_count": 6, "vocab_size": 7106, "corpus_tokens": 152590, "compression_chars_per_token": 1.9908, "demo_tokens": ["東京", "大学", "で", "自然", "言語", "処", "理", "を", "研究", "してい", "ます。"]}, {"rank": 4480, "pair": ["盛ん", "に"], "new_token": "盛んに", "pair_count": 6, "vocab_size": 7170, "corpus_tokens": 152206, "compression_chars_per_token": 1.9959, "demo_tokens": ["東京", "大学", "で", "自然", "言語", "処", "理", "を", "研究", "してい", "ます。"]}, {"rank": 4544, "pair": ["断", "わ"], "new_token": "断わ", "pair_count": 6, "vocab_size": 7234, "corpus_tokens": 151822, "compression_chars_per_token": 2.0009, "demo_tokens": ["東京", "大学", "で", "自然", "言語", "処", "理", "を", "研究", "してい", "ます。"]}, {"rank": 4608, "pair": ["定", "着"], "new_token": "定着", "pair_count": 6, "vocab_size": 7298, "corpus_tokens": 151438, "compression_chars_per_token": 2.006, "demo_tokens": ["東京", "大学", "で", "自然", "言語", "処", "理", "を", "研究", "してい", "ます。"]}, {"rank": 4672, "pair": ["出来", "事"], "new_token": "出来事", "pair_count": 6, "vocab_size": 7362, "corpus_tokens": 151054, "compression_chars_per_token": 2.0111, "demo_tokens": ["東京", "大学", "で", "自然", "言語", "処", "理", "を", "研究", "してい", "ます。"]}, {"rank": 4736, "pair": ["一", "覧"], "new_token": "一覧", "pair_count": 6, "vocab_size": 7426, "corpus_tokens": 150670, "compression_chars_per_token": 2.0162, "demo_tokens": ["東京", "大学", "で", "自然", "言語", "処", "理", "を", "研究", "してい", "ます。"]}, {"rank": 4800, "pair": ["シ", "ン"], "new_token": "シン", "pair_count": 6, "vocab_size": 7490, "corpus_tokens": 150286, "compression_chars_per_token": 2.0214, "demo_tokens": ["東京", "大学", "で", "自然", "言語", "処", "理", "を", "研究", "してい", "ます。"]}, {"rank": 4864, "pair": ["ょ", "う"], "new_token": "ょう", "pair_count": 6, "vocab_size": 7554, "corpus_tokens": 149902, "compression_chars_per_token": 2.0265, "demo_tokens": ["東京", "大学", "で", "自然", "言語", "処", "理", "を", "研究", "してい", "ます。"]}, {"rank": 4928, "pair": ["にな", "っている。"], "new_token": "になっている。", "pair_count": 6, "vocab_size": 7618, "corpus_tokens": 149518, "compression_chars_per_token": 2.0317, "demo_tokens": ["東京", "大学", "で", "自然", "言語", "処", "理", "を", "研究", "してい", "ます。"]}, {"rank": 4992, "pair": ["だ", "わ"], "new_token": "だわ", "pair_count": 6, "vocab_size": 7682, "corpus_tokens": 149134, "compression_chars_per_token": 2.037, "demo_tokens": ["東京", "大学", "で", "自然", "言語", "処", "理", "を", "研究", "してい", "ます。"]}, {"rank": 5056, "pair": ["かか", "わ"], "new_token": "かかわ", "pair_count": 6, "vocab_size": 7746, "corpus_tokens": 148750, "compression_chars_per_token": 2.0422, "demo_tokens": ["東京", "大学", "で", "自然", "言語", "処", "理", "を", "研究", "しています。"]}, {"rank": 5120, "pair": [".", "5"], "new_token": ".5", "pair_count": 6, "vocab_size": 7810, "corpus_tokens": 148367, "compression_chars_per_token": 2.0475, "demo_tokens": ["東京", "大学", "で", "自然", "言語", "処", "理", "を", "研究", "しています。"]}, {"rank": 5184, "pair": ["運", "ば"], "new_token": "運ば", "pair_count": 5, "vocab_size": 7874, "corpus_tokens": 148039, "compression_chars_per_token": 2.052, "demo_tokens": ["東京", "大学", "で", "自然", "言語", "処", "理", "を", "研究", "しています。"]}, {"rank": 5248, "pair": ["見え", "たのです。"], "new_token": "見えたのです。", "pair_count": 5, "vocab_size": 7938, "corpus_tokens": 147719, "compression_chars_per_token": 2.0565, "demo_tokens": ["東京", "大学", "で", "自然", "言語", "処", "理", "を", "研究", "しています。"]}, {"rank": 5312, "pair": ["着", "け"], "new_token": "着け", "pair_count": 5, "vocab_size": 8002, "corpus_tokens": 147399, "compression_chars_per_token": 2.061, "demo_tokens": ["東京", "大学", "で", "自然", "言語", "処", "理", "を", "研究", "しています。"]}, {"rank": 5376, "pair": ["気", "には"], "new_token": "気には", "pair_count": 5, "vocab_size": 8066, "corpus_tokens": 147079, "compression_chars_per_token": 2.0654, "demo_tokens": ["東京", "大学", "で", "自然", "言語", "処", "理", "を", "研究", "しています。"]}, {"rank": 5440, "pair": ["政", "党"], "new_token": "政党", "pair_count": 5, "vocab_size": 8130, "corpus_tokens": 146759, "compression_chars_per_token": 2.0699, "demo_tokens": ["東京", "大学", "で", "自然", "言語", "処", "理", "を", "研究", "しています。"]}, {"rank": 5503, "pair": ["", ""], "new_token": "", "pair_count": 0, "vocab_size": 8192, "corpus_tokens": 146449, "compression_chars_per_token": 2.0743, "demo_tokens": ["東京", "大学", "で", "自然", "言語", "処", "理", "を", "研究", "しています。"]}]}